<unk>	0
<s>	0
</s>	0
<pad>	0
▁t	-0
▁th	-1
▁a	-2
in	-3
▁w	-4
er	-5
▁the	-6
▁o	-7
▁s	-8
at	-9
re	-10
nd	-11
ou	-12
▁c	-13
is	-14
it	-15
▁b	-16
en	-17
▁m	-18
ing	-19
on	-20
▁h	-21
▁to	-22
▁p	-23
es	-24
▁f	-25
an	-26
or	-27
▁d	-28
al	-29
▁of	-30
▁in	-31
ed	-32
▁I	-33
▁and	-34
▁l	-35
ar	-36
▁that	-37
om	-38
▁y	-39
as	-40
ic	-41
▁g	-42
le	-43
ve	-44
▁n	-45
ll	-46
us	-47
▁you	-48
▁e	-49
▁wh	-50
ly	-51
▁be	-52
ow	-53
ut	-54
ion	-55
▁is	-56
▁we	-57
▁A	-58
▁it	-59
ent	-60
ot	-61
et	-62
▁re	-63
▁T	-64
ct	-65
▁ha	-66
ere	-67
▁on	-68
ld	-69
ver	-70
gh	-71
id	-72
ay	-73
im	-74
se	-75
▁Th	-76
ur	-77
ro	-78
▁And	-79
st	-80
▁st	-81
ch	-82
▁this	-83
▁S	-84
ke	-85
ce	-86
▁for	-87
ter	-88
if	-89
ir	-90
ra	-91
▁was	-92
ith	-93
▁W	-94
▁an	-95
op	-96
▁are	-97
th	-98
ol	-99
▁do	-100
am	-101
▁with	-102
ally	-103
▁u	-104
▁have	-105
▁li	-106
ri	-107
▁ab	-108
▁se	-109
▁they	-110
▁mo	-111
▁as	-112
▁can	-113
▁go	-114
ation	-115
▁B	-116
▁k	-117
ght	-118
ad	-119
out	-120
▁he	-121
▁wor	-122
use	-123
▁com	-124
ould	-125
▁me	-126
▁ne	-127
▁sh	-128
▁at	-129
pp	-130
ill	-131
▁what	-132
ant	-133
ge	-134
▁not	-135
▁-	-136
il	-137
very	-138
▁--	-139
ul	-140
ers	-141
▁So	-142
▁so	-143
▁about	-144
▁ex	-145
ust	-146
oo	-147
▁j	-148
▁ch	-149
▁all	-150
est	-151
▁de	-152
▁my	-153
▁The	-154
▁or	-155
▁pro	-156
ause	-157
▁som	-158
um	-159
▁con	-160
▁"	-161
ess	-162
▁fr	-163
▁pe	-164
ear	-165
ck	-166
art	-167
ate	-168
ople	-169
▁like	-170
ity	-171
ig	-172
ure	-173
▁our	-174
▁people	-175
ist	-176
▁there	-177
▁from	-178
▁(	-179
▁one	-180
▁We	-181
ive	-182
▁ma	-183
ble	-184
▁It	-185
▁al	-186
ies	-187
qu	-188
▁us	-189
un	-190
▁N	-191
▁but	-192
▁kn	-193
ect	-194
od	-195
▁v	-196
rou	-197
all	-198
▁bec	-199
▁te	-200
king	-201
▁out	-202
ind	-203
os	-204
▁just	-205
▁But	-206
▁sp	-207
▁M	-208
▁C	-209
▁H	-210
em	-211
and	-212
▁know	-213
▁them	-214
ide	-215
her	-216
ort	-217
▁who	-218
el	-219
ci	-220
▁pl	-221
▁by	-222
▁if	-223
▁up	-224
▁thing	-225
▁these	-226
▁your	-227
▁thin	-228
ain	-229
▁more	-230
▁when	-231
one	-232
▁get	-233
▁their	-234
▁int	-235
▁im	-236
▁r	-237
▁had	-238
au	-239
▁some	-240
▁tim	-241
ich	-242
▁very	-243
▁1	-244
▁because	-245
▁would	-246
▁Y	-247
▁see	-248
ap	-249
▁su	-250
ment	-251
og	-252
▁act	-253
▁were	-254
ine	-255
▁year	-256
ook	-257
▁tr	-258
▁going	-259
nt	-260
ie	-261
▁how	-262
our	-263
▁Wh	-264
ame	-265
ast	-266
act	-267
ous	-268
iz	-269
ack	-270
▁O	-271
▁think	-272
iv	-273
augh	-274
▁comp	-275
are	-276
▁en	-277
ard	-278
ight	-279
▁sa	-280
ose	-281
ence	-282
▁want	-283
reat	-284
aughter	-285
ag	-286
res	-287
▁E	-288
▁le	-289
▁which	-290
00	-291
."	-292
ans	-293
▁way	-294
▁time	-295
▁really	-296
ab	-297
ions	-298
▁ev	-299
hing	-300
ually	-301
▁exp	-302
ther	-303
ong	-304
Laughter	-305
▁every	-306
▁world	-307
ore	-308
▁man	-309
▁fe	-310
▁has	-311
▁ta	-312
▁could	-313
▁P	-314
fer	-315
▁per	-316
▁qu	-317
ud	-318
▁will	-319
▁into	-320
▁work	-321
ace	-322
▁D	-323
ild	-324
▁don	-325
▁This	-326
ach	-327
▁then	-328
▁F	-329
nder	-330
▁L	-331
▁other	-332
age	-333
▁here	-334
ical	-335
▁did	-336
▁say	-337
▁where	-338
▁years	-339
▁You	-340
▁ag	-341
▁In	-342
▁ri	-343
▁cl	-344
▁G	-345
▁un	-346
▁look	-347
▁now	-348
▁than	-349
▁need	-350
pt	-351
itt	-352
▁actually	-353
ice	-354
▁co	-355
▁been	-356
▁things	-357
▁somet	-358
so	-359
▁make	-360
▁no	-361
▁dis	-362
ff	-363
ome	-364
▁any	-365
▁dif	-366
▁Now	-367
▁over	-368
▁tw	-369
▁They	-370
irst	-371
▁imp	-372
▁part	-373
▁2	-374
▁right	-375
▁start	-376
ry	-377
ep	-378
▁po	-379
▁happ	-380
orm	-381
ite	-382
ory	-383
round	-384
ac	-385
ree	-386
own	-387
ign	-388
▁those	-389
ang	-390
ife	-391
▁ar	-392
ens	-393
sel	-394
▁R	-395
ount	-396
▁bu	-397
▁lo	-398
▁call	-399
ell	-400
▁ro	-401
ult	-402
ves	-403
▁first	-404
ber	-405
▁also	-406
ia	-407
ass	-408
▁two	-409
olog	-410
▁back	-411
end	-412
▁inter	-413
▁something	-414
ip	-415
ound	-416
ving	-417
ire	-418
▁new	-419
uch	-420
▁ac	-421
▁differ	-422
▁cont	-423
▁her	-424
ue	-425
ater	-426
▁even	-427
▁much	-428
▁pr	-429
▁most	-430
▁said	-431
▁res	-432
▁she	-433
ru	-434
ppl	-435
▁bet	-436
▁pre	-437
way	-438
▁his	-439
ations	-440
ated	-441
▁under	-442
cent	-443
▁only	-444
able	-445
▁ad	-446
ple	-447
vel	-448
rain	-449
▁hum	-450
▁ph	-451
▁life	-452
▁tal	-453
▁bl	-454
▁got	-455
▁That	-456
co	-457
▁day	-458
ood	-459
▁many	-460
▁lot	-461
▁des	-462
rough	-463
ittle	-464
ody	-465
▁am	-466
▁sy	-467
▁kind	-468
▁comm	-469
▁little	-470
ish	-471
▁real	-472
▁J	-473
ob	-474
ance	-475
du	-476
pplause	-477
ick	-478
▁take	-479
other	-480
ict	-481
▁different	-482
Applause	-483
cess	-484
ase	-485
ress	-486
ents	-487
▁spe	-488
ors	-489
int	-490
pl	-491
▁does	-492
▁through	-493
ank	-494
▁em	-495
▁U	-496
▁around	-497
ak	-498
▁good	-499
cre	-500
als	-501
ning	-502
ange	-503
▁What	-504
▁being	-505
form	-506
▁too	-507
igh	-508
▁ide	-509
▁ra	-510
▁down	-511
ph	-512
wn	-513
ath	-514
ether	-515
▁tell	-516
ary	-517
ile	-518
ade	-519
ms	-520
▁sm	-521
▁same	-522
▁use	-523
ved	-524
ower	-525
▁There	-526
he	-527
▁may	-528
▁thou	-529
ful	-530
ces	-531
ons	-532
ark	-533
ting	-534
stem	-535
lect	-536
▁pers	-537
▁gen	-538
ne	-539
▁fl	-540
per	-541
day	-542
▁human	-543
urn	-544
▁show	-545
xt	-546
▁put	-547
▁tra	-548
▁He	-549
row	-550
▁count	-551
▁proble	-552
▁wr	-553
ys	-554
fter	-555
vers	-556
▁happen	-557
ible	-558
ars	-559
ject	-560
ord	-561
▁sur	-562
▁off	-563
be	-564
chn	-565
▁exper	-566
▁hel	-567
▁fact	-568
▁dec	-569
▁come	-570
▁try	-571
▁find	-572
self	-573
▁If	-574
ric	-575
ial	-576
▁system	-577
▁big	-578
ities	-579
fore	-580
▁techn	-581
▁stud	-582
▁let	-583
▁rem	-584
▁child	-585
▁sc	-586
▁feel	-587
▁own	-588
▁wom	-589
▁three	-590
▁lear	-591
▁called	-592
oc	-593
▁inv	-594
▁help	-595
ition	-596
▁col	-597
thing	-598
▁great	-599
▁talk	-600
▁bel	-601
oss	-602
▁doing	-603
▁quest	-604
cial	-605
▁long	-606
▁sim	-607
we	-608
ib	-609
ious	-610
ren	-611
▁build	-612
ically	-613
ating	-614
▁again	-615
▁end	-616
▁percent	-617
ology	-618
▁made	-619
▁ind	-620
mer	-621
▁well	-622
ics	-623
▁underst	-624
ual	-625
les	-626
ub	-627
▁after	-628
▁Ch	-629
ew	-630
ates	-631
▁gu	-632
▁its	-633
▁should	-634
▁import	-635
▁person	-636
av	-637
▁why	-638
ty	-639
illion	-640
ily	-641
olut	-642
▁ask	-643
▁change	-644
▁didn	-645
te	-646
ize	-647
ft	-648
▁rel	-649
▁brain	-650
▁K	-651
▁app	-652
▁br	-653
▁high	-654
▁today	-655
ail	-656
ists	-657
▁him	-658
▁ob	-659
▁sci	-660
▁might	-661
▁inst	-662
▁Thank	-663
ool	-664
body	-665
▁important	-666
ise	-667
ds	-668
▁Well	-669
▁ke	-670
▁understand	-671
ull	-672
▁mean	-673
ost	-674
▁creat	-675
▁fam	-676
▁gl	-677
▁thought	-678
▁commun	-679
▁cons	-680
▁ins	-681
▁before	-682
old	-683
gan	-684
▁exam	-685
▁sch	-686
ility	-687
▁car	-688
?"	-689
atter	-690
▁still	-691
▁better	-692
con	-693
ian	-694
▁play	-695
▁started	-696
▁trans	-697
alth	-698
▁never	-699
▁power	-700
▁pol	-701
▁idea	-702
oth	-703
ope	-704
▁gra	-705
▁each	-706
▁turn	-707
▁When	-708
ven	-709
▁St	-710
▁bas	-711
und	-712
kes	-713
▁design	-714
ough	-715
ave	-716
▁last	-717
▁Be	-718
▁belie	-719
▁3	-720
ction	-721
▁num	-722
▁cour	-723
▁produ	-724
▁tog	-725
▁together	-726
ness	-727
pe	-728
▁♫	-729
▁20	-730
▁ent	-731
▁found	-732
▁able	-733
▁att	-734
000	-735
ular	-736
▁point	-737
▁plan	-738
ese	-739
▁problem	-740
ks	-741
▁give	-742
▁few	-743
▁story	-744
▁another	-745
▁hand	-746
▁bo	-747
arch	-748
▁cre	-749
ert	-750
..	-751
▁imag	-752
▁learn	-753
lic	-754
ience	-755
iss	-756
ros	-757
ng	-758
atch	-759
cond	-760
ited	-761
▁mon	-762
ween	-763
▁rec	-764
gin	-765
ather	-766
,"	-767
ized	-768
▁med	-769
▁sl	-770
ward	-771
▁ext	-772
▁school	-773
▁next	-774
▁bit	-775
▁interest	-776
erg	-777
▁kid	-778
▁between	-779
read	-780
▁used	-781
▁tri	-782
▁cr	-783
▁place	-784
,000	-785
▁went	-786
▁art	-787
▁water	-788
▁dat	-789
ix	-790
▁care	-791
ced	-792
▁women	-793
ures	-794
velop	-795
ways	-796
cl	-797
▁comple	-798
▁ser	-799
ense	-800
ative	-801
▁question	-802
▁di	-803
▁cell	-804
▁love	-805
▁mod	-806
meric	-807
▁came	-808
ific	-809
▁ago	-810
▁course	-811
ings	-812
▁incre	-813
▁19	-814
▁small	-815
▁eff	-816
▁data	-817
▁develop	-818
▁mom	-819
▁ter	-820
az	-821
▁str	-822
cept	-823
▁ear	-824
▁met	-825
▁far	-826
▁fin	-827
▁example	-828
uc	-829
ger	-830
ooking	-831
▁technology	-832
▁read	-833
▁health	-834
▁cent	-835
▁hard	-836
▁How	-837
ram	-838
▁light	-839
▁rep	-840
ale	-841
▁grow	-842
▁partic	-843
▁Americ	-844
▁old	-845
▁doesn	-846
riend	-847
ets	-848
▁op	-849
ism	-850
▁resp	-851
ross	-852
ments	-853
▁chang	-854
▁children	-855
▁10	-856
▁less	-857
▁always	-858
▁live	-859
selves	-860
▁poss	-861
▁Af	-862
▁As	-863
li	-864
cy	-865
▁move	-866
formation	-867
aw	-868
▁beh	-869
▁expl	-870
▁wanted	-871
▁min	-872
▁sk	-873
ably	-874
▁second	-875
ident	-876
cer	-877
▁four	-878
▁V	-879
ational	-880
ands	-881
ah	-882
hip	-883
ote	-884
iness	-885
▁ever	-886
▁sort	-887
ock	-888
pport	-889
ten	-890
▁gener	-891
▁el	-892
▁away	-893
▁working	-894
cause	-895
▁looking	-896
▁comput	-897
▁home	-898
▁done	-899
▁giv	-900
▁means	-901
▁inf	-902
▁lar	-903
▁uni	-904
▁lead	-905
ract	-906
▁friend	-907
ork	-908
▁believe	-909
its	-910
olution	-911
▁ed	-912
▁reas	-913
▁Un	-914
▁cap	-915
ural	-916
▁bi	-917
gg	-918
ories	-919
▁Because	-920
▁trying	-921
▁nat	-922
oney	-923
▁compan	-924
conom	-925
ruct	-926
ues	-927
▁cor	-928
▁country	-929
oy	-930
▁million	-931
▁mus	-932
ries	-933
▁using	-934
▁fut	-935
▁whole	-936
wh	-937
ond	-938
nect	-939
tern	-940
ps	-941
▁acc	-942
▁number	-943
▁5	-944
air	-945
▁information	-946
▁For	-947
ention	-948
▁process	-949
ital	-950
▁sub	-951
led	-952
▁Afric	-953
ines	-954
▁vis	-955
vern	-956
▁bus	-957
▁pub	-958
▁sing	-959
ont	-960
▁become	-961
▁enough	-962
▁thinking	-963
▁organ	-964
▁body	-965
▁future	-966
▁sol	-967
▁space	-968
▁econom	-969
▁mind	-970
▁run	-971
▁reg	-972
▁create	-973
▁best	-974
▁everything	-975
▁fo	-976
▁job	-977
sw	-978
▁prog	-979
▁cou	-980
▁form	-981
aces	-982
ied	-983
▁pres	-984
▁left	-985
▁wal	-986
aut	-987
▁open	-988
▁maybe	-989
▁She	-990
▁My	-991
ner	-992
▁cle	-993
▁spec	-994
▁took	-995
ety	-996
ake	-997
▁set	-998
▁kids	-999
▁grou	-1000
▁elect	-1001
▁These	-1002
▁money	-1003
▁4	-1004
iting	-1005
▁times	-1006
▁cur	-1007
▁sign	-1008
▁without	-1009
▁five	-1010
▁stu	-1011
▁eng	-1012
iron	-1013
ergy	-1014
imate	-1015
ever	-1016
▁food	-1017
▁govern	-1018
▁head	-1019
▁One	-1020
▁war	-1021
▁prob	-1022
▁social	-1023
▁keep	-1024
▁book	-1025
▁making	-1026
imes	-1027
iew	-1028
▁anim	-1029
ember	-1030
▁family	-1031
▁add	-1032
▁answ	-1033
▁lives	-1034
▁rese	-1035
ead	-1036
ices	-1037
uring	-1038
▁while	-1039
ouse	-1040
alf	-1041
▁young	-1042
▁month	-1043
▁def	-1044
▁pat	-1045
▁matter	-1046
▁dist	-1047
▁teach	-1048
▁getting	-1049
▁fun	-1050
der	-1051
▁hist	-1052
▁energy	-1053
▁mem	-1054
▁pict	-1055
▁dem	-1056
▁comes	-1057
ts	-1058
ertain	-1059
▁sound	-1060
▁glob	-1061
▁project	-1062
▁seem	-1063
▁eas	-1064
▁connect	-1065
▁pret	-1066
▁prot	-1067
▁phys	-1068
▁research	-1069
▁dep	-1070
▁dri	-1071
▁such	-1072
irl	-1073
▁room	-1074
▁allow	-1075
▁moment	-1076
▁det	-1077
▁pop	-1078
▁told	-1079
▁sense	-1080
▁doll	-1081
▁pass	-1082
▁contro	-1083
▁experience	-1084
▁wee	-1085
▁across	-1086
▁scient	-1087
▁share	-1088
▁talking	-1089
▁val	-1090
▁begin	-1091
▁conf	-1092
arent	-1093
▁ty	-1094
ince	-1095
▁happened	-1096
rib	-1097
▁makes	-1098
▁stand	-1099
▁An	-1100
▁probably	-1101
▁stop	-1102
▁often	-1103
▁Let	-1104
ird	-1105
▁else	-1106
ying	-1107
▁men	-1108
ient	-1109
▁wo	-1110
most	-1111
▁soci	-1112
▁beaut	-1113
▁countries	-1114
ences	-1115
ants	-1116
▁env	-1117
▁side	-1118
▁ey	-1119
▁ways	-1120
ided	-1121
▁someone	-1122
▁cult	-1123
▁building	-1124
ef	-1125
▁pretty	-1126
▁quite	-1127
▁anything	-1128
▁effect	-1129
▁asked	-1130
▁aut	-1131
allen	-1132
▁reason	-1133
▁science	-1134
ink	-1135
ality	-1136
▁single	-1137
▁community	-1138
▁mark	-1139
orn	-1140
▁polit	-1141
▁pain	-1142
▁hour	-1143
▁remember	-1144
ases	-1145
▁cam	-1146
uge	-1147
▁having	-1148
▁interesting	-1149
▁saw	-1150
▁later	-1151
▁half	-1152
less	-1153
▁living	-1154
ots	-1155
▁environ	-1156
▁bad	-1157
▁list	-1158
gs	-1159
▁fig	-1160
▁wa	-1161
idd	-1162
arth	-1163
▁pie	-1164
▁city	-1165
verse	-1166
▁both	-1167
ime	-1168
▁business	-1169
▁air	-1170
▁equ	-1171
angu	-1172
▁seen	-1173
▁Ind	-1174
▁days	-1175
▁Here	-1176
ready	-1177
▁coming	-1178
▁bring	-1179
llow	-1180
▁hope	-1181
ogra	-1182
ken	-1183
▁rest	-1184
ization	-1185
red	-1186
▁char	-1187
▁answer	-1188
▁dise	-1189
▁ref	-1190
▁gre	-1191
▁treat	-1192
▁sit	-1193
iter	-1194
ream	-1195
cover	-1196
▁public	-1197
▁dollars	-1198
▁model	-1199
▁wonder	-1200
▁gr	-1201
▁case	-1202
▁educ	-1203
▁challen	-1204
▁cells	-1205
▁simple	-1206
man	-1207
▁global	-1208
▁bre	-1209
▁prof	-1210
▁happens	-1211
▁New	-1212
▁already	-1213
▁possible	-1214
▁top	-1215
▁unt	-1216
▁rob	-1217
▁contin	-1218
▁mach	-1219
osed	-1220
▁myself	-1221
▁thous	-1222
▁suc	-1223
▁level	-1224
ash	-1225
lf	-1226
▁sure	-1227
▁test	-1228
▁langu	-1229
▁Is	-1230
▁almost	-1231
▁planet	-1232
▁hear	-1233
▁ass	-1234
io	-1235
▁complete	-1236
ideo	-1237
ters	-1238
▁Earth	-1239
▁girl	-1240
ute	-1241
oice	-1242
where	-1243
▁All	-1244
▁phot	-1245
aps	-1246
▁loc	-1247
pr	-1248
▁watch	-1249
▁once	-1250
ivid	-1251
itive	-1252
▁says	-1253
▁heart	-1254
ury	-1255
▁stuff	-1256
ilt	-1257
▁exact	-1258
▁sw	-1259
▁inside	-1260
▁words	-1261
▁adv	-1262
▁ris	-1263
ately	-1264
▁history	-1265
▁deep	-1266
pect	-1267
▁particular	-1268
bers	-1269
▁dire	-1270
ulation	-1271
▁lab	-1272
▁aff	-1273
ages	-1274
▁problems	-1275
...	-1276
▁fore	-1277
▁goes	-1278
ape	-1279
▁par	-1280
▁yet	-1281
▁imm	-1282
▁amaz	-1283
▁No	-1284
▁wrong	-1285
▁certain	-1286
side	-1287
ina	-1288
▁nothing	-1289
ee	-1290
Wh	-1291
▁Al	-1292
rem	-1293
▁whether	-1294
▁environment	-1295
▁age	-1296
▁200	-1297
ier	-1298
▁music	-1299
▁Or	-1300
▁night	-1301
ins	-1302
ott	-1303
▁class	-1304
▁Africa	-1305
▁entire	-1306
▁self	-1307
▁imagine	-1308
▁computer	-1309
no	-1310
▁wasn	-1311
▁within	-1312
ron	-1313
▁true	-1314
▁billion	-1315
▁face	-1316
lish	-1317
▁ret	-1318
▁product	-1319
▁saying	-1320
▁group	-1321
▁che	-1322
▁result	-1323
ograph	-1324
▁cond	-1325
▁order	-1326
▁control	-1327
▁until	-1328
▁stories	-1329
uck	-1330
ield	-1331
▁months	-1332
▁dev	-1333
▁six	-1334
ely	-1335
▁iss	-1336
▁looked	-1337
▁hund	-1338
cing	-1339
▁pri	-1340
▁Why	-1341
▁At	-1342
▁team	-1343
unch	-1344
▁full	-1345
▁mor	-1346
▁black	-1347
▁friends	-1348
thers	-1349
▁must	-1350
▁mar	-1351
▁past	-1352
▁walk	-1353
▁const	-1354
▁picture	-1355
ider	-1356
▁amazing	-1357
ined	-1358
▁appro	-1359
up	-1360
ior	-1361
ired	-1362
omes	-1363
▁individ	-1364
▁isn	-1365
▁ideas	-1366
▁parent	-1367
▁government	-1368
▁knew	-1369
▁figure	-1370
▁On	-1371
▁cost	-1372
get	-1373
▁large	-1374
▁became	-1375
▁z	-1376
ional	-1377
ling	-1378
▁mil	-1379
clud	-1380
ivity	-1381
▁learned	-1382
▁though	-1383
▁beautif	-1384
cle	-1385
outh	-1386
▁news	-1387
▁against	-1388
▁kill	-1389
▁United	-1390
▁study	-1391
cur	-1392
▁...	-1393
▁pay	-1394
▁incred	-1395
▁fund	-1396
▁sex	-1397
▁works	-1398
▁law	-1399
▁trad	-1400
▁others	-1401
▁mag	-1402
ex	-1403
▁train	-1404
▁mater	-1405
▁OK	-1406
▁woman	-1407
▁[	-1408
▁heard	-1409
▁object	-1410
▁vir	-1411
▁6	-1412
▁language	-1413
▁exc	-1414
▁cra	-1415
▁state	-1416
▁looks	-1417
▁follow	-1418
▁invest	-1419
▁tool	-1420
▁success	-1421
acter	-1422
▁name	-1423
ision	-1424
▁100	-1425
▁cancer	-1426
▁collect	-1427
etic	-1428
▁30	-1429
atic	-1430
ians	-1431
▁themselves	-1432
ogn	-1433
▁everyone	-1434
ocus	-1435
▁mic	-1436
▁free	-1437
▁decided	-1438
iddle	-1439
▁quick	-1440
▁15	-1441
line	-1442
▁exactly	-1443
▁diff	-1444
▁view	-1445
▁front	-1446
utes	-1447
▁built	-1448
▁prov	-1449
ush	-1450
▁beautiful	-1451
▁pos	-1452
▁sometimes	-1453
aster	-1454
ental	-1455
ared	-1456
▁since	-1457
▁net	-1458
br	-1459
▁meet	-1460
▁land	-1461
▁fil	-1462
eah	-1463
fort	-1464
icult	-1465
▁instead	-1466
▁dru	-1467
omet	-1468
▁discover	-1469
▁focus	-1470
▁mother	-1471
aking	-1472
▁9	-1473
▁species	-1474
▁line	-1475
▁company	-1476
vious	-1477
▁questions	-1478
ware	-1479
▁ourselves	-1480
▁mass	-1481
▁States	-1482
▁protect	-1483
▁Fr	-1484
ives	-1485
▁abs	-1486
▁spend	-1487
▁dra	-1488
▁house	-1489
▁experim	-1490
land	-1491
▁word	-1492
▁support	-1493
ients	-1494
▁supp	-1495
ted	-1496
▁taking	-1497
▁along	-1498
aper	-1499
▁students	-1500
wards	-1501
▁completely	-1502
▁relations	-1503
ED	-1504
▁stre	-1505
to	-1506
▁guy	-1507
▁ident	-1508
▁meas	-1509
▁society	-1510
▁clear	-1511
elt	-1512
▁Some	-1513
▁places	-1514
erv	-1515
pportun	-1516
ones	-1517
▁engine	-1518
▁struct	-1519
▁Do	-1520
▁ones	-1521
▁speak	-1522
▁av	-1523
▁ca	-1524
▁difficult	-1525
▁hold	-1526
iol	-1527
▁hours	-1528
▁opportun	-1529
illions	-1530
ats	-1531
▁es	-1532
▁Every	-1533
▁gets	-1534
▁couple	-1535
rop	-1536
▁basically	-1537
ane	-1538
▁pred	-1539
▁oce	-1540
▁To	-1541
ator	-1542
versity	-1543
ules	-1544
gest	-1545
ability	-1546
▁50	-1547
▁education	-1548
▁disease	-1549
▁exist	-1550
▁rad	-1551
▁huge	-1552
▁red	-1553
▁fail	-1554
▁jour	-1555
▁close	-1556
▁mess	-1557
itting	-1558
▁colle	-1559
▁itself	-1560
ased	-1561
▁'	-1562
ential	-1563
bs	-1564
▁7	-1565
▁step	-1566
▁behav	-1567
▁pot	-1568
▁video	-1569
ctor	-1570
ption	-1571
▁bab	-1572
▁inc	-1573
ological	-1574
▁America	-1575
▁learning	-1576
▁animals	-1577
▁super	-1578
▁expect	-1579
▁complex	-1580
▁listen	-1581
▁couldn	-1582
ither	-1583
▁emot	-1584
▁reach	-1585
▁piece	-1586
▁happening	-1587
▁deal	-1588
▁thousands	-1589
▁includ	-1590
▁universe	-1591
▁worked	-1592
▁dig	-1593
▁death	-1594
▁indust	-1595
▁early	-1596
▁everybody	-1597
ming	-1598
▁nature	-1599
fect	-1600
kay	-1601
▁miss	-1602
▁8	-1603
face	-1604
▁bro	-1605
▁created	-1606
ides	-1607
dd	-1608
ature	-1609
▁mot	-1610
▁least	-1611
▁somebody	-1612
aring	-1613
ination	-1614
▁Then	-1615
▁common	-1616
▁relationship	-1617
▁felt	-1618
app	-1619
▁saf	-1620
▁needs	-1621
▁systems	-1622
sy	-1623
ented	-1624
▁market	-1625
ove	-1626
▁ele	-1627
▁Can	-1628
▁liter	-1629
▁Se	-1630
▁parents	-1631
▁program	-1632
ges	-1633
▁turns	-1634
▁cir	-1635
▁access	-1636
▁coll	-1637
▁short	-1638
▁typ	-1639
▁norm	-1640
▁intern	-1641
istic	-1642
▁fear	-1643
▁blood	-1644
▁reality	-1645
▁var	-1646
ames	-1647
▁amount	-1648
ral	-1649
ples	-1650
▁pur	-1651
▁sens	-1652
uss	-1653
▁lim	-1654
▁game	-1655
▁during	-1656
nov	-1657
▁ant	-1658
itch	-1659
▁rather	-1660
▁recent	-1661
▁dream	-1662
haps	-1663
▁record	-1664
▁won	-1665
▁math	-1666
▁viol	-1667
not	-1668
ibly	-1669
ump	-1670
▁arch	-1671
ially	-1672
▁TED	-1673
▁eyes	-1674
▁minutes	-1675
▁easy	-1676
▁kinds	-1677
▁yourself	-1678
work	-1679
▁humans	-1680
itions	-1681
▁takes	-1682
▁aud	-1683
▁companies	-1684
▁Pe	-1685
▁fre	-1686
▁hy	-1687
▁field	-1688
att	-1689
▁pract	-1690
▁outside	-1691
▁Eur	-1692
▁behind	-1693
osp	-1694
▁American	-1695
ully	-1696
ply	-1697
▁famil	-1698
▁leg	-1699
▁break	-1700
▁rev	-1701
▁gave	-1702
▁stay	-1703
▁wind	-1704
ency	-1705
▁surv	-1706
▁neur	-1707
idence	-1708
▁Intern	-1709
▁needed	-1710
els	-1711
▁began	-1712
▁impro	-1713
▁known	-1714
▁York	-1715
▁powerful	-1716
▁Ar	-1717
erm	-1718
▁century	-1719
ains	-1720
▁longer	-1721
▁leave	-1722
▁Our	-1723
▁third	-1724
▁mult	-1725
▁CA	-1726
▁ge	-1727
▁jo	-1728
▁perform	-1729
jor	-1730
olved	-1731
▁changed	-1732
cious	-1733
▁natural	-1734
NA	-1735
▁given	-1736
▁interact	-1737
ged	-1738
▁low	-1739
▁cities	-1740
▁hands	-1741
The	-1742
▁ben	-1743
▁perfect	-1744
orth	-1745
▁chem	-1746
▁seeing	-1747
▁near	-1748
▁201	-1749
ison	-1750
▁fly	-1751
▁har	-1752
▁event	-1753
▁middle	-1754
▁simply	-1755
▁impact	-1756
▁taken	-1757
ilar	-1758
▁Man	-1759
▁sent	-1760
▁culture	-1761
year	-1762
▁bott	-1763
▁extra	-1764
▁image	-1765
▁convers	-1766
▁difference	-1767
▁machine	-1768
▁requ	-1769
▁tem	-1770
▁realized	-1771
▁communic	-1772
▁China	-1773
▁fight	-1774
▁extrem	-1775
▁Sh	-1776
▁caus	-1777
▁strong	-1778
▁press	-1779
ney	-1780
▁political	-1781
▁cut	-1782
▁ill	-1783
ering	-1784
▁local	-1785
▁Europe	-1786
▁risk	-1787
ster	-1788
leep	-1789
▁moving	-1790
▁population	-1791
▁dr	-1792
▁major	-1793
▁enc	-1794
▁experi	-1795
▁finally	-1796
▁bir	-1797
▁approach	-1798
inary	-1799
▁disc	-1800
uth	-1801
attern	-1802
▁non	-1803
ution	-1804
▁oper	-1805
▁recogn	-1806
▁Not	-1807
▁tot	-1808
▁turned	-1809
▁God	-1810
▁behavior	-1811
que	-1812
ror	-1813
anger	-1814
▁personal	-1815
oms	-1816
▁oc	-1817
▁fall	-1818
▁cannot	-1819
▁attention	-1820
▁direct	-1821
ern	-1822
▁ve	-1823
▁sym	-1824
pped	-1825
▁emb	-1826
ised	-1827
▁grand	-1828
rodu	-1829
▁white	-1830
hood	-1831
▁area	-1832
▁innov	-1833
▁repres	-1834
astic	-1835
▁pattern	-1836
rent	-1837
cially	-1838
▁climate	-1839
▁scientists	-1840
sych	-1841
▁guys	-1842
▁scre	-1843
▁ability	-1844
oph	-1845
▁phone	-1846
▁travel	-1847
▁changes	-1848
▁media	-1849
▁happy	-1850
▁obs	-1851
▁sun	-1852
ton	-1853
pid	-1854
▁bri	-1855
▁serv	-1856
▁feeling	-1857
▁Br	-1858
verage	-1859
▁pick	-1860
gen	-1861
▁lost	-1862
▁green	-1863
ode	-1864
▁lots	-1865
▁Eng	-1866
fully	-1867
▁dark	-1868
▁week	-1869
▁key	-1870
ellig	-1871
▁send	-1872
▁India	-1873
▁quickly	-1874
▁beginning	-1875
era	-1876
▁ess	-1877
▁ocean	-1878
▁surpr	-1879
▁consider	-1880
▁patients	-1881
izing	-1882
▁poor	-1883
▁father	-1884
ighb	-1885
▁ori	-1886
▁Just	-1887
▁size	-1888
ium	-1889
ax	-1890
acy	-1891
vent	-1892
▁parts	-1893
iny	-1894
ibility	-1895
▁situ	-1896
oun	-1897
▁People	-1898
▁ground	-1899
avor	-1900
▁respons	-1901
lec	-1902
ators	-1903
▁neighb	-1904
▁redu	-1905
▁either	-1906
ledge	-1907
▁priv	-1908
▁explain	-1909
▁measure	-1910
▁18	-1911
port	-1912
ising	-1913
▁perhaps	-1914
ried	-1915
▁With	-1916
▁tre	-1917
▁fish	-1918
▁Internet	-1919
▁spent	-1920
▁desc	-1921
▁seven	-1922
ively	-1923
▁DNA	-1924
▁dest	-1925
▁12	-1926
lease	-1927
▁robot	-1928
▁special	-1929
eg	-1930
rought	-1931
▁tried	-1932
ike	-1933
▁May	-1934
ources	-1935
ression	-1936
▁born	-1937
▁numbers	-1938
ances	-1939
aught	-1940
▁based	-1941
▁civ	-1942
▁psych	-1943
▁likely	-1944
▁present	-1945
▁Chr	-1946
ift	-1947
▁scale	-1948
▁color	-1949
▁predict	-1950
oh	-1951
reds	-1952
zy	-1953
ploy	-1954
▁prom	-1955
▁leaders	-1956
▁opportunity	-1957
ox	-1958
ateg	-1959
▁arg	-1960
▁terms	-1961
▁insp	-1962
▁economic	-1963
itect	-1964
▁path	-1965
▁write	-1966
▁ap	-1967
▁fast	-1968
▁weeks	-1969
▁win	-1970
lt	-1971
▁cal	-1972
▁medic	-1973
▁paper	-1974
▁micro	-1975
▁comb	-1976
▁surface	-1977
arr	-1978
▁slow	-1979
urb	-1980
▁understanding	-1981
▁conv	-1982
▁feed	-1983
▁alone	-1984
▁challenge	-1985
ony	-1986
ards	-1987
▁eight	-1988
▁sleep	-1989
▁Tw	-1990
ored	-1991
▁value	-1992
▁absolut	-1993
ouch	-1994
▁wall	-1995
▁profess	-1996
▁millions	-1997
▁yes	-1998
▁consum	-1999
▁opt	-2000
▁40	-2001
ler	-2002
oid	-2003
ills	-2004
▁medical	-2005
▁intellig	-2006
▁fem	-2007
▁meaning	-2008
▁gone	-2009
▁obvious	-2010
▁similar	-2011
▁buy	-2012
ified	-2013
bon	-2014
▁physical	-2015
▁shows	-2016
ann	-2017
▁trust	-2018
▁affect	-2019
par	-2020
▁bar	-2021
▁vers	-2022
▁truth	-2023
▁wouldn	-2024
pre	-2025
▁la	-2026
▁hosp	-2027
▁hundreds	-2028
▁fac	-2029
ades	-2030
▁eat	-2031
▁individual	-2032
ging	-2033
▁cy	-2034
Th	-2035
ource	-2036
orld	-2037
▁pull	-2038
▁growing	-2039
▁circ	-2040
▁architect	-2041
aged	-2042
ales	-2043
▁Right	-2044
▁current	-2045
▁center	-2046
▁whatever	-2047
bit	-2048
usic	-2049
▁opp	-2050
▁draw	-2051
▁morning	-2052
▁soon	-2053
▁dead	-2054
ials	-2055
▁growth	-2056
▁box	-2057
▁Re	-2058
▁cool	-2059
▁molec	-2060
sh	-2061
▁squ	-2062
▁sitting	-2063
▁relig	-2064
▁arm	-2065
▁democ	-2066
▁images	-2067
ze	-2068
rand	-2069
▁communities	-2070
entially	-2071
pecially	-2072
▁realize	-2073
gle	-2074
▁blue	-2075
▁favor	-2076
amed	-2077
▁sum	-2078
▁choo	-2079
▁seems	-2080
com	-2081
ole	-2082
▁aren	-2083
por	-2084
▁telling	-2085
▁structure	-2086
▁mov	-2087
▁stru	-2088
▁tools	-2089
▁brought	-2090
lu	-2091
▁hor	-2092
▁deli	-2093
▁compet	-2094
oes	-2095
▁die	-2096
▁repl	-2097
amp	-2098
ration	-2099
of	-2100
▁areas	-2101
▁spread	-2102
▁knowledge	-2103
▁wrote	-2104
▁experiment	-2105
asc	-2106
▁wonderful	-2107
ify	-2108
▁sil	-2109
▁anal	-2110
What	-2111
▁camp	-2112
▁average	-2113
ologies	-2114
▁giving	-2115
▁interested	-2116
▁vol	-2117
ule	-2118
▁voice	-2119
▁Sp	-2120
chie	-2121
▁benef	-2122
▁Z	-2123
▁material	-2124
ug	-2125
▁polic	-2126
▁forward	-2127
ext	-2128
▁By	-2129
▁girls	-2130
ument	-2131
▁anyone	-2132
▁bur	-2133
▁appl	-2134
▁react	-2135
▁literally	-2136
▁ste	-2137
▁stat	-2138
ires	-2139
▁origin	-2140
▁movement	-2141
▁est	-2142
▁incredible	-2143
dden	-2144
▁rock	-2145
ilities	-2146
▁especially	-2147
You	-2148
▁tiny	-2149
▁solve	-2150
▁lif	-2151
de	-2152
▁serious	-2153
une	-2154
asing	-2155
▁sudden	-2156
▁evolution	-2157
▁online	-2158
▁post	-2159
▁developed	-2160
▁oil	-2161
▁deg	-2162
▁sea	-2163
▁25	-2164
▁flo	-2165
▁crit	-2166
▁asking	-2167
▁prin	-2168
Music	-2169
light	-2170
▁South	-2171
▁soft	-2172
▁discovered	-2173
▁depend	-2174
▁emp	-2175
▁road	-2176
hor	-2177
yond	-2178
▁hon	-2179
eng	-2180
iant	-2181
ffer	-2182
▁fundam	-2183
▁civil	-2184
▁starting	-2185
▁chance	-2186
▁economy	-2187
▁photograph	-2188
▁block	-2189
▁report	-2190
▁div	-2191
▁Yeah	-2192
▁towards	-2193
urs	-2194
▁feet	-2195
▁carbon	-2196
▁development	-2197
▁—	-2198
ustain	-2199
▁instit	-2200
▁normal	-2201
▁industry	-2202
▁fire	-2203
▁baby	-2204
▁After	-2205
itiz	-2206
ggest	-2207
ensive	-2208
▁animal	-2209
▁playing	-2210
ery	-2211
▁creating	-2212
ites	-2213
▁smart	-2214
by	-2215
Well	-2216
▁plant	-2217
▁sever	-2218
▁suggest	-2219
edi	-2220
▁main	-2221
▁Am	-2222
▁achie	-2223
▁activ	-2224
oices	-2225
▁type	-2226
yn	-2227
come	-2228
▁lea	-2229
▁tend	-2230
▁First	-2231
▁modern	-2232
▁proper	-2233
imin	-2234
▁touch	-2235
▁film	-2236
▁beyond	-2237
iod	-2238
▁foot	-2239
▁rece	-2240
itional	-2241
▁flow	-2242
▁nice	-2243
▁breat	-2244
▁books	-2245
▁force	-2246
▁running	-2247
like	-2248
▁worth	-2249
▁bottom	-2250
▁text	-2251
▁among	-2252
▁attack	-2253
▁solution	-2254
▁choice	-2255
▁issues	-2256
▁clos	-2257
▁designed	-2258
▁guess	-2259
apt	-2260
room	-2261
▁sounds	-2262
eed	-2263
▁World	-2264
▁US	-2265
▁fur	-2266
▁recently	-2267
▁Inst	-2268
▁audience	-2269
▁prop	-2270
▁stage	-2271
uals	-2272
odies	-2273
▁save	-2274
▁issue	-2275
▁produce	-2276
head	-2277
cient	-2278
▁gives	-2279
ister	-2280
▁ball	-2281
enn	-2282
let	-2283
▁technologies	-2284
iction	-2285
▁evidence	-2286
oring	-2287
usion	-2288
▁changing	-2289
▁dou	-2290
▁hot	-2291
▁lay	-2292
▁several	-2293
▁sn	-2294
▁period	-2295
▁concept	-2296
▁danger	-2297
▁groups	-2298
▁necess	-2299
▁violence	-2300
chan	-2301
ived	-2302
▁Okay	-2303
▁shape	-2304
▁English	-2305
▁potential	-2306
ma	-2307
▁becomes	-2308
▁network	-2309
omen	-2310
▁eye	-2311
▁patient	-2312
▁suffer	-2313
lev	-2314
book	-2315
▁rate	-2316
▁defin	-2317
▁memory	-2318
▁electric	-2319
ished	-2320
▁earth	-2321
▁theory	-2322
▁speed	-2323
▁bacter	-2324
▁showed	-2325
▁ice	-2326
▁citiz	-2327
▁vac	-2328
▁poll	-2329
ressed	-2330
▁bigger	-2331
▁neg	-2332
▁thank	-2333
curity	-2334
▁digital	-2335
▁resources	-2336
ero	-2337
▁aw	-2338
▁transform	-2339
▁including	-2340
▁generation	-2341
ai	-2342
▁ast	-2343
▁offer	-2344
abor	-2345
▁skin	-2346
isions	-2347
▁clean	-2348
▁mathem	-2349
▁account	-2350
▁solar	-2351
▁threat	-2352
▁situation	-2353
ishing	-2354
▁African	-2355
▁journey	-2356
arily	-2357
▁cause	-2358
▁track	-2359
▁vill	-2360
for	-2361
ped	-2362
▁miles	-2363
onse	-2364
▁ult	-2365
ulate	-2366
lo	-2367
▁cars	-2368
▁absolutely	-2369
▁sell	-2370
iet	-2371
▁er	-2372
ival	-2373
▁search	-2374
▁talked	-2375
▁fair	-2376
▁cover	-2377
▁conversation	-2378
ctors	-2379
▁cop	-2380
▁basic	-2381
▁secre	-2382
▁function	-2383
▁fu	-2384
▁subject	-2385
lict	-2386
▁national	-2387
▁infect	-2388
ung	-2389
▁alg	-2390
▁Maybe	-2391
▁avail	-2392
▁emerg	-2393
▁Yes	-2394
ffic	-2395
antly	-2396
▁progress	-2397
▁jobs	-2398
▁higher	-2399
▁lived	-2400
▁sustain	-2401
▁Im	-2402
▁choose	-2403
▁bed	-2404
unately	-2405
▁sat	-2406
▁map	-2407
▁response	-2408
umb	-2409
ously	-2410
▁drugs	-2411
▁table	-2412
▁forest	-2413
▁Com	-2414
▁role	-2415
▁Even	-2416
▁drug	-2417
▁rules	-2418
▁hundred	-2419
ask	-2420
▁check	-2421
▁families	-2422
▁dom	-2423
▁died	-2424
▁Tod	-2425
▁mechan	-2426
▁improve	-2427
▁reasons	-2428
racy	-2429
vert	-2430
▁fill	-2431
▁safe	-2432
▁developing	-2433
uly	-2434
ucle	-2435
▁son	-2436
agn	-2437
ently	-2438
oll	-2439
▁ce	-2440
ude	-2441
erve	-2442
rast	-2443
▁ready	-2444
▁action	-2445
▁detect	-2446
▁particip	-2447
▁incredibly	-2448
nal	-2449
▁computers	-2450
▁conscious	-2451
▁rights	-2452
▁strugg	-2453
▁street	-2454
▁De	-2455
▁fa	-2456
▁drive	-2457
▁haven	-2458
▁flu	-2459
▁return	-2460
▁log	-2461
▁character	-2462
▁bodies	-2463
▁results	-2464
▁writing	-2465
▁neighbor	-2466
▁Ph	-2467
▁eventually	-2468
ned	-2469
▁syn	-2470
▁knows	-2471
▁virus	-2472
akes	-2473
rage	-2474
▁dam	-2475
▁hit	-2476
▁continue	-2477
▁capt	-2478
▁birth	-2479
▁visual	-2480
▁capital	-2481
▁available	-2482
▁accept	-2483
▁chemical	-2484
▁Goo	-2485
ners	-2486
▁fix	-2487
itten	-2488
▁colleag	-2489
▁further	-2490
ured	-2491
▁cris	-2492
▁starts	-2493
▁represent	-2494
▁stra	-2495
ene	-2496
▁mis	-2497
▁farm	-2498
▁revolution	-2499
oon	-2500
▁Today	-2501
▁daughter	-2502
▁adm	-2503
▁din	-2504
▁putting	-2505
▁strateg	-2506
▁♪	-2507
▁assum	-2508
▁office	-2509
▁biggest	-2510
▁da	-2511
▁song	-2512
▁apart	-2513
ground	-2514
▁push	-2515
▁named	-2516
▁favorite	-2517
▁door	-2518
▁sold	-2519
▁tar	-2520
right	-2521
▁moved	-2522
▁message	-2523
▁nucle	-2524
▁vision	-2525
ik	-2526
phere	-2527
▁meant	-2528
▁doctor	-2529
▁princi	-2530
▁60	-2531
▁Pro	-2532
pping	-2533
▁intelligence	-2534
▁except	-2535
▁involved	-2536
▁deb	-2537
▁separ	-2538
olutions	-2539
▁perspect	-2540
cape	-2541
▁led	-2542
▁goal	-2543
▁adult	-2544
rible	-2545
▁worse	-2546
▁screen	-2547
iar	-2548
▁boy	-2549
▁healthy	-2550
view	-2551
▁mount	-2552
▁multip	-2553
▁complic	-2554
▁meth	-2555
▁hospital	-2556
▁North	-2557
▁cases	-2558
▁device	-2559
ued	-2560
cise	-2561
▁ann	-2562
▁mob	-2563
oming	-2564
ley	-2565
▁employ	-2566
▁pictures	-2567
ray	-2568
▁taught	-2569
▁schools	-2570
▁decision	-2571
idge	-2572
verty	-2573
▁objects	-2574
▁cross	-2575
sequ	-2576
oke	-2577
▁Oh	-2578
▁prim	-2579
▁plants	-2580
▁grew	-2581
▁occur	-2582
▁general	-2583
▁supposed	-2584
▁particularly	-2585
Oh	-2586
▁199	-2587
▁sou	-2588
▁above	-2589
▁police	-2590
▁standing	-2591
lex	-2592
▁Joh	-2593
▁rich	-2594
▁effic	-2595
▁respond	-2596
▁walking	-2597
▁ine	-2598
▁Like	-2599
▁minds	-2600
▁Google	-2601
▁treatment	-2602
oot	-2603
▁faster	-2604
▁allowed	-2605
▁conflict	-2606
▁machines	-2607
▁positive	-2608
▁Of	-2609
▁detail	-2610
▁ec	-2611
▁examples	-2612
▁watching	-2613
▁Most	-2614
▁extraord	-2615
▁lose	-2616
▁labor	-2617
▁security	-2618
iding	-2619
▁prison	-2620
oud	-2621
▁luck	-2622
▁nine	-2623
▁rain	-2624
ission	-2625
more	-2626
assion	-2627
▁immedi	-2628
▁college	-2629
▁certainly	-2630
▁scientific	-2631
▁fra	-2632
▁aware	-2633
ference	-2634
▁showing	-2635
uit	-2636
▁onto	-2637
▁everywhere	-2638
edom	-2639
▁influ	-2640
▁loved	-2641
▁quality	-2642
!"	-2643
50	-2644
▁crazy	-2645
▁appear	-2646
izations	-2647
▁decisions	-2648
rate	-2649
imens	-2650
▁poverty	-2651
eter	-2652
ows	-2653
rest	-2654
ining	-2655
▁carry	-2656
▁innovation	-2657
▁gas	-2658
▁robots	-2659
▁creative	-2660
▁gal	-2661
▁sky	-2662
▁training	-2663
ana	-2664
▁concer	-2665
▁imposs	-2666
▁mist	-2667
▁signific	-2668
▁AI	-2669
▁Chin	-2670
▁Where	-2671
▁stress	-2672
▁conditions	-2673
▁code	-2674
utions	-2675
▁earli	-2676
▁prote	-2677
▁connected	-2678
rated	-2679
▁late	-2680
▁wild	-2681
▁individuals	-2682
▁lower	-2683
▁wants	-2684
▁student	-2685
▁virt	-2686
▁corre	-2687
▁introdu	-2688
▁bacteria	-2689
ims	-2690
put	-2691
bo	-2692
▁context	-2693
▁phil	-2694
▁Those	-2695
▁finding	-2696
▁totally	-2697
▁usually	-2698
▁collabor	-2699
med	-2700
▁increase	-2701
▁truly	-2702
▁provide	-2703
▁software	-2704
zz	-2705
▁finan	-2706
▁reading	-2707
▁brains	-2708
▁camera	-2709
▁crisis	-2710
▁ox	-2711
soci	-2712
▁dro	-2713
▁notice	-2714
▁Who	-2715
orith	-2716
▁vari	-2717
▁shown	-2718
▁manage	-2719
▁humanity	-2720
how	-2721
urt	-2722
▁Chinese	-2723
▁largest	-2724
aid	-2725
▁games	-2726
▁tells	-2727
▁materials	-2728
eth	-2729
▁Bl	-2730
▁John	-2731
▁spir	-2732
▁specific	-2733
▁wait	-2734
▁wish	-2735
ruction	-2736
▁disapp	-2737
▁remind	-2738
▁nobody	-2739
▁decades	-2740
rad	-2741
▁11	-2742
▁offic	-2743
▁temper	-2744
▁wife	-2745
▁impossible	-2746
▁successful	-2747
▁Brit	-2748
▁solutions	-2749
▁fundamental	-2750
anc	-2751
itary	-2752
▁star	-2753
enced	-2754
▁kept	-2755
▁medicine	-2756
▁allows	-2757
▁algorith	-2758
▁cat	-2759
▁bank	-2760
▁peace	-2761
▁quant	-2762
▁bal	-2763
▁clin	-2764
▁respect	-2765
▁War	-2766
others	-2767
▁exciting	-2768
the	-2769
▁stars	-2770
▁discuss	-2771
▁pressure	-2772
ips	-2773
▁17	-2774
▁Le	-2775
aging	-2776
▁written	-2777
▁products	-2778
aur	-2779
ered	-2780
▁perspective	-2781
▁cry	-2782
urban	-2783
▁mine	-2784
▁effort	-2785
▁magn	-2786
▁roll	-2787
▁movie	-2788
▁doctors	-2789
fact	-2790
▁coun	-2791
▁older	-2792
atory	-2793
▁purp	-2794
▁print	-2795
▁waste	-2796
▁deliver	-2797
▁reflect	-2798
▁extremely	-2799
We	-2800
agine	-2801
▁determ	-2802
▁launch	-2803
emic	-2804
eren	-2805
▁Don	-2806
▁Somet	-2807
▁excited	-2808
▁recognize	-2809
▁Mars	-2810
iversity	-2811
▁cold	-2812
lished	-2813
▁contrib	-2814
▁organization	-2815
▁teachers	-2816
▁experiences	-2817
▁mal	-2818
osphere	-2819
▁challenges	-2820
▁jud	-2821
▁vict	-2822
▁lines	-2823
▁larger	-2824
▁address	-2825
▁mathemat	-2826
wor	-2827
icle	-2828
▁content	-2829
▁desp	-2830
▁race	-2831
▁lands	-2832
▁position	-2833
▁democracy	-2834
ny	-2835
▁14	-2836
▁16	-2837
▁West	-2838
imately	-2839
oint	-2840
ring	-2841
▁Ge	-2842
▁pu	-2843
▁arri	-2844
▁trees	-2845
▁studies	-2846
▁activity	-2847
ama	-2848
joy	-2849
▁mir	-2850
▁Christ	-2851
ologists	-2852
▁thousand	-2853
ounds	-2854
▁female	-2855
▁mental	-2856
▁skills	-2857
▁consequ	-2858
ended	-2859
▁comfort	-2860
▁massive	-2861
▁Q	-2862
bol	-2863
▁80	-2864
▁term	-2865
▁univers	-2866
▁somewhere	-2867
▁increasing	-2868
pan	-2869
▁pen	-2870
erman	-2871
osing	-2872
▁stri	-2873
▁complicated	-2874
▁Cal	-2875
▁hair	-2876
▁heav	-2877
▁male	-2878
▁sequ	-2879
▁galax	-2880
isms	-2881
▁anybody	-2882
▁genetic	-2883
▁citizens	-2884
inct	-2885
ained	-2886
▁refuge	-2887
▁hop	-2888
▁extraordinary	-2889
▁diseases	-2890
▁practice	-2891
rum	-2892
apan	-2893
▁models	-2894
▁shared	-2895
▁genes	-2896
▁helped	-2897
▁workers	-2898
▁buildings	-2899
ought	-2900
▁career	-2901
▁pieces	-2902
▁achieve	-2903
▁suddenly	-2904
▁doc	-2905
aries	-2906
▁port	-2907
▁tree	-2908
rial	-2909
▁fram	-2910
▁pack	-2911
▁match	-2912
▁secret	-2913
▁freedom	-2914
ec	-2915
iced	-2916
though	-2917
itted	-2918
▁source	-2919
go	-2920
ids	-2921
▁types	-2922
▁policy	-2923
amm	-2924
▁ign	-2925
▁fasc	-2926
▁Japan	-2927
▁weren	-2928
▁dangerous	-2929
ech	-2930
▁atm	-2931
▁enjoy	-2932
▁forms	-2933
▁author	-2934
▁beings	-2935
▁throughout	-2936
▁upon	-2937
▁worry	-2938
▁effects	-2939
ops	-2940
used	-2941
▁fit	-2942
▁blind	-2943
▁levels	-2944
time	-2945
eless	-2946
▁fing	-2947
▁stick	-2948
▁Are	-2949
▁patterns	-2950
▁compassion	-2951
▁Car	-2952
▁trick	-2953
▁afford	-2954
▁swe	-2955
ables	-2956
▁card	-2957
fortunately	-2958
rom	-2959
▁oxy	-2960
▁Many	-2961
▁engage	-2962
▁Imagine	-2963
▁anymore	-2964
▁straight	-2965
men	-2966
▁pan	-2967
▁essentially	-2968
istan	-2969
▁killed	-2970
▁transl	-2971
▁distrib	-2972
▁sal	-2973
▁minute	-2974
▁Americans	-2975
▁fine	-2976
atives	-2977
▁method	-2978
▁strange	-2979
▁series	-2980
▁waiting	-2981
▁traditional	-2982
▁alive	-2983
▁ended	-2984
▁values	-2985
▁passion	-2986
▁Cl	-2987
ping	-2988
▁unique	-2989
▁wealth	-2990
▁eth	-2991
▁nuclear	-2992
▁smaller	-2993
▁himself	-2994
▁journal	-2995
mb	-2996
lebr	-2997
▁Your	-2998
▁prep	-2999
▁bunch	-3000
▁oppos	-3001
▁descri	-3002
▁terror	-3003
▁mention	-3004
▁becoming	-3005
▁projects	-3006
oles	-3007
▁points	-3008
onst	-3009
rupt	-3010
▁laws	-3011
▁neighborhood	-3012
aced	-3013
▁Har	-3014
▁Mar	-3015
▁weight	-3016
▁prevent	-3017
▁critical	-3018
▁emotional	-3019
▁international	-3020
▁associ	-3021
▁physics	-3022
▁greatest	-3023
▁harm	-3024
▁autom	-3025
▁13	-3026
▁teacher	-3027
▁obviously	-3028
imb	-3029
val	-3030
▁fant	-3031
dom	-3032
rams	-3033
▁smell	-3034
omb	-3035
▁loss	-3036
▁Instead	-3037
▁willing	-3038
▁town	-3039
▁store	-3040
▁celebr	-3041
▁square	-3042
▁Any	-3043
▁kil	-3044
▁service	-3045
▁listening	-3046
▁diagn	-3047
▁urban	-3048
ey	-3049
ashing	-3050
▁glass	-3051
▁members	-3052
bb	-3053
cul	-3054
sect	-3055
▁remark	-3056
▁sexual	-3057
alk	-3058
▁af	-3059
▁cust	-3060
istics	-3061
urning	-3062
▁graph	-3063
eral	-3064
▁trou	-3065
▁throw	-3066
▁indeed	-3067
▁TV	-3068
ball	-3069
epend	-3070
▁catch	-3071
▁feels	-3072
▁whose	-3073
▁honest	-3074
▁plastic	-3075
▁rise	-3076
▁site	-3077
▁village	-3078
▁sad	-3079
estern	-3080
▁describ	-3081
▁effective	-3082
▁relationships	-3083
▁X	-3084
▁hun	-3085
covery	-3086
▁spect	-3087
▁Go	-3088
▁ran	-3089
▁rand	-3090
▁please	-3091
▁earlier	-3092
ios	-3093
▁email	-3094
▁encou	-3095
▁nation	-3096
▁colleagues	-3097
▁cart	-3098
▁jump	-3099
▁range	-3100
▁beauty	-3101
▁destro	-3102
▁identity	-3103
▁zero	-3104
▁German	-3105
▁somehow	-3106
▁apply	-3107
▁actual	-3108
▁meeting	-3109
▁performance	-3110
▁institutions	-3111
ays	-3112
▁dog	-3113
▁final	-3114
▁forget	-3115
▁random	-3116
▁Face	-3117
▁ple	-3118
▁biology	-3119
▁electricity	-3120
▁governments	-3121
bes	-3122
thern	-3123
▁sick	-3124
▁greater	-3125
▁military	-3126
ube	-3127
▁shap	-3128
▁exh	-3129
▁dram	-3130
▁nearly	-3131
▁painting	-3132
▁HI	-3133
▁board	-3134
▁gender	-3135
▁surround	-3136
ceed	-3137
▁famous	-3138
▁directly	-3139
▁Ex	-3140
▁init	-3141
▁happiness	-3142
erson	-3143
▁From	-3144
▁fuel	-3145
inated	-3146
ologist	-3147
▁causes	-3148
▁However	-3149
▁expensive	-3150
term	-3151
▁phen	-3152
▁surve	-3153
▁artist	-3154
▁income	-3155
hold	-3156
ises	-3157
wise	-3158
▁base	-3159
▁walked	-3160
▁familiar	-3161
▁services	-3162
ky	-3163
▁lack	-3164
▁tiss	-3165
▁webs	-3166
▁organizations	-3167
back	-3168
itor	-3169
attle	-3170
▁private	-3171
▁hous	-3172
▁motiv	-3173
▁sorts	-3174
▁popular	-3175
airs	-3176
▁HIV	-3177
ement	-3178
▁ther	-3179
ils	-3180
▁floor	-3181
▁direction	-3182
▁financial	-3183
▁21	-3184
itude	-3185
orrow	-3186
iation	-3187
▁avoid	-3188
▁enorm	-3189
▁gradu	-3190
▁philos	-3191
▁survive	-3192
▁rid	-3193
▁laugh	-3194
itation	-3195
▁decade	-3196
▁region	-3197
▁Ag	-3198
▁nut	-3199
▁whe	-3200
order	-3201
▁costs	-3202
▁broken	-3203
▁driving	-3204
▁politics	-3205
▁condition	-3206
ancy	-3207
▁198	-3208
▁Which	-3209
▁total	-3210
▁purpose	-3211
▁version	-3212
▁architecture	-3213
▁90	-3214
▁Ab	-3215
▁target	-3216
▁choices	-3217
▁knowing	-3218
▁optim	-3219
cies	-3220
olve	-3221
▁decide	-3222
▁easier	-3223
▁ancient	-3224
▁connection	-3225
aly	-3226
useum	-3227
▁vacc	-3228
atically	-3229
▁neurons	-3230
▁immediately	-3231
uct	-3232
▁ep	-3233
aim	-3234
ches	-3235
▁uses	-3236
▁Facebook	-3237
▁speaking	-3238
eny	-3239
acity	-3240
anced	-3241
▁slight	-3242
▁transport	-3243
ened	-3244
▁surger	-3245
▁terrible	-3246
▁Ad	-3247
▁Col	-3248
▁sand	-3249
▁Another	-3250
iling	-3251
▁shot	-3252
▁worst	-3253
▁mostly	-3254
▁Pr	-3255
raid	-3256
▁clearly	-3257
▁sus	-3258
▁ahead	-3259
▁magic	-3260
uted	-3261
aling	-3262
works	-3263
▁integ	-3264
▁babies	-3265
▁following	-3266
▁molecules	-3267
5,	-3268
gth	-3269
rength	-3270
▁useful	-3271
▁phenomen	-3272
sc	-3273
▁dad	-3274
▁reduce	-3275
▁societ	-3276
now	-3277
▁park	-3278
pro	-3279
▁Sw	-3280
ening	-3281
▁task	-3282
▁vast	-3283
▁afraid	-3284
▁justice	-3285
▁seconds	-3286
▁inj	-3287
ystem	-3288
aign	-3289
band	-3290
▁Act	-3291
▁doub	-3292
▁hate	-3293
▁production	-3294
▁Two	-3295
▁hus	-3296
▁broad	-3297
0,	-3298
udd	-3299
▁ang	-3300
▁City	-3301
▁Over	-3302
▁Think	-3303
▁strength	-3304
iring	-3305
▁repe	-3306
▁Pl	-3307
rees	-3308
elling	-3309
▁relative	-3310
▁University	-3311
▁ur	-3312
▁lad	-3313
ulner	-3314
▁Aust	-3315
▁moral	-3316
▁demand	-3317
▁instance	-3318
ufact	-3319
▁Cent	-3320
▁resist	-3321
met	-3322
▁plat	-3323
▁forth	-3324
▁oxygen	-3325
ores	-3326
▁mut	-3327
▁coff	-3328
▁spirit	-3329
▁techni	-3330
▁interview	-3331
▁understood	-3332
aff	-3333
oty	-3334
▁reb	-3335
▁closer	-3336
▁custom	-3337
▁speech	-3338
▁answers	-3339
▁anywhere	-3340
arm	-3341
▁ut	-3342
▁sam	-3343
▁host	-3344
▁brand	-3345
▁trade	-3346
▁highly	-3347
▁histor	-3348
▁atmosphere	-3349
▁Per	-3350
▁hom	-3351
▁invent	-3352
▁matters	-3353
▁Mus	-3354
antic	-3355
▁East	-3356
▁Look	-3357
▁terr	-3358
▁belief	-3359
▁easily	-3360
▁states	-3361
▁streets	-3362
ran	-3363
empt	-3364
▁His	-3365
▁bra	-3366
othes	-3367
▁heat	-3368
▁swim	-3369
▁price	-3370
▁select	-3371
▁particles	-3372
▁weap	-3373
icians	-3374
ording	-3375
▁mouth	-3376
▁rapid	-3377
▁planets	-3378
▁standard	-3379
No	-3380
▁emotions	-3381
rab	-3382
▁mix	-3383
arter	-3384
▁conserv	-3385
▁environmental	-3386
How	-3387
▁gun	-3388
▁yeah	-3389
ifying	-3390
▁express	-3391
▁cultural	-3392
cope	-3393
▁occ	-3394
rench	-3395
▁rare	-3396
▁stopped	-3397
▁biological	-3398
▁ends	-3399
▁electr	-3400
▁vulner	-3401
▁opposite	-3402
ception	-3403
inating	-3404
▁devices	-3405
▁mobile	-3406
▁summer	-3407
▁despite	-3408
▁differently	-3409
▁page	-3410
▁correct	-3411
ok	-3412
iot	-3413
▁ir	-3414
amic	-3415
cles	-3416
▁web	-3417
▁crow	-3418
▁okay	-3419
▁rele	-3420
ricult	-3421
▁Chris	-3422
▁helping	-3423
▁manufact	-3424
▁programs	-3425
▁diversity	-3426
itter	-3427
▁agree	-3428
▁shock	-3429
▁Second	-3430
▁remain	-3431
▁sharing	-3432
iles	-3433
▁cru	-3434
▁Lond	-3435
▁altern	-3436
▁belong	-3437
▁70	-3438
▁habit	-3439
▁gather	-3440
yl	-3441
nds	-3442
▁tax	-3443
arian	-3444
prene	-3445
▁hole	-3446
reprene	-3447
▁London	-3448
▁switch	-3449
▁studying	-3450
ructure	-3451
▁expand	-3452
▁fat	-3453
▁forces	-3454
▁saving	-3455
▁spaces	-3456
▁campaign	-3457
▁communicate	-3458
cra	-3459
▁noticed	-3460
lled	-3461
▁mid	-3462
▁party	-3463
▁temperature	-3464
reg	-3465
tle	-3466
▁Her	-3467
▁raise	-3468
▁explore	-3469
▁link	-3470
ae	-3471
iger	-3472
orry	-3473
▁mos	-3474
▁gold	-3475
▁grav	-3476
▁accom	-3477
▁liber	-3478
▁original	-3479
▁platform	-3480
▁Tr	-3481
iving	-3482
▁myster	-3483
▁displ	-3484
▁helps	-3485
▁hearing	-3486
▁invented	-3487
ipp	-3488
▁radio	-3489
▁mission	-3490
▁various	-3491
▁creativity	-3492
▁paid	-3493
▁flying	-3494
▁scientist	-3495
▁boys	-3496
▁below	-3497
▁dance	-3498
▁negative	-3499
▁teaching	-3500
▁engineering	-3501
▁24	-3502
aria	-3503
ears	-3504
▁applic	-3505
▁coffee	-3506
.,	-3507
fl	-3508
▁egg	-3509
▁held	-3510
▁narr	-3511
▁infrast	-3512
▁inspired	-3513
▁responsibility	-3514
atell	-3515
▁passed	-3516
▁experiments	-3517
ius	-3518
▁giant	-3519
▁simpl	-3520
ulf	-3521
▁Dr	-3522
ript	-3523
Video	-3524
▁therap	-3525
▁depression	-3526
af	-3527
▁veh	-3528
▁tens	-3529
▁enormous	-3530
▁multiple	-3531
▁500	-3532
anging	-3533
▁played	-3534
▁published	-3535
▁significant	-3536
▁i	-3537
yle	-3538
load	-3539
▁gene	-3540
▁religion	-3541
▁surprising	-3542
inal	-3543
▁dyn	-3544
atures	-3545
▁aspect	-3546
▁missing	-3547
▁agricult	-3548
▁Bra	-3549
▁visit	-3550
▁supply	-3551
▁leading	-3552
▁therefore	-3553
Why	-3554
ager	-3555
▁Sch	-3556
icles	-3557
▁tough	-3558
▁hall	-3559
▁none	-3560
inking	-3561
▁seemed	-3562
▁entreprene	-3563
▁Em	-3564
athy	-3565
ille	-3566
vest	-3567
iforn	-3568
▁teen	-3569
▁Western	-3570
▁moments	-3571
▁profound	-3572
ees	-3573
▁Sc	-3574
▁Californ	-3575
▁possibly	-3576
▁communication	-3577
uing	-3578
based	-3579
▁legs	-3580
▁commer	-3581
▁corner	-3582
▁events	-3583
ulations	-3584
▁creates	-3585
▁trem	-3586
▁fully	-3587
▁volun	-3588
iers	-3589
▁joy	-3590
▁evolved	-3591
▁surgery	-3592
▁produced	-3593
▁fantastic	-3594
unk	-3595
▁demonst	-3596
▁although	-3597
▁efficient	-3598
key	-3599
iber	-3600
▁beat	-3601
▁forg	-3602
▁adapt	-3603
▁twice	-3604
▁president	-3605
▁197	-3606
▁unc	-3607
itely	-3608
▁reve	-3609
▁contact	-3610
rew	-3611
▁seas	-3612
▁wide	-3613
▁accur	-3614
▁frequ	-3615
▁legal	-3616
▁satell	-3617
▁researchers	-3618
off	-3619
quit	-3620
▁Russ	-3621
▁spot	-3622
▁attract	-3623
▁focused	-3624
▁regular	-3625
▁capacity	-3626
▁networks	-3627
▁background	-3628
▁Par	-3629
▁societies	-3630
▁California	-3631
▁infrastructure	-3632
anda	-3633
▁cand	-3634
▁exer	-3635
▁mill	-3636
▁birds	-3637
▁shift	-3638
▁degrees	-3639
▁failure	-3640
▁believed	-3641
▁suffering	-3642
▁remarkable	-3643
aul	-3644
▁hyd	-3645
idden	-3646
▁Will	-3647
▁partner	-3648
▁strategy	-3649
amb	-3650
▁drop	-3651
▁rout	-3652
▁tast	-3653
▁analy	-3654
▁artific	-3655
▁brother	-3656
▁benefits	-3657
izes	-3658
▁rule	-3659
▁opportunities	-3660
ica	-3661
hand	-3662
▁weird	-3663
▁husband	-3664
▁wear	-3665
▁adults	-3666
▁insect	-3667
▁letter	-3668
▁Sometimes	-3669
na	-3670
▁invis	-3671
ification	-3672
▁importantly	-3673
▁fol	-3674
▁telev	-3675
▁Isl	-3676
▁ord	-3677
ellow	-3678
▁dying	-3679
ography	-3680
▁central	-3681
irt	-3682
▁website	-3683
edd	-3684
▁sug	-3685
▁Take	-3686
▁mamm	-3687
▁homes	-3688
▁lucky	-3689
▁sport	-3690
▁breath	-3691
▁artists	-3692
▁Cong	-3693
▁attempt	-3694
▁extreme	-3695
gy	-3696
cop	-3697
ysis	-3698
▁destroy	-3699
▁signals	-3700
gn	-3701
mon	-3702
▁shop	-3703
▁faith	-3704
▁dreams	-3705
▁billions	-3706
▁slightly	-3707
▁join	-3708
▁lock	-3709
ashion	-3710
itness	-3711
▁rough	-3712
▁compon	-3713
▁elements	-3714
▁independ	-3715
▁structures	-3716
0.	-3717
8,	-3718
hy	-3719
▁gent	-3720
▁basis	-3721
▁novel	-3722
▁parad	-3723
▁advant	-3724
▁consequences	-3725
▁raised	-3726
cest	-3727
▁unf	-3728
▁entirely	-3729
▁ultimately	-3730
igr	-3731
▁CO	-3732
▁300	-3733
▁tom	-3734
▁tum	-3735
▁vot	-3736
icking	-3737
▁flight	-3738
▁letters	-3739
2,	-3740
▁subst	-3741
▁astron	-3742
▁lights	-3743
▁bringing	-3744
▁religious	-3745
7,	-3746
▁Ne	-3747
▁ing	-3748
▁burn	-3749
▁anyway	-3750
▁counter	-3751
It	-3752
lim	-3753
▁En	-3754
oper	-3755
▁196	-3756
▁iron	-3757
▁maint	-3758
▁walls	-3759
▁waves	-3760
▁deeply	-3761
▁gotten	-3762
▁safety	-3763
▁symbol	-3764
▁trouble	-3765
▁fighting	-3766
▁sustainable	-3767
▁Dav	-3768
▁ens	-3769
▁Arab	-3770
▁bound	-3771
osystem	-3772
▁emotion	-3773
▁differences	-3774
▁consciousness	-3775
edic	-3776
▁hyp	-3777
▁Once	-3778
▁weak	-3779
ait	-3780
set	-3781
nown	-3782
ties	-3783
▁San	-3784
▁core	-3785
itable	-3786
▁window	-3787
▁turning	-3788
▁partners	-3789
omy	-3790
▁cred	-3791
▁enter	-3792
▁river	-3793
▁eating	-3794
▁forever	-3795
▁require	-3796
▁National	-3797
phone	-3798
▁Each	-3799
▁libr	-3800
▁daily	-3801
▁brings	-3802
▁shouldn	-3803
▁traffic	-3804
▁distance	-3805
▁philosoph	-3806
▁necessarily	-3807
oe	-3808
mission	-3809
▁master	-3810
rim	-3811
inist	-3812
▁ancest	-3813
▁describe	-3814
▁everyday	-3815
▁television	-3816
SA	-3817
bl	-3818
reci	-3819
▁ske	-3820
uries	-3821
cience	-3822
▁embra	-3823
▁stuck	-3824
▁meters	-3825
▁leadership	-3826
sing	-3827
house	-3828
▁Afgh	-3829
▁leaving	-3830
▁tremend	-3831
▁ecosystem	-3832
▁Ac	-3833
▁Me	-3834
▁Te	-3835
icon	-3836
▁due	-3837
▁hero	-3838
▁ver	-3839
▁farmers	-3840
▁mountain	-3841
▁artificial	-3842
ret	-3843
▁See	-3844
▁anx	-3845
▁photo	-3846
▁active	-3847
▁bridge	-3848
▁holding	-3849
▁investig	-3850
▁possibility	-3851
▁Great	-3852
▁crimin	-3853
▁quantum	-3854
▁responsible	-3855
resh	-3856
▁tun	-3857
▁funny	-3858
▁bought	-3859
▁considered	-3860
ront	-3861
board	-3862
▁photos	-3863
▁electron	-3864
▁engineers	-3865
cks	-3866
iff	-3867
▁Nob	-3868
▁puzz	-3869
▁While	-3870
▁calls	-3871
▁cycle	-3872
▁landscape	-3873
▁constantly	-3874
win	-3875
exic	-3876
roud	-3877
water	-3878
▁thri	-3879
▁crime	-3880
▁pleas	-3881
▁necessary	-3882
ada	-3883
rict	-3884
iable	-3885
▁seed	-3886
▁equal	-3887
▁French	-3888
▁previous	-3889
ques	-3890
▁fort	-3891
▁poet	-3892
encing	-3893
orders	-3894
▁faces	-3895
▁Afghan	-3896
▁motion	-3897
▁tissue	-3898
▁conversations	-3899
pri	-3900
▁scen	-3901
▁corpor	-3902
▁collective	-3903
▁definition	-3904
rel	-3905
ste	-3906
▁aid	-3907
ulated	-3908
▁climb	-3909
▁shoot	-3910
▁signal	-3911
▁benefit	-3912
1,	-3913
▁Fin	-3914
▁prior	-3915
▁feelings	-3916
▁Fl	-3917
▁ban	-3918
eness	-3919
ength	-3920
▁Mich	-3921
▁ship	-3922
uments	-3923
▁Austral	-3924
▁majority	-3925
▁imagination	-3926
vere	-3927
wood	-3928
▁bag	-3929
▁doz	-3930
urch	-3931
▁fle	-3932
▁tor	-3933
▁steps	-3934
▁inform	-3935
▁industrial	-3936
cr	-3937
rog	-3938
here	-3939
▁Ste	-3940
▁amb	-3941
▁ble	-3942
celer	-3943
▁exec	-3944
▁wood	-3945
▁sympt	-3946
▁begins	-3947
▁colors	-3948
▁limited	-3949
▁internet	-3950
▁generations	-3951
▁cogn	-3952
▁moon	-3953
▁Mexic	-3954
▁pregn	-3955
▁gentle	-3956
▁influence	-3957
9,	-3958
▁nor	-3959
▁More	-3960
▁note	-3961
▁moves	-3962
▁names	-3963
▁noise	-3964
udience	-3965
▁Thanks	-3966
▁Gl	-3967
▁Des	-3968
▁Geor	-3969
▁proud	-3970
▁damage	-3971
▁harder	-3972
▁experienced	-3973
ns	-3974
zil	-3975
oman	-3976
rogen	-3977
▁gard	-3978
▁isol	-3979
ctions	-3980
▁caused	-3981
▁contain	-3982
▁struggle	-3983
▁currently	-3984
▁1.	-3985
▁adop	-3986
▁anti	-3987
▁shark	-3988
▁trill	-3989
▁bright	-3990
▁failed	-3991
▁malaria	-3992
▁spending	-3993
▁Keny	-3994
▁disp	-3995
▁Brazil	-3996
▁expert	-3997
▁filled	-3998
▁studied	-3999
▁received	-4000
▁invisible	-4001
mit	-4002
oses	-4003
▁Res	-4004
▁soil	-4005
▁wave	-4006
▁1,000	-4007
▁brill	-4008
▁capable	-4009
▁accident	-4010
▁requires	-4011
▁Ob	-4012
▁Con	-4013
connect	-4014
▁immune	-4015
▁leaves	-4016
▁muscle	-4017
▁phones	-4018
▁physic	-4019
▁concent	-4020
▁figured	-4021
force	-4022
known	-4023
▁opin	-4024
ometers	-4025
ifically	-4026
▁identify	-4027
▁construct	-4028
This	-4029
wide	-4030
▁sister	-4031
urally	-4032
ushing	-4033
▁indic	-4034
▁appreci	-4035
▁Ro	-4036
▁oh	-4037
ruption	-4038
▁10,000	-4039
▁watched	-4040
▁wearing	-4041
▁Sun	-4042
▁fab	-4043
▁limit	-4044
▁forced	-4045
▁genome	-4046
▁leader	-4047
▁opened	-4048
▁empower	-4049
▁volunte	-4050
▁languages	-4051
▁competition	-4052
ume	-4053
▁myth	-4054
▁risks	-4055
▁deeper	-4056
▁grandm	-4057
▁married	-4058
▁investment	-4059
agers	-4060
umber	-4061
▁arms	-4062
▁fold	-4063
▁slide	-4064
▁succeed	-4065
ibilities	-4066
▁compared	-4067
alled	-4068
▁agre	-4069
▁coast	-4070
▁commit	-4071
▁dimens	-4072
▁precise	-4073
▁creatures	-4074
▁associated	-4075
uman	-4076
▁Their	-4077
▁synth	-4078
▁convin	-4079
▁losing	-4080
RI	-4081
▁batter	-4082
▁desert	-4083
▁slowly	-4084
▁insight	-4085
▁perfectly	-4086
▁1,	-4087
▁stem	-4088
▁grown	-4089
▁museum	-4090
▁British	-4091
▁$	-4092
ino	-4093
▁Gu	-4094
▁iP	-4095
▁tit	-4096
ublic	-4097
▁Niger	-4098
▁rates	-4099
▁wheel	-4100
▁dinner	-4101
▁balance	-4102
▁markets	-4103
▁European	-4104
▁childhood	-4105
▁designers	-4106
▁university	-4107
▁professional	-4108
▁Ed	-4109
ests	-4110
ander	-4111
riage	-4112
entally	-4113
▁desire	-4114
irm	-4115
▁gar	-4116
▁wis	-4117
▁Paul	-4118
▁epid	-4119
▁vide	-4120
▁antib	-4121
▁truck	-4122
quality	-4123
▁caught	-4124
▁double	-4125
▁acceler	-4126
▁surprise	-4127
▁Mc	-4128
▁Nor	-4129
ingly	-4130
▁appe	-4131
▁copy	-4132
issions	-4133
bert	-4134
iver	-4135
estic	-4136
▁lies	-4137
▁shel	-4138
▁metap	-4139
▁refer	-4140
▁stream	-4141
▁illness	-4142
▁typical	-4143
▁foss	-4144
▁folks	-4145
▁voices	-4146
▁discovery	-4147
▁otherwise	-4148
▁rot	-4149
▁cook	-4150
▁king	-4151
▁mort	-4152
▁scan	-4153
ending	-4154
▁Since	-4155
▁cloud	-4156
▁lesson	-4157
▁yellow	-4158
▁restaur	-4159
▁businesses	-4160
lin	-4161
▁Su	-4162
▁et	-4163
gypt	-4164
▁pun	-4165
owers	-4166
▁leads	-4167
▁fashion	-4168
▁managed	-4169
▁protein	-4170
▁trained	-4171
ashington	-4172
▁contract	-4173
▁reaction	-4174
cell	-4175
uild	-4176
apers	-4177
▁Amaz	-4178
▁oceans	-4179
▁setting	-4180
▁Did	-4181
enty	-4182
istry	-4183
ulous	-4184
▁nerv	-4185
▁soul	-4186
▁Egypt	-4187
▁fresh	-4188
▁unlike	-4189
▁expected	-4190
▁complexity	-4191
my	-4192
ief	-4193
▁bul	-4194
craft	-4195
▁grad	-4196
▁related	-4197
▁separate	-4198
▁Washington	-4199
▁unfortunately	-4200
gal	-4201
▁den	-4202
▁era	-4203
▁Char	-4204
▁Gree	-4205
▁acad	-4206
▁exch	-4207
▁Indian	-4208
▁degree	-4209
▁highest	-4210
▁witness	-4211
edia	-4212
place	-4213
▁Pres	-4214
lement	-4215
▁estab	-4216
▁remote	-4217
raq	-4218
osis	-4219
idents	-4220
▁Again	-4221
▁transp	-4222
▁calling	-4223
▁worried	-4224
▁survival	-4225
▁tremendous	-4226
osm	-4227
pes	-4228
ratic	-4229
▁bomb	-4230
▁paint	-4231
▁hidden	-4232
▁foreign	-4233
▁virtual	-4234
roph	-4235
▁hell	-4236
▁David	-4237
▁claim	-4238
▁organisms	-4239
▁phenomenon	-4240
▁comfortable	-4241
▁pig	-4242
▁pros	-4243
▁factors	-4244
▁refugees	-4245
▁Sy	-4246
iest	-4247
mark	-4248
▁vote	-4249
▁quiet	-4250
clusion	-4251
▁charge	-4252
▁nervous	-4253
▁replace	-4254
▁Actually	-4255
▁advantage	-4256
6,	-4257
ij	-4258
▁org	-4259
▁date	-4260
▁lifet	-4261
▁calcul	-4262
▁Twitter	-4263
▁argument	-4264
▁described	-4265
do	-4266
son	-4267
▁fed	-4268
▁boat	-4269
▁fell	-4270
acters	-4271
▁cheap	-4272
artment	-4273
▁movies	-4274
▁document	-4275
▁thoughts	-4276
▁conference	-4277
▁“	-4278
cil	-4279
ked	-4280
mar	-4281
▁bud	-4282
▁Iraq	-4283
▁frag	-4284
▁purs	-4285
encies	-4286
▁eleph	-4287
▁round	-4288
▁circum	-4289
▁encoun	-4290
▁micros	-4291
▁pet	-4292
▁sec	-4293
▁blog	-4294
▁poem	-4295
▁wire	-4296
▁plane	-4297
▁mosquit	-4298
▁characters	-4299
▁Kore	-4300
▁magaz	-4301
▁north	-4302
▁prefer	-4303
▁brilliant	-4304
▁400	-4305
▁ten	-4306
▁thr	-4307
essed	-4308
▁Asia	-4309
▁Good	-4310
▁infin	-4311
▁sorry	-4312
▁stock	-4313
▁curious	-4314
▁keeping	-4315
ugg	-4316
unt	-4317
care	-4318
clus	-4319
uses	-4320
▁Gen	-4321
▁alt	-4322
inate	-4323
stein	-4324
▁hack	-4325
▁whom	-4326
ellect	-4327
▁argue	-4328
▁circle	-4329
▁cooper	-4330
ett	-4331
▁gain	-4332
▁shut	-4333
▁airpl	-4334
▁court	-4335
▁treated	-4336
iors	-4337
▁stim	-4338
▁wake	-4339
▁newsp	-4340
▁illust	-4341
▁mentioned	-4342
▁mathematics	-4343
▁Sim	-4344
▁gap	-4345
▁gay	-4346
▁gri	-4347
▁und	-4348
anted	-4349
▁bone	-4350
▁remo	-4351
▁tons	-4352
▁inner	-4353
▁scene	-4354
vention	-4355
▁Middle	-4356
▁experts	-4357
▁processes	-4358
▁Afghanistan	-4359
inc	-4360
itals	-4361
▁liqu	-4362
▁categ	-4363
▁debate	-4364
▁fellow	-4365
▁unless	-4366
▁exercise	-4367
▁pollution	-4368
▁surprised	-4369
▁vulnerable	-4370
3,	-4371
▁cognitive	-4372
▁algorithms	-4373
ses	-4374
▁Mr	-4375
ulpt	-4376
▁Rep	-4377
▁jail	-4378
▁exists	-4379
▁sculpt	-4380
▁microbes	-4381
▁classroom	-4382
▁intellect	-4383
If	-4384
▁CE	-4385
aled	-4386
▁King	-4387
▁rural	-4388
▁videos	-4389
▁conduct	-4390
▁weapons	-4391
▁algorithm	-4392
▁commercial	-4393
bre	-4394
throp	-4395
▁hurt	-4396
▁trip	-4397
angers	-4398
▁stood	-4399
▁trial	-4400
▁breast	-4401
▁reward	-4402
▁followed	-4403
▁planning	-4404
4,	-4405
pet	-4406
▁nan	-4407
▁tow	-4408
▁tour	-4409
▁skill	-4410
▁sugar	-4411
▁explor	-4412
▁notion	-4413
▁observ	-4414
▁essential	-4415
▁principle	-4416
▁kilometers	-4417
▁fascinating	-4418
▁El	-4419
▁bird	-4420
▁intu	-4421
▁rein	-4422
▁existence	-4423
▁increased	-4424
emy	-4425
anish	-4426
▁Have	-4427
▁dial	-4428
ancing	-4429
▁crowd	-4430
▁Mexico	-4431
▁symptoms	-4432
▁tox	-4433
▁warm	-4434
ensity	-4435
▁teles	-4436
▁privile	-4437
▁release	-4438
▁neighbors	-4439
▁nar	-4440
aming	-4441
esome	-4442
▁bear	-4443
▁empt	-4444
▁closed	-4445
▁galaxy	-4446
▁courage	-4447
▁reprodu	-4448
▁finished	-4449
▁trillion	-4450
▁concerned	-4451
▁Yet	-4452
olves	-4453
ildren	-4454
▁atoms	-4455
▁prost	-4456
▁battle	-4457
▁mothers	-4458
▁addition	-4459
▁engineer	-4460
▁according	-4461
gra	-4462
acle	-4463
▁smo	-4464
▁Park	-4465
▁facts	-4466
▁frust	-4467
iration	-4468
▁fields	-4469
▁shapes	-4470
▁continu	-4471
ami	-4472
▁mel	-4473
▁Does	-4474
▁cosm	-4475
▁layer	-4476
▁minim	-4477
▁spoke	-4478
▁option	-4479
▁continent	-4480
▁connections	-4481
anes	-4482
esth	-4483
ocol	-4484
▁Gre	-4485
▁lie	-4486
▁traum	-4487
▁facing	-4488
DS	-4489
Hey	-4490
oom	-4491
odes	-4492
▁Val	-4493
akers	-4494
▁bath	-4495
▁attach	-4496
▁consist	-4497
▁promise	-4498
▁warming	-4499
▁analysis	-4500
▁statistics	-4501
bi	-4502
pper	-4503
▁valu	-4504
▁actions	-4505
▁electrical	-4506
▁increasingly	-4507
▁ali	-4508
crete	-4509
▁horm	-4510
▁invited	-4511
▁sequence	-4512
▁President	-4513
▁seriously	-4514
▁fal	-4515
▁mur	-4516
▁coal	-4517
▁perce	-4518
▁paying	-4519
▁Germany	-4520
▁memories	-4521
▁alternative	-4522
asks	-4523
▁Big	-4524
▁dry	-4525
▁ton	-4526
▁cort	-4527
▁toward	-4528
▁capture	-4529
▁compare	-4530
▁radical	-4531
▁cultures	-4532
▁tradition	-4533
new	-4534
rael	-4535
▁chim	-4536
▁flag	-4537
▁Franc	-4538
▁broke	-4539
▁chick	-4540
▁inher	-4541
▁pounds	-4542
▁interpre	-4543
▁principles	-4544
me	-4545
▁od	-4546
down	-4547
▁hur	-4548
ipped	-4549
▁edge	-4550
▁click	-4551
▁recon	-4552
▁finger	-4553
▁member	-4554
▁wisdom	-4555
▁dealing	-4556
▁equival	-4557
IT	-4558
▁NA	-4559
icity	-4560
▁cure	-4561
▁recy	-4562
▁shif	-4563
▁tall	-4564
▁tick	-4565
ession	-4566
▁chain	-4567
▁heads	-4568
▁solid	-4569
▁surge	-4570
▁sector	-4571
▁marriage	-4572
cend	-4573
▁Dar	-4574
▁cro	-4575
▁inh	-4576
▁heavy	-4577
▁motor	-4578
▁blocks	-4579
▁fairly	-4580
▁creation	-4581
▁interaction	-4582
ads	-4583
▁Rem	-4584
asion	-4585
▁added	-4586
▁goals	-4587
▁sight	-4588
▁arrived	-4589
▁however	-4590
abilities	-4591
▁proteins	-4592
la	-4593
mp	-4594
ald	-4595
uff	-4596
▁pil	-4597
▁abst	-4598
▁Would	-4599
▁chann	-4600
▁drink	-4601
▁announ	-4602
▁Francis	-4603
▁details	-4604
▁drawing	-4605
▁emissions	-4606
▁civilization	-4607
▁etc	-4608
▁explan	-4609
▁variety	-4610
▁grandmother	-4611
sec	-4612
cast	-4613
▁ves	-4614
lands	-4615
▁hadn	-4616
olving	-4617
rating	-4618
▁obser	-4619
▁galaxies	-4620
icy	-4621
roll	-4622
▁uns	-4623
lying	-4624
▁bees	-4625
▁seat	-4626
▁implic	-4627
Yes	-4628
▁App	-4629
▁gut	-4630
▁tap	-4631
aters	-4632
▁auth	-4633
▁decl	-4634
▁spin	-4635
▁dinos	-4636
▁serve	-4637
▁south	-4638
▁picked	-4639
▁launched	-4640
▁professor	-4641
▁potentially	-4642
omm	-4643
print	-4644
▁Bill	-4645
▁suic	-4646
▁colon	-4647
▁prove	-4648
▁liquid	-4649
▁messages	-4650
▁universal	-4651
▁pal	-4652
itute	-4653
▁hide	-4654
▁pure	-4655
▁roof	-4656
levant	-4657
pected	-4658
▁Kenya	-4659
▁brief	-4660
ressive	-4661
▁gravity	-4662
▁weather	-4663
▁encourage	-4664
▁wondering	-4665
▁situations	-4666
aks	-4667
aked	-4668
aker	-4669
ford	-4670
iency	-4671
▁regard	-4672
▁accompl	-4673
▁element	-4674
▁election	-4675
▁designing	-4676
▁profession	-4677
bal	-4678
▁bread	-4679
▁users	-4680
▁finish	-4681
▁vessel	-4682
▁empathy	-4683
▁include	-4684
▁sentence	-4685
▁chemicals	-4686
▁agriculture	-4687
ams	-4688
▁Ke	-4689
That	-4690
iety	-4691
▁shoes	-4692
▁signs	-4693
▁height	-4694
▁island	-4695
▁prototy	-4696
▁rapidly	-4697
▁normally	-4698
▁released	-4699
▁centuries	-4700
▁agg	-4701
▁que	-4702
▁Black	-4703
▁lunch	-4704
▁Israel	-4705
▁versus	-4706
▁options	-4707
▁testing	-4708
▁feedback	-4709
▁encounter	-4710
▁Bang	-4711
▁band	-4712
▁bare	-4713
▁lawy	-4714
▁tele	-4715
▁Other	-4716
▁grass	-4717
▁neuros	-4718
▁generate	-4719
▁internal	-4720
▁ordinary	-4721
▁narrative	-4722
▁operating	-4723
▁possibilities	-4724
ago	-4725
cap	-4726
▁lat	-4727
▁saved	-4728
▁victims	-4729
▁Australia	-4730
ouds	-4731
▁spl	-4732
▁vib	-4733
▁Rich	-4734
▁blow	-4735
▁Could	-4736
▁flood	-4737
▁fourth	-4738
▁incent	-4739
▁reject	-4740
▁causing	-4741
▁valuable	-4742
▁definitely	-4743
▁equivalent	-4744
cket	-4745
semb	-4746
▁cow	-4747
▁mer	-4748
▁anger	-4749
▁sides	-4750
▁reached	-4751
▁location	-4752
▁maintain	-4753
▁metaphor	-4754
▁hospitals	-4755
aving	-4756
▁pair	-4757
▁root	-4758
▁crash	-4759
▁estim	-4760
▁keeps	-4761
▁quote	-4762
▁dollar	-4763
▁criminal	-4764
▁property	-4765
▁importance	-4766
ament	-4767
iosity	-4768
▁barri	-4769
▁station	-4770
▁radiation	-4771
▁intelligent	-4772
ara	-4773
▁150	-4774
▁rub	-4775
iters	-4776
▁hasn	-4777
▁kick	-4778
▁qual	-4779
▁angry	-4780
▁fossil	-4781
▁status	-4782
▁factory	-4783
▁advanced	-4784
▁lifetime	-4785
neath	-4786
▁Last	-4787
▁flat	-4788
▁Three	-4789
▁coral	-4790
▁exhib	-4791
▁kitch	-4792
▁depends	-4793
▁tomorrow	-4794
ha	-4795
hes	-4796
▁Lat	-4797
▁sla	-4798
▁zone	-4799
▁houses	-4800
▁killing	-4801
▁recover	-4802
▁clinical	-4803
▁confidence	-4804
etics	-4805
▁fake	-4806
▁abuse	-4807
▁mouse	-4808
▁pages	-4809
▁Amazon	-4810
▁worlds	-4811
▁affected	-4812
ym	-4813
irty	-4814
▁Bar	-4815
▁nav	-4816
dimens	-4817
▁manip	-4818
▁pitch	-4819
▁advice	-4820
▁define	-4821
▁roughly	-4822
▁circumst	-4823
▁designer	-4824
▁soldiers	-4825
▁employees	-4826
▁organized	-4827
▁techniques	-4828
apse	-4829
fish	-4830
otic	-4831
▁Atl	-4832
▁Iran	-4833
▁2,000	-4834
ulating	-4835
▁escape	-4836
▁former	-4837
▁hopefully	-4838
▁satellite	-4839
▁activities	-4840
▁represents	-4841
▁politicians	-4842
▁construction	-4843
ords	-4844
▁row	-4845
▁flex	-4846
▁Times	-4847
▁empty	-4848
▁holes	-4849
▁sites	-4850
▁assist	-4851
▁forgot	-4852
▁stupid	-4853
ographic	-4854
▁article	-4855
▁opening	-4856
▁required	-4857
▁carefully	-4858
▁producing	-4859
▁entrepreneurs	-4860
rig	-4861
zing	-4862
▁Life	-4863
▁soph	-4864
▁unex	-4865
▁covered	-4866
▁challenging	-4867
▁environments	-4868
▁Je	-4869
ogen	-4870
rian	-4871
▁dogs	-4872
▁equip	-4873
instein	-4874
itarian	-4875
▁Canada	-4876
▁behaviors	-4877
▁convinced	-4878
▁meaningful	-4879
▁gift	-4880
▁meat	-4881
▁camer	-4882
▁false	-4883
▁talks	-4884
▁tumor	-4885
▁pulled	-4886
▁sources	-4887
▁theater	-4888
▁existing	-4889
▁Everything	-4890
▁relatively	-4891
▁rom	-4892
abled	-4893
icing	-4894
power	-4895
▁bran	-4896
▁unit	-4897
friend	-4898
osition	-4899
▁organic	-4900
▁movements	-4901
whel	-4902
▁Stre	-4903
forest	-4904
▁shame	-4905
▁driver	-4906
▁mirror	-4907
▁falling	-4908
▁antibiot	-4909
▁typically	-4910
▁transformation	-4911
edy	-4912
▁Tom	-4913
▁ille	-4914
▁thick	-4915
▁uncom	-4916
▁desper	-4917
▁organs	-4918
▁severe	-4919
▁survey	-4920
▁thinks	-4921
▁players	-4922
▁mistakes	-4923
▁molecule	-4924
▁Everybody	-4925
▁evolutionary	-4926
▁specifically	-4927
2.	-4928
zed	-4929
▁Qu	-4930
life	-4931
igned	-4932
isher	-4933
lines	-4934
▁Very	-4935
▁shad	-4936
▁teams	-4937
▁remains	-4938
▁ancestors	-4939
▁combination	-4940
Be	-4941
lly	-4942
resp	-4943
vard	-4944
▁cast	-4945
▁guide	-4946
▁metal	-4947
▁resil	-4948
▁stret	-4949
▁youth	-4950
▁France	-4951
▁credit	-4952
fficient	-4953
▁anxiety	-4954
▁dynamic	-4955
▁insects	-4956
▁receive	-4957
▁chemistry	-4958
▁disappear	-4959
▁worldwide	-4960
▁ho	-4961
▁clock	-4962
▁horiz	-4963
▁paral	-4964
▁veget	-4965
▁England	-4966
▁regions	-4967
▁Einstein	-4968
▁magazine	-4969
▁overwhel	-4970
▁resource	-4971
ov	-4972
ault	-4973
▁Bas	-4974
▁lin	-4975
▁phr	-4976
stand	-4977
▁bits	-4978
▁crack	-4979
▁ideal	-4980
▁clothes	-4981
▁kitchen	-4982
▁technical	-4983
▁collection	-4984
▁management	-4985
add	-4986
xim	-4987
▁MIT	-4988
▁wel	-4989
▁Alex	-4990
▁diet	-4991
inging	-4992
▁doubt	-4993
▁library	-4994
▁mistake	-4995
▁consumer	-4996
▁underneath	-4997
▁II	-4998
▁nurs	-4999
▁pray	-5000
▁sees	-5001
▁tail	-5002
▁notes	-5003
▁reform	-5004
▁engaged	-5005
▁sending	-5006
▁concrete	-5007
▁instruct	-5008
▁naturally	-5009
dimensional	-5010
▁perception	-5011
▁effectively	-5012
ria	-5013
ivers	-5014
▁lens	-5015
▁reef	-5016
▁chose	-5017
▁formed	-5018
▁player	-5019
▁lessons	-5020
▁constant	-5021
▁economics	-5022
▁properties	-5023
DP	-5024
box	-5025
orb	-5026
▁Fe	-5027
cred	-5028
gger	-5029
▁Ant	-5030
▁rhy	-5031
▁Phil	-5032
▁puts	-5033
▁taste	-5034
▁School	-5035
▁Harvard	-5036
▁primary	-5037
▁selling	-5038
▁violent	-5039
▁epidemic	-5040
Don	-5041
▁Mil	-5042
erves	-5043
▁inev	-5044
father	-5045
▁Before	-5046
▁cameras	-5047
▁distribution	-5048
.'	-5049
ux	-5050
ani	-5051
onym	-5052
▁rat	-5053
▁resc	-5054
▁chair	-5055
▁honor	-5056
▁thanks	-5057
▁pleasure	-5058
▁fundamentally	-5059
30	-5060
och	-5061
abet	-5062
▁fro	-5063
▁tag	-5064
oxide	-5065
▁eggs	-5066
lation	-5067
stream	-5068
▁storm	-5069
▁encoura	-5070
▁features	-5071
▁corruption	-5072
▁introduced	-5073
▁35	-5074
▁Sm	-5075
just	-5076
▁Jew	-5077
porary	-5078
ternal	-5079
▁Green	-5080
▁divide	-5081
▁fishing	-5082
▁silence	-5083
▁younger	-5084
▁Japanese	-5085
▁entertain	-5086
▁resistance	-5087
aren	-5088
▁ride	-5089
▁vent	-5090
▁Number	-5091
▁advert	-5092
▁scared	-5093
▁sports	-5094
▁forests	-5095
▁exchange	-5096
▁policies	-5097
▁equipment	-5098
▁physically	-5099
▁restaurant	-5100
▁manufacturing	-5101
esh	-5102
uel	-5103
▁Mart	-5104
▁fert	-5105
▁beach	-5106
▁defined	-5107
▁introduce	-5108
▁sophistic	-5109
▁inequality	-5110
▁protection	-5111
▁transition	-5112
▁technological	-5113
▁ax	-5114
aser	-5115
cont	-5116
ingu	-5117
▁fewer	-5118
▁grade	-5119
▁satis	-5120
▁teeth	-5121
entional	-5122
▁awesome	-5123
▁muscles	-5124
▁visible	-5125
▁graduate	-5126
▁overcome	-5127
▁spectrum	-5128
hi	-5129
pir	-5130
▁Pal	-5131
▁bill	-5132
▁seek	-5133
▁tack	-5134
▁Women	-5135
▁tasks	-5136
▁tests	-5137
▁clouds	-5138
▁length	-5139
▁scenar	-5140
volution	-5141
▁intense	-5142
▁prepared	-5143
▁stronger	-5144
▁Francisco	-5145
▁traveling	-5146
▁wra	-5147
earch	-5148
▁YouT	-5149
Americ	-5150
ipping	-5151
▁faced	-5152
▁autism	-5153
▁joined	-5154
▁breathe	-5155
▁nations	-5156
▁Congress	-5157
▁implement	-5158
pher	-5159
▁nose	-5160
▁insur	-5161
▁navig	-5162
▁smile	-5163
eration	-5164
▁Street	-5165
▁arrest	-5166
▁funding	-5167
▁appropri	-5168
▁mathematical	-5169
▁Eth	-5170
▁loud	-5171
▁ment	-5172
▁auton	-5173
▁scary	-5174
▁staff	-5175
▁Health	-5176
▁advent	-5177
▁YouTube	-5178
▁vehicle	-5179
▁processing	-5180
▁consumption	-5181
gent	-5182
mber	-5183
what	-5184
▁scr	-5185
▁milk	-5186
▁reci	-5187
ension	-5188
▁George	-5189
▁candid	-5190
▁garden	-5191
▁review	-5192
▁script	-5193
▁season	-5194
▁Britain	-5195
▁therapy	-5196
▁unknown	-5197
▁whenever	-5198
▁participate	-5199
cipl	-5200
prof	-5201
▁Ange	-5202
▁conc	-5203
▁sets	-5204
making	-5205
▁button	-5206
▁symmet	-5207
▁amounts	-5208
▁cutting	-5209
▁display	-5210
▁trigger	-5211
▁infected	-5212
▁independent	-5213
▁194	-5214
▁Ber	-5215
▁GDP	-5216
▁hang	-5217
▁chart	-5218
▁dedic	-5219
▁Muslim	-5220
▁perman	-5221
▁allowing	-5222
▁generally	-5223
▁Mon	-5224
▁grid	-5225
ptions	-5226
▁budget	-5227
▁applied	-5228
▁diverse	-5229
▁domestic	-5230
▁mountains	-5231
▁eld	-5232
lling	-5233
while	-5234
▁outc	-5235
▁runs	-5236
▁scar	-5237
▁surf	-5238
terday	-5239
▁compl	-5240
▁goods	-5241
▁conver	-5242
▁factor	-5243
▁murder	-5244
▁puzzle	-5245
inations	-5246
▁Audience	-5247
▁uncertain	-5248
▁expression	-5249
▁Unfortunately	-5250
Do	-5251
gl	-5252
▁45	-5253
rary	-5254
uits	-5255
▁Pol	-5256
▁san	-5257
▁sem	-5258
▁Perhaps	-5259
▁disrupt	-5260
▁apparent	-5261
▁providing	-5262
20	-5263
alt	-5264
bor	-5265
esis	-5266
▁cha	-5267
▁sen	-5268
point	-5269
▁NASA	-5270
▁dign	-5271
▁mere	-5272
▁neut	-5273
▁liked	-5274
▁dioxide	-5275
▁outcome	-5276
▁combined	-5277
▁explained	-5278
▁intellectual	-5279
bel	-5280
iat	-5281
▁2.	-5282
▁75	-5283
gets	-5284
icip	-5285
▁CEO	-5286
▁rac	-5287
▁Only	-5288
▁bias	-5289
▁Paris	-5290
▁globe	-5291
▁judge	-5292
▁plays	-5293
▁sweet	-5294
▁burning	-5295
▁centers	-5296
▁opinion	-5297
▁sensors	-5298
▁absolute	-5299
▁collected	-5300
▁curiosity	-5301
▁Sil	-5302
rooms	-5303
▁diss	-5304
▁contem	-5305
▁elimin	-5306
▁placed	-5307
▁attacks	-5308
▁extract	-5309
▁feature	-5310
lom	-5311
mas	-5312
ris	-5313
▁Mo	-5314
aust	-5315
uting	-5316
▁2000	-5317
▁atom	-5318
▁chron	-5319
▁driven	-5320
▁replic	-5321
▁sample	-5322
▁herself	-5323
▁methods	-5324
▁quarter	-5325
▁abstract	-5326
uh	-5327
car	-5328
▁Red	-5329
▁ack	-5330
▁arr	-5331
▁bow	-5332
organ	-5333
▁Swed	-5334
▁army	-5335
▁unus	-5336
▁advoc	-5337
inction	-5338
▁assume	-5339
▁church	-5340
▁fabric	-5341
▁handle	-5342
▁remove	-5343
▁fiction	-5344
▁privacy	-5345
edge	-5346
ogue	-5347
▁Dis	-5348
▁Gal	-5349
▁Also	-5350
▁Four	-5351
▁obst	-5352
▁susp	-5353
isters	-5354
▁awful	-5355
▁films	-5356
▁topic	-5357
▁buying	-5358
▁ingred	-5359
▁medium	-5360
▁100,000	-5361
▁citizen	-5362
▁circumstances	-5363
GO	-5364
ael	-5365
cers	-5366
iate	-5367
▁Sat	-5368
▁del	-5369
▁Bank	-5370
▁Fort	-5371
▁impl	-5372
▁lapt	-5373
rument	-5374
▁cards	-5375
▁poetry	-5376
▁rational	-5377
▁committed	-5378
▁continued	-5379
▁molecular	-5380
▁foundation	-5381
▁healthcare	-5382
rit	-5383
uls	-5384
▁acqu	-5385
▁arts	-5386
▁gall	-5387
▁snow	-5388
▁suit	-5389
▁user	-5390
arrass	-5391
▁toile	-5392
▁rising	-5393
igration	-5394
▁Richard	-5395
▁equally	-5396
▁vaccine	-5397
▁contrast	-5398
▁innovative	-5399
▁surrounded	-5400
uary	-5401
acles	-5402
▁evil	-5403
▁rooms	-5404
▁Nigeria	-5405
▁advance	-5406
▁cartoon	-5407
▁embrace	-5408
▁refugee	-5409
▁carrying	-5410
▁confront	-5411
▁swimming	-5412
▁protected	-5413
▁components	-5414
▁discussion	-5415
▁instrument	-5416
bble	-5417
ifth	-5418
umps	-5419
▁Bro	-5420
▁Pat	-5421
arant	-5422
gment	-5423
night	-5424
scale	-5425
▁busy	-5426
▁dots	-5427
▁dust	-5428
▁Inter	-5429
▁Darwin	-5430
▁illegal	-5431
▁records	-5432
▁pregnant	-5433
▁embarrass	-5434
▁functions	-5435
▁statement	-5436
▁productive	-5437
▁inspiration	-5438
▁experiencing	-5439
▁PM	-5440
▁Cam	-5441
being	-5442
icago	-5443
▁hung	-5444
athers	-5445
▁Frank	-5446
▁presc	-5447
▁reven	-5448
▁rhyth	-5449
▁weigh	-5450
▁acknow	-5451
▁enable	-5452
▁inject	-5453
▁largely	-5454
▁pushing	-5455
▁accurate	-5456
▁airplane	-5457
▁emerging	-5458
▁relevant	-5459
▁interests	-5460
▁collaboration	-5461
▁psychological	-5462
ato	-5463
irds	-5464
▁Min	-5465
▁Web	-5466
▁odd	-5467
allow	-5468
▁alien	-5469
▁boxes	-5470
▁grain	-5471
▁memor	-5472
▁border	-5473
▁clever	-5474
onscious	-5475
▁stretch	-5476
▁convince	-5477
▁constrain	-5478
▁personally	-5479
▁spo	-5480
▁voc	-5481
▁chap	-5482
▁plus	-5483
▁decre	-5484
▁explo	-5485
▁renew	-5486
▁Center	-5487
▁recomm	-5488
▁recycl	-5489
▁Chicago	-5490
▁awareness	-5491
▁determine	-5492
▁increases	-5493
iano	-5494
itan	-5495
▁desk	-5496
▁lady	-5497
▁march	-5498
▁negot	-5499
▁compar	-5500
▁cortex	-5501
▁framew	-5502
▁equality	-5503
▁practices	-5504
▁destruction	-5505
▁photographs	-5506
1.	-5507
iled	-5508
▁AIDS	-5509
▁Part	-5510
▁occup	-5511
▁stone	-5512
▁trials	-5513
▁disorder	-5514
▁outcomes	-5515
▁emergency	-5516
▁mechanism	-5517
▁sensitive	-5518
▁dimensions	-5519
▁applications	-5520
uk	-5521
rors	-5522
▁logic	-5523
▁score	-5524
▁agreed	-5525
▁explos	-5526
▁narrow	-5527
▁proced	-5528
▁spring	-5529
▁Spanish	-5530
▁aspects	-5531
▁mystery	-5532
▁offered	-5533
▁contains	-5534
▁disaster	-5535
▁dramatic	-5536
▁appreciate	-5537
▁participants	-5538
▁sophisticated	-5539
In	-5540
▁Co	-5541
olic	-5542
▁Dem	-5543
▁Mal	-5544
▁ath	-5545
andon	-5546
▁admit	-5547
ogether	-5548
▁secure	-5549
▁tested	-5550
aneously	-5551
▁Finally	-5552
▁efforts	-5553
▁musical	-5554
▁painful	-5555
▁viruses	-5556
▁recorded	-5557
heim	-5558
olly	-5559
vable	-5560
▁overl	-5561
▁recru	-5562
▁deploy	-5563
▁solved	-5564
▁winter	-5565
▁evening	-5566
▁harvest	-5567
▁hydrogen	-5568
hips	-5569
▁Pri	-5570
▁ants	-5571
▁elev	-5572
▁aging	-5573
▁bones	-5574
▁coord	-5575
▁songs	-5576
▁classes	-5577
▁closely	-5578
▁suicide	-5579
can	-5580
den	-5581
acing	-5582
▁item	-5583
▁rely	-5584
▁vert	-5585
▁Latin	-5586
▁dress	-5587
▁hyper	-5588
▁label	-5589
▁roads	-5590
▁During	-5591
▁deaths	-5592
▁hoping	-5593
▁dropped	-5594
▁exposed	-5595
▁instrum	-5596
▁breathing	-5597
▁interpret	-5598
▁invention	-5599
▁unexpected	-5600
ups	-5601
eline	-5602
▁maps	-5603
▁schol	-5604
▁Valley	-5605
▁devast	-5606
▁evolve	-5607
▁housing	-5608
▁reported	-5609
▁interface	-5610
▁conservation	-5611
▁transportation	-5612
bur	-5613
olf	-5614
vas	-5615
▁mak	-5616
itors	-5617
▁cave	-5618
▁ridic	-5619
▁drives	-5620
▁rocket	-5621
▁victim	-5622
▁Research	-5623
▁hypothes	-5624
▁transfer	-5625
ls	-5626
ita	-5627
vis	-5628
▁Art	-5629
▁Ben	-5630
▁pip	-5631
▁cere	-5632
▁diam	-5633
▁gang	-5634
▁poly	-5635
▁orbit	-5636
▁ensure	-5637
▁marine	-5638
▁unusual	-5639
▁Anderson	-5640
▁breaking	-5641
▁provided	-5642
▁newspaper	-5643
▁uncomfort	-5644
▁explanation	-5645
▁dramatically	-5646
▁interactions	-5647
vey	-5648
ctic	-5649
▁Los	-5650
▁sco	-5651
▁Bost	-5652
▁acts	-5653
▁pill	-5654
▁ring	-5655
▁fears	-5656
▁grows	-5657
▁Nobody	-5658
▁bottle	-5659
▁struck	-5660
▁parking	-5661
▁Remember	-5662
▁brothers	-5663
▁authority	-5664
▁practical	-5665
▁technique	-5666
▁efficiency	-5667
500	-5668
tes	-5669
lock	-5670
olds	-5671
olph	-5672
rich	-5673
▁bee	-5674
▁shr	-5675
oster	-5676
▁Next	-5677
▁tank	-5678
▁James	-5679
▁steel	-5680
▁acting	-5681
▁repair	-5682
▁stayed	-5683
chnology	-5684
▁carried	-5685
▁fingers	-5686
▁install	-5687
▁singing	-5688
▁engaging	-5689
foot	-5690
over	-5691
▁iPh	-5692
▁lic	-5693
▁lun	-5694
▁biom	-5695
▁stro	-5696
▁About	-5697
▁polar	-5698
▁trend	-5699
▁views	-5700
▁vital	-5701
▁fisher	-5702
▁immigr	-5703
▁chimpan	-5704
▁comment	-5705
▁customers	-5706
▁privilege	-5707
ka	-5708
ums	-5709
▁mad	-5710
▁hits	-5711
▁fluid	-5712
▁frame	-5713
▁horse	-5714
▁tight	-5715
▁operate	-5716
▁overall	-5717
▁prosper	-5718
▁distinct	-5719
▁measured	-5720
▁wondered	-5721
▁economies	-5722
▁gentlemen	-5723
60	-5724
nel	-5725
anta	-5726
▁Dep	-5727
▁Tal	-5728
▁mat	-5729
▁rit	-5730
osure	-5731
▁disag	-5732
▁fixed	-5733
▁input	-5734
▁persu	-5735
▁toxic	-5736
▁writer	-5737
▁borders	-5738
▁Republic	-5739
▁passionate	-5740
▁philosophy	-5741
▁grandfather	-5742
▁populations	-5743
▁uncomfortable	-5744
5.	-5745
St	-5746
aci	-5747
igm	-5748
▁99	-5749
aret	-5750
obal	-5751
▁Rob	-5752
▁bes	-5753
▁club	-5754
▁diag	-5755
▁joke	-5756
▁pool	-5757
▁tech	-5758
▁colum	-5759
▁lying	-5760
▁males	-5761
rations	-5762
▁Everyone	-5763
▁printing	-5764
▁reaching	-5765
▁suggests	-5766
▁computing	-5767
▁framework	-5768
▁mortality	-5769
▁yesterday	-5770
asters	-5771
akistan	-5772
▁barely	-5773
▁volume	-5774
▁figures	-5775
▁guarant	-5776
▁solving	-5777
▁meetings	-5778
▁presence	-5779
▁strangers	-5780
▁democratic	-5781
nam	-5782
rol	-5783
▁23	-5784
aint	-5785
▁Tur	-5786
▁depth	-5787
▁multi	-5788
▁shell	-5789
raction	-5790
▁filter	-5791
▁limits	-5792
▁battery	-5793
▁neither	-5794
▁colleague	-5795
▁confident	-5796
▁destroyed	-5797
▁infection	-5798
▁mathematic	-5799
▁recognized	-5800
▁struggling	-5801
▁underwater	-5802
spe	-5803
abil	-5804
berg	-5805
mers	-5806
▁dict	-5807
▁ears	-5808
▁lect	-5809
▁prem	-5810
▁zoom	-5811
apping	-5812
▁delic	-5813
▁stack	-5814
▁tired	-5815
respond	-5816
▁Boston	-5817
▁Russia	-5818
▁afterno	-5819
▁horrible	-5820
▁organism	-5821
▁sunlight	-5822
▁conclusion	-5823
▁greenhouse	-5824
▁treatments	-5825
▁transformed	-5826
etch	-5827
▁aim	-5828
▁twe	-5829
▁Mark	-5830
▁wars	-5831
▁curve	-5832
▁minor	-5833
▁crying	-5834
▁promot	-5835
▁sharks	-5836
▁existed	-5837
▁academic	-5838
▁floating	-5839
▁infinite	-5840
▁repeated	-5841
▁marketing	-5842
▁presented	-5843
eal	-5844
rat	-5845
▁ju	-5846
▁poo	-5847
icted	-5848
▁orch	-5849
▁House	-5850
▁boring	-5851
▁bubble	-5852
▁linked	-5853
▁owners	-5854
▁stable	-5855
▁authent	-5856
▁dignity	-5857
▁Pakistan	-5858
▁birthday	-5859
▁Fre	-5860
▁Korea	-5861
▁knock	-5862
▁plans	-5863
▁units	-5864
▁genius	-5865
▁senses	-5866
▁stands	-5867
▁worker	-5868
▁affects	-5869
▁precisely	-5870
▁standards	-5871
▁controlled	-5872
ih	-5873
ala	-5874
gon	-5875
▁rig	-5876
inter	-5877
▁Come	-5878
▁Cons	-5879
▁Talk	-5880
▁boss	-5881
▁coach	-5882
▁analog	-5883
▁clinic	-5884
▁critic	-5885
▁ignore	-5886
connected	-5887
▁imagined	-5888
▁occurred	-5889
▁correspond	-5890
▁literature	-5891
▁percentage	-5892
ata	-5893
hol	-5894
▁pin	-5895
angle	-5896
using	-5897
▁Mary	-5898
▁wash	-5899
lessly	-5900
▁brown	-5901
▁domin	-5902
▁dozen	-5903
▁Institute	-5904
aurs	-5905
elly	-5906
▁Lad	-5907
▁pul	-5908
orter	-5909
▁Thom	-5910
▁mile	-5911
▁Islam	-5912
▁brave	-5913
▁cyber	-5914
▁frank	-5915
itution	-5916
iveness	-5917
▁combine	-5918
▁wanting	-5919
▁Something	-5920
▁continues	-5921
▁exploration	-5922
PS	-5923
dri	-5924
min	-5925
ula	-5926
oons	-5927
▁Spe	-5928
▁firm	-5929
▁Space	-5930
▁fruit	-5931
▁maxim	-5932
▁absorb	-5933
▁behave	-5934
▁hearts	-5935
▁Michael	-5936
▁Project	-5937
▁abandon	-5938
▁crucial	-5939
▁director	-5940
▁celebrate	-5941
▁personality	-5942
-1	-5943
80	-5944
My	-5945
ss	-5946
za	-5947
sem	-5948
▁BG	-5949
ught	-5950
▁Mont	-5951
▁load	-5952
▁ours	-5953
▁Human	-5954
▁repeat	-5955
▁contribute	-5956
mm	-5957
igen	-5958
opia	-5959
▁Jer	-5960
▁Med	-5961
▁Pac	-5962
opher	-5963
orous	-5964
▁Comm	-5965
▁cash	-5966
▁grab	-5967
▁stom	-5968
▁State	-5969
▁aside	-5970
▁toler	-5971
▁upper	-5972
▁fright	-5973
▁lifest	-5974
▁margin	-5975
▁settle	-5976
▁darkness	-5977
▁homeless	-5978
▁isolated	-5979
▁particle	-5980
▁somewhat	-5981
▁afternoon	-5982
▁psychology	-5983
Is	-5984
alu	-5985
erge	-5986
lete	-5987
▁Wik	-5988
itory	-5989
▁ethn	-5990
▁loop	-5991
▁pace	-5992
▁champ	-5993
▁falls	-5994
illance	-5995
ishment	-5996
▁neural	-5997
▁storyt	-5998
▁Through	-5999
▁appears	-6000
▁vessels	-6001
▁equation	-6002
▁instinct	-6003
▁household	-6004
▁appropriate	-6005
▁productivity	-6006
▁Air	-6007
▁hem	-6008
▁disg	-6009
▁flash	-6010
▁split	-6011
▁distant	-6012
▁vehicles	-6013
▁accessible	-6014
▁determined	-6015
▁laboratory	-6016
OK	-6017
aj	-6018
wr	-6019
bage	-6020
▁bom	-6021
▁Five	-6022
▁pump	-6023
▁fuels	-6024
▁conclud	-6025
▁millenn	-6026
▁removed	-6027
▁drinking	-6028
▁villages	-6029
▁operation	-6030
▁terrorism	-6031
▁historical	-6032
▁'9	-6033
▁22	-6034
uous	-6035
▁Apple	-6036
▁flies	-6037
▁laser	-6038
▁nutri	-6039
▁rocks	-6040
▁wound	-6041
▁geomet	-6042
▁pushed	-6043
▁surviv	-6044
▁depending	-6045
▁spiritual	-6046
▁application	-6047
gly	-6048
engu	-6049
well	-6050
unate	-6051
▁Moon	-6052
▁debt	-6053
▁enzy	-6054
mented	-6055
clusive	-6056
▁adjust	-6057
▁papers	-6058
▁signed	-6059
▁silent	-6060
▁studio	-6061
▁beliefs	-6062
▁chicken	-6063
▁decline	-6064
▁discipl	-6065
▁feeding	-6066
▁mammals	-6067
▁ultimate	-6068
▁apartment	-6069
▁spreading	-6070
▁distributed	-6071
▁27	-6072
▁ru	-6073
free	-6074
gged	-6075
▁Mic	-6076
heimer	-6077
profit	-6078
▁accum	-6079
▁error	-6080
▁metab	-6081
▁title	-6082
▁trauma	-6083
▁captured	-6084
▁wherever	-6085
▁antibiotics	-6086
▁conventional	-6087
▁expectations	-6088
bits	-6089
iday	-6090
lymp	-6091
oded	-6092
rant	-6093
▁600	-6094
▁Jim	-6095
▁gig	-6096
arity	-6097
under	-6098
▁bicy	-6099
▁Obama	-6100
▁blank	-6101
▁initi	-6102
▁phase	-6103
▁plate	-6104
▁sales	-6105
▁seeds	-6106
▁extend	-6107
▁careful	-6108
▁tonight	-6109
▁astronom	-6110
▁involves	-6111
▁properly	-6112
▁traveled	-6113
▁institution	-6114
8.	-6115
sp	-6116
But	-6117
osh	-6118
adic	-6119
▁calc	-6120
▁plot	-6121
called	-6122
▁prime	-6123
▁assemb	-6124
▁phrase	-6125
▁plenty	-6126
▁Charles	-6127
▁paradox	-6128
▁paralle	-6129
▁passing	-6130
▁returned	-6131
▁dinosaurs	-6132
▁insurance	-6133
▁synthetic	-6134
itz	-6135
case	-6136
ello	-6137
▁Law	-6138
▁dism	-6139
▁Olymp	-6140
▁chest	-6141
▁dolph	-6142
▁walks	-6143
▁invite	-6144
▁traged	-6145
▁classic	-6146
▁external	-6147
▁strategies	-6148
▁instruments	-6149
▁recognition	-6150
▁instructions	-6151
rah	-6152
▁Gh	-6153
rill	-6154
▁enh	-6155
eters	-6156
iders	-6157
ateful	-6158
▁3,000	-6159
▁Steve	-6160
▁aster	-6161
▁stere	-6162
▁Anyway	-6163
▁string	-6164
▁Angeles	-6165
▁electro	-6166
▁provides	-6167
▁subjects	-6168
▁surveillance	-6169
born	-6170
▁Alz	-6171
copes	-6172
▁Port	-6173
▁acid	-6174
arency	-6175
▁datab	-6176
▁liver	-6177
▁extent	-6178
▁hunger	-6179
▁iPhone	-6180
etically	-6181
▁scratch	-6182
▁produces	-6183
▁Alzheimer	-6184
▁component	-6185
▁consumers	-6186
▁recording	-6187
▁conservative	-6188
arsh	-6189
▁Jan	-6190
▁god	-6191
▁tea	-6192
uster	-6193
▁anat	-6194
▁leap	-6195
▁adopt	-6196
▁crops	-6197
▁dense	-6198
▁holds	-6199
▁sheet	-6200
▁missed	-6201
American	-6202
▁protest	-6203
▁reverse	-6204
▁slavery	-6205
▁confused	-6206
▁football	-6207
▁commitment	-6208
▁connecting	-6209
oma	-6210
raw	-6211
▁cup	-6212
▁ped	-6213
▁rul	-6214
agger	-6215
eding	-6216
level	-6217
sters	-6218
▁Stan	-6219
▁bull	-6220
▁cous	-6221
▁fulf	-6222
phones	-6223
▁cryst	-6224
▁piano	-6225
▁pilot	-6226
▁Pacific	-6227
▁frankly	-6228
▁nowhere	-6229
▁achieved	-6230
▁collapse	-6231
▁focusing	-6232
▁obsessed	-6233
▁vaccines	-6234
ologically	-6235
▁corporate	-6236
▁identical	-6237
▁searching	-6238
▁microscope	-6239
cal	-6240
Look	-6241
▁Cor	-6242
▁neck	-6243
▁peak	-6244
▁wine	-6245
acular	-6246
▁honey	-6247
▁imper	-6248
▁Thomas	-6249
▁defend	-6250
▁cooking	-6251
▁letting	-6252
▁parties	-6253
▁creature	-6254
▁illusion	-6255
▁magnetic	-6256
▁generated	-6257
6.	-6258
part	-6259
phas	-6260
▁Day	-6261
▁Det	-6262
▁raw	-6263
mates	-6264
▁clip	-6265
othing	-6266
▁craft	-6267
▁doors	-6268
▁outer	-6269
▁pharm	-6270
▁style	-6271
▁tears	-6272
▁whales	-6273
▁channel	-6274
▁concern	-6275
▁impacts	-6276
▁official	-6277
▁romantic	-6278
▁theories	-6279
▁resolution	-6280
▁implications	-6281
che	-6282
imp	-6283
ague	-6284
east	-6285
illy	-6286
oose	-6287
udes	-6288
▁Get	-6289
▁Sam	-6290
going	-6291
▁dish	-6292
rition	-6293
▁Count	-6294
▁alter	-6295
▁pocket	-6296
ollywood	-6297
▁divided	-6298
▁magical	-6299
▁robotic	-6300
▁samples	-6301
▁threats	-6302
▁includes	-6303
▁diagnosed	-6304
▁exploring	-6305
▁architects	-6306
AR	-6307
Ch	-6308
gic	-6309
cean	-6310
▁10,	-6311
▁Haw	-6312
▁High	-6313
▁Sept	-6314
▁alco	-6315
▁bubb	-6316
▁burst	-6317
▁dirty	-6318
▁drawn	-6319
▁pengu	-6320
▁roots	-6321
ocolate	-6322
▁latest	-6323
▁legacy	-6324
▁flowers	-6325
▁reduced	-6326
▁visited	-6327
▁download	-6328
▁depressed	-6329
▁telescope	-6330
▁journalists	-6331
▁represented	-6332
7.	-6333
▁x	-6334
aud	-6335
sey	-6336
▁Int	-6337
▁dip	-6338
rates	-6339
▁bike	-6340
▁hook	-6341
▁Greek	-6342
▁abund	-6343
▁aston	-6344
▁drove	-6345
▁enemy	-6346
▁lungs	-6347
▁theme	-6348
forward	-6349
▁dozens	-6350
▁perpet	-6351
▁powers	-6352
▁cheaper	-6353
▁fulfill	-6354
▁rebuild	-6355
▁transpl	-6356
▁concepts	-6357
▁stranger	-6358
▁permanent	-6359
▁selection	-6360
▁translate	-6361
▁controvers	-6362
▁journalist	-6363
4.	-6364
arp	-6365
aws	-6366
han	-6367
ias	-6368
Yeah	-6369
rows	-6370
▁unp	-6371
▁Stud	-6372
▁furn	-6373
▁prev	-6374
▁Union	-6375
▁banks	-6376
▁smoke	-6377
▁recept	-6378
▁anticip	-6379
▁chronic	-6380
▁collaps	-6381
▁federal	-6382
▁Africans	-6383
▁treating	-6384
▁backwards	-6385
▁automatically	-6386
hen	-6387
van	-6388
yal	-6389
osen	-6390
▁Bel	-6391
▁toy	-6392
▁rush	-6393
▁sacr	-6394
▁Found	-6395
▁fifth	-6396
▁glaci	-6397
▁Without	-6398
▁density	-6399
▁granted	-6400
▁habitat	-6401
▁raising	-6402
▁savings	-6403
▁asteroid	-6404
▁occasion	-6405
▁arguments	-6406
▁objective	-6407
▁boundaries	-6408
▁assumptions	-6409
Che	-6410
des	-6411
zen	-6412
keys	-6413
▁der	-6414
▁gro	-6415
▁Back	-6416
▁ages	-6417
▁cats	-6418
▁earn	-6419
▁flip	-6420
▁lets	-6421
▁limb	-6422
▁blame	-6423
▁cents	-6424
section	-6425
▁heroes	-6426
▁ladies	-6427
▁reveal	-6428
▁Central	-6429
▁initial	-6430
▁smarter	-6431
▁welcome	-6432
▁accepted	-6433
▁grateful	-6434
▁sleeping	-6435
▁Christian	-6436
▁department	-6437
▁performing	-6438
▁educational	-6439
▁Mad	-6440
▁Sen	-6441
attoo	-6442
▁flew	-6443
icious	-6444
▁Mount	-6445
through	-6446
▁anonym	-6447
▁flower	-6448
▁relate	-6449
▁finance	-6450
▁helpful	-6451
cientists	-6452
▁globally	-6453
▁delivered	-6454
▁Revolution	-6455
hour	-6456
▁Aug	-6457
▁Tra	-6458
▁beg	-6459
▁sne	-6460
▁van	-6461
▁Step	-6462
▁odds	-6463
▁tent	-6464
▁ugly	-6465
imeter	-6466
▁Nobel	-6467
▁elder	-6468
▁skull	-6469
▁stops	-6470
▁suppl	-6471
▁tries	-6472
▁hardly	-6473
▁layers	-6474
▁served	-6475
▁consult	-6476
▁dancing	-6477
▁deserve	-6478
▁section	-6479
▁district	-6480
▁Christmas	-6481
▁September	-6482
▁directions	-6483
▁integrated	-6484
▁entertainment	-6485
apor	-6486
yram	-6487
▁Tex	-6488
▁fan	-6489
▁meg	-6490
▁mim	-6491
▁adap	-6492
▁5,000	-6493
▁White	-6494
▁Wikip	-6495
▁chrom	-6496
▁likes	-6497
▁route	-6498
▁skept	-6499
▁hungry	-6500
▁clients	-6501
▁entered	-6502
▁inspire	-6503
▁stomach	-6504
▁speakers	-6505
rimination	-6506
▁capitalism	-6507
▁collecting	-6508
▁consequence	-6509
ixt	-6510
ola	-6511
▁dot	-6512
▁mood	-6513
abetes	-6514
▁digit	-6515
▁humor	-6516
▁yield	-6517
▁adding	-6518
▁borrow	-6519
▁nearby	-6520
▁patent	-6521
▁portra	-6522
▁sacred	-6523
▁thrown	-6524
ographer	-6525
▁amongst	-6526
▁failing	-6527
▁reconst	-6528
▁writers	-6529
▁elephant	-6530
▁organize	-6531
▁dedicated	-6532
▁elections	-6533
▁lifestyle	-6534
▁additional	-6535
▁presentation	-6536
▁neighborhoods	-6537
ida	-6538
oir	-6539
appy	-6540
▁Cur	-6541
▁June	-6542
▁alph	-6543
▁cord	-6544
▁gest	-6545
▁Never	-6546
▁Willi	-6547
▁ought	-6548
▁shall	-6549
▁Global	-6550
▁Robert	-6551
▁expans	-6552
▁nurses	-6553
▁prices	-6554
▁profit	-6555
▁waters	-6556
▁airport	-6557
▁proport	-6558
▁winning	-6559
▁scenario	-6560
▁documents	-6561
▁mechanical	-6562
▁mechanisms	-6563
▁volunteers	-6564
▁entrepreneur	-6565
▁transparency	-6566
Let	-6567
ener	-6568
icks	-6569
word	-6570
▁Che	-6571
▁fib	-6572
▁hat	-6573
▁hol	-6574
lings	-6575
▁1950	-6576
▁cute	-6577
▁meal	-6578
makers	-6579
▁expon	-6580
▁legis	-6581
▁proof	-6582
▁spark	-6583
▁whist	-6584
▁yours	-6585
▁Martin	-6586
▁Please	-6587
▁chosen	-6588
▁laptop	-6589
▁rarely	-6590
▁stores	-6591
▁Science	-6592
▁suppose	-6593
▁parallel	-6594
▁restrict	-6595
▁tracking	-6596
▁Wikipedia	-6597
▁immediate	-6598
▁engagement	-6599
▁identified	-6600
▁permission	-6601
▁protecting	-6602
▁International	-6603
▁2,	-6604
ship	-6605
▁250	-6606
▁Lib	-6607
▁Lou	-6608
▁Hait	-6609
▁Turn	-6610
▁cock	-6611
▁heal	-6612
▁icon	-6613
▁nest	-6614
▁Grand	-6615
▁dynam	-6616
▁joint	-6617
▁embedd	-6618
▁surgeon	-6619
▁shopping	-6620
▁chocolate	-6621
▁apparently	-6622
▁fascinated	-6623
cc	-6624
ta	-6625
▁Jo	-6626
▁Ma	-6627
▁Rw	-6628
lets	-6629
▁Oct	-6630
▁sle	-6631
isted	-6632
▁Rome	-6633
arents	-6634
▁evalu	-6635
▁purch	-6636
▁oldest	-6637
▁shaped	-6638
▁tattoo	-6639
▁disturb	-6640
▁extinct	-6641
▁manager	-6642
▁monitor	-6643
▁officer	-6644
▁delivery	-6645
▁dialogue	-6646
▁included	-6647
▁reducing	-6648
▁reminded	-6649
▁responses	-6650
▁disability	-6651
▁medication	-6652
top	-6653
bola	-6654
▁Pan	-6655
▁Was	-6656
erved	-6657
▁asks	-6658
▁fool	-6659
▁gray	-6660
▁prec	-6661
▁chaos	-6662
▁execut	-6663
▁fertil	-6664
▁poison	-6665
▁smooth	-6666
▁autonom	-6667
▁chances	-6668
▁liberal	-6669
▁picking	-6670
▁pulling	-6671
▁reports	-6672
▁administ	-6673
▁recovery	-6674
▁vertical	-6675
▁Basically	-6676
▁elephants	-6677
▁measuring	-6678
▁prototype	-6679
▁reference	-6680
▁uncertainty	-6681
3.	-6682
ari	-6683
oly	-6684
▁["	-6685
ester	-6686
iance	-6687
iform	-6688
▁glad	-6689
▁silk	-6690
▁Antar	-6691
▁Democ	-6692
▁Under	-6693
▁hotel	-6694
▁incar	-6695
▁sphere	-6696
▁command	-6697
▁speaker	-6698
▁fraction	-6699
▁recommend	-6700
▁remaining	-6701
▁interacting	-6702
▁universities	-6703
asy	-6704
cut	-6705
ason	-6706
lims	-6707
▁Net	-6708
▁Sou	-6709
▁cub	-6710
elled	-6711
isons	-6712
▁Jack	-6713
▁mice	-6714
▁Texas	-6715
▁upset	-6716
▁agency	-6717
▁arrive	-6718
▁injury	-6719
▁orange	-6720
▁satisf	-6721
▁simult	-6722
▁toilet	-6723
▁weapon	-6724
▁designs	-6725
▁drivers	-6726
▁enforce	-6727
▁mindset	-6728
▁painted	-6729
▁poorest	-6730
▁prepare	-6731
▁attached	-6732
▁diabetes	-6733
▁shoulder	-6734
▁disorders	-6735
▁elsewhere	-6736
▁establish	-6737
▁footprint	-6738
▁forgotten	-6739
▁teenagers	-6740
▁behavioral	-6741
▁disappoint	-6742
▁electronic	-6743
vin	-6744
▁Up	-6745
ilty	-6746
▁bat	-6747
oding	-6748
▁rent	-6749
▁tort	-6750
arters	-6751
astroph	-6752
related	-6753
▁emphas	-6754
▁rhythm	-6755
▁Whether	-6756
▁chromos	-6757
▁earthqu	-6758
▁observe	-6759
▁publish	-6760
▁shelter	-6761
▁suspect	-6762
▁daughters	-6763
▁industries	-6764
▁mysterious	-6765
▁underlying	-6766
.]	-6767
▁–	-6768
anny	-6769
▁Way	-6770
archy	-6771
attan	-6772
pring	-6773
▁tube	-6774
▁Micro	-6775
▁intim	-6776
▁mixed	-6777
anthrop	-6778
▁assign	-6779
▁output	-6780
▁transm	-6781
▁routine	-6782
▁sisters	-6783
▁tragedy	-6784
▁whereas	-6785
▁Although	-6786
▁hardware	-6787
▁hormones	-6788
▁affordable	-6789
▁spectacular	-6790
▁characteristics	-6791
kin	-6792
omp	-6793
▁UK	-6794
▁id	-6795
fall	-6796
rous	-6797
tail	-6798
tery	-6799
▁195	-6800
▁ate	-6801
▁sed	-6802
class	-6803
▁Gold	-6804
▁Mean	-6805
▁bene	-6806
▁crew	-6807
astern	-6808
▁agend	-6809
▁apple	-6810
▁nerve	-6811
▁veter	-6812
century	-6813
▁August	-6814
▁athlet	-6815
▁fought	-6816
▁locked	-6817
▁mainly	-6818
▁retire	-6819
▁talent	-6820
children	-6821
▁January	-6822
▁alcohol	-6823
▁circles	-6824
▁opposed	-6825
▁appeared	-6826
▁choosing	-6827
▁announced	-6828
▁inspiring	-6829
▁investors	-6830
▁paintings	-6831
▁positions	-6832
▁satellites	-6833
/1	-6834
urd	-6835
rome	-6836
▁Acc	-6837
▁Nat	-6838
▁gon	-6839
▁spr	-6840
anged	-6841
eared	-6842
▁Ever	-6843
▁Girl	-6844
▁Wall	-6845
▁bind	-6846
▁gras	-6847
▁lung	-6848
▁subs	-6849
▁suck	-6850
▁Ebola	-6851
▁River	-6852
▁foods	-6853
▁manif	-6854
▁relax	-6855
▁reput	-6856
utional	-6857
▁Within	-6858
▁needle	-6859
▁senior	-6860
▁concert	-6861
▁consume	-6862
▁diction	-6863
▁Hollywood	-6864
▁underground	-6865
▁sustainability	-6866
iac	-6867
ora	-6868
war	-6869
oral	-6870
osal	-6871
▁Jes	-6872
▁Que	-6873
▁Wal	-6874
▁jun	-6875
▁wid	-6876
belie	-6877
owing	-6878
▁bold	-6879
▁boun	-6880
▁chip	-6881
▁rice	-6882
▁stun	-6883
▁gases	-6884
▁guard	-6885
▁opens	-6886
▁utter	-6887
▁wings	-6888
▁Museum	-6889
▁facial	-6890
▁unable	-6891
▁defense	-6892
▁elected	-6893
▁percept	-6894
▁embedded	-6895
▁estimate	-6896
▁paradigm	-6897
▁scholars	-6898
▁suffered	-6899
▁frequency	-6900
▁highlight	-6901
▁intuitive	-6902
▁catastroph	-6903
▁economists	-6904
9.	-6905
bed	-6906
ota	-6907
doll	-6908
▁Bab	-6909
▁Hom	-6910
▁boo	-6911
▁pra	-6912
▁Arch	-6913
▁Manh	-6914
▁bask	-6915
▁boom	-6916
▁finds	-6917
▁breaks	-6918
▁emerge	-6919
▁rescue	-6920
▁scales	-6921
▁shadow	-6922
▁tackle	-6923
▁Muslims	-6924
▁exhaust	-6925
▁imaging	-6926
▁monkeys	-6927
▁promote	-6928
▁southern	-6929
▁Manhattan	-6930
▁investing	-6931
▁nutrients	-6932
▁reduction	-6933
▁supported	-6934
▁ingredients	-6935
▁significantly	-6936
▁discrimination	-6937
SD	-6938
SP	-6939
nes	-6940
rid	-6941
▁Hi	-6942
▁Ty	-6943
▁Hen	-6944
eping	-6945
▁Star	-6946
▁Tell	-6947
▁quit	-6948
▁Prize	-6949
▁prize	-6950
▁reson	-6951
▁Jewish	-6952
▁Things	-6953
▁attrib	-6954
▁bother	-6955
▁buried	-6956
▁ending	-6957
▁farmer	-6958
▁Nothing	-6959
▁essence	-6960
▁ethical	-6961
▁instant	-6962
▁pointed	-6963
▁Atlantic	-6964
▁concerns	-6965
▁measures	-6966
▁replaced	-6967
▁diagnosis	-6968
▁suggested	-6969
▁accomplish	-6970
▁regardless	-6971
▁resilience	-6972
▁discoveries	-6973
▁improvement	-6974
▁agricultural	-6975
ras	-6976
amin	-6977
ares	-6978
eady	-6979
fast	-6980
▁Cop	-6981
▁NGO	-6982
▁gam	-6983
▁ink	-6984
▁obl	-6985
▁wip	-6986
front	-6987
▁hire	-6988
▁pand	-6989
▁tape	-6990
▁physi	-6991
▁pyram	-6992
▁spots	-6993
▁caring	-6994
▁conven	-6995
▁Russian	-6996
▁wheelch	-6997
▁intention	-6998
▁sculpture	-6999
▁ecosystems	-7000
▁interactive	-7001
▁overwhelming	-7002
▁Op	-7003
arly	-7004
ding	-7005
olar	-7006
urse	-7007
▁GPS	-7008
▁Mod	-7009
iated	-7010
▁1980	-7011
▁bend	-7012
▁bond	-7013
▁infl	-7014
▁migr	-7015
▁Detro	-7016
▁Woman	-7017
▁Sweden	-7018
▁colony	-7019
▁loving	-7020
▁circuit	-7021
▁deliber	-7022
▁miracle	-7023
▁windows	-7024
▁bathroom	-7025
▁educated	-7026
▁figuring	-7027
▁survived	-7028
▁virtually	-7029
▁optimistic	-7030
▁ridiculous	-7031
So	-7032
▁Ah	-7033
ione	-7034
tech	-7035
▁Bre	-7036
There	-7037
alian	-7038
iture	-7039
stage	-7040
▁Both	-7041
▁Jeff	-7042
▁brut	-7043
▁pour	-7044
itudes	-7045
▁fiber	-7046
▁marry	-7047
▁monit	-7048
▁usual	-7049
▁weeke	-7050
uration	-7051
▁balloon	-7052
▁forming	-7053
▁license	-7054
▁sensory	-7055
▁arrested	-7056
▁flexible	-7057
▁listened	-7058
▁mechanics	-7059
▁prisoners	-7060
▁inevitable	-7061
▁threatened	-7062
▁transparent	-7063
▁professionals	-7064
▁Ven	-7065
▁reh	-7066
ensus	-7067
worth	-7068
▁1970	-7069
▁Miss	-7070
▁lone	-7071
▁Being	-7072
▁Ocean	-7073
▁farms	-7074
▁femin	-7075
▁unpre	-7076
▁whale	-7077
▁rivers	-7078
▁stages	-7079
▁farming	-7080
▁Stanford	-7081
▁accounts	-7082
▁predicted	-7083
▁Foundation	-7084
▁consistent	-7085
▁functional	-7086
▁motivation	-7087
▁established	-7088
mes	-7089
rus	-7090
bial	-7091
utch	-7092
▁Hel	-7093
▁Lab	-7094
▁Ten	-7095
▁Unt	-7096
▁aug	-7097
▁lon	-7098
ading	-7099
▁defe	-7100
▁kiss	-7101
▁laid	-7102
▁incor	-7103
▁numer	-7104
▁paras	-7105
▁lovely	-7106
▁spoken	-7107
▁bubbles	-7108
▁delight	-7109
▁horizon	-7110
▁printed	-7111
▁invested	-7112
▁precious	-7113
▁astronaut	-7114
▁cooperation	-7115
▁probability	-7116
.)	-7117
uum	-7118
aves	-7119
pled	-7120
▁Ice	-7121
▁unh	-7122
asses	-7123
▁Pole	-7124
▁guns	-7125
▁tear	-7126
▁trop	-7127
dollar	-7128
▁flour	-7129
▁Arctic	-7130
▁actors	-7131
▁frozen	-7132
▁gravit	-7133
▁guilty	-7134
▁intent	-7135
▁distingu	-7136
▁navigate	-7137
▁activists	-7138
▁seemingly	-7139
▁separated	-7140
▁neuroscience	-7141
hop	-7142
▁Sl	-7143
▁Ug	-7144
umes	-7145
▁Jul	-7146
▁sav	-7147
break	-7148
▁Ethi	-7149
▁peer	-7150
▁soap	-7151
▁tong	-7152
▁Carol	-7153
▁ignor	-7154
▁legit	-7155
▁safer	-7156
▁shake	-7157
▁shout	-7158
▁tower	-7159
▁dating	-7160
▁excell	-7161
▁arrange	-7162
▁comprom	-7163
▁disgust	-7164
▁females	-7165
▁harness	-7166
▁agencies	-7167
▁mosquito	-7168
▁psychiat	-7169
▁wireless	-7170
▁reactions	-7171
▁disappeared	-7172
ek	-7173
ena	-7174
rav	-7175
▁nit	-7176
cence	-7177
iment	-7178
inson	-7179
state	-7180
▁caps	-7181
▁sits	-7182
ietnam	-7183
▁Haiti	-7184
▁naked	-7185
▁branch	-7186
▁intrig	-7187
▁monkey	-7188
▁occurs	-7189
▁subtle	-7190
▁diagram	-7191
▁hanging	-7192
▁warning	-7193
▁controls	-7194
▁shooting	-7195
▁motivated	-7196
fe	-7197
ya	-7198
equ	-7199
▁La	-7200
oted	-7201
▁191	-7202
▁Bob	-7203
▁bon	-7204
▁via	-7205
esity	-7206
ested	-7207
▁Sing	-7208
▁lift	-7209
▁sett	-7210
igaret	-7211
ometer	-7212
▁bombs	-7213
▁flows	-7214
▁therm	-7215
unction	-7216
▁grandp	-7217
▁injust	-7218
▁safely	-7219
▁spinal	-7220
▁stroke	-7221
▁thrive	-7222
▁analyze	-7223
▁tissues	-7224
▁Children	-7225
▁answered	-7226
▁attitude	-7227
▁lighting	-7228
▁frequently	-7229
▁governance	-7230
▁hypothesis	-7231
▁infections	-7232
anz	-7233
agen	-7234
onic	-7235
ynth	-7236
▁gor	-7237
▁east	-7238
▁porn	-7239
▁till	-7240
vation	-7241
▁reefs	-7242
▁roles	-7243
▁Island	-7244
▁assess	-7245
▁curren	-7246
▁lawyer	-7247
▁beneath	-7248
▁charity	-7249
▁contrad	-7250
▁fastest	-7251
▁garbage	-7252
▁orchest	-7253
▁improved	-7254
▁proposed	-7255
▁reliable	-7256
▁conflicts	-7257
▁expertise	-7258
▁afterwards	-7259
▁originally	-7260
▁photography	-7261
▁gh	-7262
agon	-7263
▁tip	-7264
amine	-7265
▁ampl	-7266
▁brid	-7267
▁cham	-7268
▁cong	-7269
▁mold	-7270
employ	-7271
▁Peter	-7272
▁armed	-7273
▁chief	-7274
▁loves	-7275
▁nurse	-7276
liament	-7277
▁Indeed	-7278
▁burned	-7279
▁eradic	-7280
▁killer	-7281
▁paraly	-7282
▁stimul	-7283
▁Vietnam	-7284
▁happier	-7285
▁obesity	-7286
▁restore	-7287
▁complain	-7288
▁distract	-7289
▁perceive	-7290
▁textbook	-7291
▁abilities	-7292
▁estimated	-7293
▁expanding	-7294
▁advertising	-7295
▁controlling	-7296
▁predictions	-7297
▁breakthrough	-7298
▁successfully	-7299
rix	-7300
▁Bu	-7301
▁Hy	-7302
▁na	-7303
fold	-7304
soft	-7305
uity	-7306
▁sib	-7307
ashed	-7308
bling	-7309
ckets	-7310
ffect	-7311
▁Adam	-7312
▁calm	-7313
▁gods	-7314
▁horr	-7315
▁rape	-7316
▁tang	-7317
nocent	-7318
rowing	-7319
▁March	-7320
▁Scott	-7321
▁begun	-7322
▁fract	-7323
▁gonna	-7324
▁sperm	-7325
▁agenda	-7326
▁tricks	-7327
▁barrier	-7328
▁compete	-7329
▁lawyers	-7330
▁barriers	-7331
▁laughing	-7332
▁stations	-7333
▁surfaces	-7334
▁versions	-7335
▁alongside	-7336
▁gradually	-7337
▁capability	-7338
▁incentives	-7339
70	-7340
ye	-7341
cret	-7342
iece	-7343
lers	-7344
▁Hum	-7345
▁Vir	-7346
kward	-7347
▁bars	-7348
▁dies	-7349
▁hill	-7350
▁pile	-7351
▁Ghana	-7352
▁Organ	-7353
▁angle	-7354
▁bored	-7355
▁conce	-7356
▁schem	-7357
▁corals	-7358
▁diplom	-7359
▁landed	-7360
▁merely	-7361
▁surely	-7362
▁voting	-7363
▁clothing	-7364
▁database	-7365
▁exposure	-7366
▁prosperity	-7367
▁researcher	-7368
▁programming	-7369
▁collectively	-7370
▁corporations	-7371
▁communications	-7372
▁representation	-7373
eds	-7374
▁95	-7375
real	-7376
▁Mag	-7377
▁aqu	-7378
▁hip	-7379
▁ric	-7380
▁wet	-7381
ifice	-7382
itate	-7383
▁axis	-7384
▁file	-7385
▁irre	-7386
▁Trump	-7387
▁algae	-7388
▁uncle	-7389
▁Arabic	-7390
▁Really	-7391
▁attend	-7392
▁basket	-7393
▁spider	-7394
▁theore	-7395
▁Nations	-7396
▁founded	-7397
▁glasses	-7398
▁secrets	-7399
▁serving	-7400
▁staying	-7401
▁Southern	-7402
▁incarcer	-7403
▁unlikely	-7404
▁primarily	-7405
mo	-7406
aze	-7407
mod	-7408
obs	-7409
▁Ox	-7410
zees	-7411
▁Bon	-7412
▁aer	-7413
human	-7414
icial	-7415
▁Budd	-7416
▁Flor	-7417
▁Love	-7418
▁epis	-7419
▁turb	-7420
source	-7421
▁Italy	-7422
▁Third	-7423
▁sharp	-7424
▁sheep	-7425
▁Rwanda	-7426
▁Should	-7427
▁convey	-7428
▁racism	-7429
▁stored	-7430
▁trends	-7431
▁vacuum	-7432
▁Silicon	-7433
▁adopted	-7434
▁awkward	-7435
▁chapter	-7436
▁convert	-7437
▁descend	-7438
▁involve	-7439
▁seeking	-7440
▁unbelie	-7441
▁honestly	-7442
▁informed	-7443
▁laughter	-7444
▁stereoty	-7445
▁strongly	-7446
▁suggesting	-7447
▁competitive	-7448
▁demonstrate	-7449
▁globalization	-7450
Can	-7451
ela	-7452
▁26	-7453
▁32	-7454
ache	-7455
oust	-7456
uine	-7457
▁Put	-7458
▁Sar	-7459
▁cab	-7460
orage	-7461
▁enth	-7462
▁glam	-7463
▁salt	-7464
▁whis	-7465
income	-7466
▁Until	-7467
▁elite	-7468
▁punch	-7469
▁stake	-7470
▁trash	-7471
▁Uganda	-7472
▁combat	-7473
▁compos	-7474
▁neuron	-7475
▁panels	-7476
▁regret	-7477
▁widely	-7478
▁anthrop	-7479
▁emerged	-7480
▁touched	-7481
▁aircraft	-7482
▁counting	-7483
▁entering	-7484
▁insights	-7485
▁northern	-7486
▁exception	-7487
▁performed	-7488
▁approaches	-7489
▁attractive	-7490
▁extinction	-7491
▁operations	-7492
▁reputation	-7493
▁transplant	-7494
▁surprisingly	-7495
▁simultaneously	-7496
azz	-7497
ban	-7498
uba	-7499
When	-7500
▁Ham	-7501
▁MRI	-7502
▁Ter	-7503
cript	-7504
leton	-7505
▁beer	-7506
▁pink	-7507
iences	-7508
▁Super	-7509
▁aspir	-7510
▁hopes	-7511
▁meter	-7512
▁patch	-7513
▁pione	-7514
▁realm	-7515
igenous	-7516
▁adoles	-7517
▁butter	-7518
▁column	-7519
▁excess	-7520
▁fusion	-7521
▁golden	-7522
▁hiding	-7523
▁prosec	-7524
▁robust	-7525
standing	-7526
▁bicycle	-7527
▁fragile	-7528
▁periods	-7529
▁expansion	-7530
▁officials	-7531
▁terrorist	-7532
▁workplace	-7533
▁categories	-7534
▁telescopes	-7535
▁philanthrop	-7536
ige	-7537
▁UN	-7538
away	-7539
kind	-7540
ober	-7541
pire	-7542
road	-7543
ulin	-7544
▁10-	-7545
▁Dan	-7546
▁Mom	-7547
ctive	-7548
sized	-7549
▁Blue	-7550
▁rail	-7551
▁tied	-7552
▁balls	-7553
▁inhab	-7554
▁queen	-7555
▁thumb	-7556
ustrial	-7557
▁formal	-7558
▁infant	-7559
▁partly	-7560
Audience	-7561
▁Detroit	-7562
▁trapped	-7563
▁category	-7564
▁dominant	-7565
▁judgment	-7566
▁offering	-7567
▁preserve	-7568
▁remained	-7569
▁variation	-7570
▁remembered	-7571
▁supporting	-7572
▁terrifying	-7573
DA	-7574
apy	-7575
lyn	-7576
reh	-7577
tra	-7578
agos	-7579
▁tro	-7580
▁ven	-7581
Where	-7582
apped	-7583
think	-7584
tical	-7585
▁1990	-7586
▁Cont	-7587
▁Desp	-7588
▁Gulf	-7589
▁dive	-7590
▁hier	-7591
▁mode	-7592
▁drill	-7593
▁Design	-7594
▁Palest	-7595
▁degrad	-7596
▁scores	-7597
▁trucks	-7598
▁Florida	-7599
▁October	-7600
▁innocent	-7601
▁unemploy	-7602
▁Microsoft	-7603
▁conducted	-7604
▁electrons	-7605
▁explosion	-7606
▁instantly	-7607
▁musicians	-7608
▁religions	-7609
▁difficulty	-7610
cel	-7611
sum	-7612
zes	-7613
▁65	-7614
▁Po	-7615
ails	-7616
enly	-7617
▁9/1	-7618
▁Bur	-7619
▁Lar	-7620
▁mig	-7621
▁unw	-7622
anned	-7623
copic	-7624
flies	-7625
▁beet	-7626
▁butt	-7627
iously	-7628
ndrome	-7629
▁aesth	-7630
▁exped	-7631
▁funds	-7632
▁polio	-7633
▁screw	-7634
▁trail	-7635
▁50,000	-7636
▁editor	-7637
▁genuine	-7638
▁hardest	-7639
▁harmful	-7640
▁immense	-7641
▁smoking	-7642
▁storage	-7643
▁traject	-7644
▁extended	-7645
▁symmetry	-7646
▁throwing	-7647
▁breakfast	-7648
▁improving	-7649
▁predators	-7650
▁rainforest	-7651
▁simulation	-7652
▁transmission	-7653
ua	-7654
ona	-7655
▁$1	-7656
▁Bo	-7657
▁Ok	-7658
long	-7659
neys	-7660
▁Six	-7661
▁upd	-7662
capes	-7663
chool	-7664
rones	-7665
▁dump	-7666
▁mush	-7667
▁Roman	-7668
▁Syria	-7669
▁camps	-7670
▁owner	-7671
▁sched	-7672
▁ships	-7673
▁tooth	-7674
▁cosmic	-7675
▁jumped	-7676
▁native	-7677
▁sensor	-7678
▁tragic	-7679
▁upside	-7680
cedented	-7681
▁metabol	-7682
▁targets	-7683
▁transact	-7684
▁adventure	-7685
▁calculate	-7686
▁pregnancy	-7687
▁substance	-7688
▁earthquake	-7689
▁indigenous	-7690
▁mosquitoes	-7691
▁reasonable	-7692
▁traditions	-7693
▁wheelchair	-7694
▁observation	-7695
▁contemporary	-7696
▁intervention	-7697
rof	-7698
play	-7699
▁Bet	-7700
▁lux	-7701
▁oct	-7702
field	-7703
▁1960	-7704
▁None	-7705
▁Sund	-7706
▁Sure	-7707
▁bags	-7708
▁drew	-7709
▁lean	-7710
▁sink	-7711
▁sons	-7712
▁wise	-7713
urable	-7714
utical	-7715
▁Asian	-7716
▁annoy	-7717
▁cruel	-7718
▁fancy	-7719
▁fault	-7720
▁spray	-7721
▁tempt	-7722
▁threw	-7723
viously	-7724
▁Nature	-7725
▁commod	-7726
▁decent	-7727
▁richer	-7728
▁slides	-7729
▁strand	-7730
▁Islamic	-7731
▁damaged	-7732
▁imagery	-7733
▁comments	-7734
▁friendly	-7735
▁observed	-7736
▁opinions	-7737
▁According	-7738
▁gathering	-7739
▁obstacles	-7740
▁physicist	-7741
▁procedure	-7742
▁sentences	-7743
▁telephone	-7744
▁Department	-7745
▁challenged	-7746
▁exhibition	-7747
▁experimental	-7748
BI	-7749
PA	-7750
Who	-7751
▁3.	-7752
▁EM	-7753
wich	-7754
▁Del	-7755
▁lit	-7756
▁sew	-7757
▁sin	-7758
▁tub	-7759
▁Mach	-7760
▁bell	-7761
▁biod	-7762
▁chat	-7763
▁knee	-7764
ankton	-7765
rained	-7766
▁excit	-7767
▁panel	-7768
▁viral	-7769
▁deadly	-7770
▁offers	-7771
▁pursue	-7772
▁Despite	-7773
▁dressed	-7774
▁regener	-7775
▁revenue	-7776
▁crossing	-7777
▁disagree	-7778
▁explains	-7779
▁facility	-7780
▁gathered	-7781
▁intended	-7782
▁manifest	-7783
▁completed	-7784
▁autonomous	-7785
▁frustrated	-7786
▁identities	-7787
▁previously	-7788
▁surrounding	-7789
▁unprecedented	-7790
ura	-7791
▁0.	-7792
arre	-7793
eday	-7794
ownt	-7795
enger	-7796
otion	-7797
quare	-7798
ribly	-7799
▁leaf	-7800
▁mail	-7801
▁mate	-7802
▁vary	-7803
▁wedd	-7804
▁Henry	-7805
▁badly	-7806
▁links	-7807
▁burden	-7808
▁cheese	-7809
▁rating	-7810
▁traits	-7811
▁Eastern	-7812
▁ceiling	-7813
aceutical	-7814
▁believes	-7815
▁covering	-7816
▁incident	-7817
▁smallest	-7818
▁authentic	-7819
▁candidate	-7820
▁healthier	-7821
▁intuition	-7822
▁volunteer	-7823
▁chimpanzees	-7824
▁constructed	-7825
▁enforcement	-7826
▁grandchildren	-7827
"]	-7828
ev	-7829
ali	-7830
▁Ap	-7831
▁Di	-7832
▁nu	-7833
▁rh	-7834
aine	-7835
made	-7836
outs	-7837
orted	-7838
▁clim	-7839
person	-7840
▁conqu	-7841
▁lions	-7842
▁pride	-7843
▁valid	-7844
▁Almost	-7845
▁Rather	-7846
▁nights	-7847
▁upload	-7848
▁elderly	-7849
▁lecture	-7850
▁screens	-7851
▁applying	-7852
▁revealed	-7853
▁compounds	-7854
▁injustice	-7855
▁perceived	-7856
▁radically	-7857
▁relatives	-7858
▁excitement	-7859
▁structural	-7860
▁acknowledge	-7861
▁astonishing	-7862
ET	-7863
gi	-7864
And	-7865
ete	-7866
gia	-7867
▁LG	-7868
ifer	-7869
izer	-7870
ulum	-7871
▁Sea	-7872
▁cas	-7873
adays	-7874
▁eleg	-7875
mental	-7876
▁Brown	-7877
▁Congo	-7878
▁Spain	-7879
▁tracks	-7880
▁profile	-7881
▁reminds	-7882
▁session	-7883
▁shocked	-7884
▁symbols	-7885
▁baseball	-7886
▁climbing	-7887
▁conclude	-7888
▁earliest	-7889
▁Meanwhile	-7890
▁desperately	-7891
▁electronics	-7892
cons	-7893
icop	-7894
step	-7895
▁202	-7896
▁Civ	-7897
▁Far	-7898
▁Sov	-7899
▁pix	-7900
inder	-7901
▁Bush	-7902
▁Norm	-7903
▁Time	-7904
▁orph	-7905
▁woke	-7906
gender	-7907
orters	-7908
ospher	-7909
ulture	-7910
▁Event	-7911
▁peers	-7912
▁silly	-7913
▁steal	-7914
▁digest	-7915
▁lonely	-7916
▁poster	-7917
▁recipe	-7918
▁render	-7919
▁volcan	-7920
▁enables	-7921
▁endless	-7922
▁logical	-7923
▁minimum	-7924
▁prescri	-7925
▁artistic	-7926
▁decrease	-7927
▁teenager	-7928
▁Obviously	-7929
▁abandoned	-7930
▁dependent	-7931
▁initially	-7932
▁precision	-7933
▁receiving	-7934
▁encouraged	-7935
▁prediction	-7936
▁smartphone	-7937
▁collaborative	-7938
▁participation	-7939
reme	-7940
yard	-7941
▁Sur	-7942
▁cla	-7943
emics	-7944
world	-7945
▁fate	-7946
▁gaps	-7947
▁hipp	-7948
▁toys	-7949
coming	-7950
▁energ	-7951
▁items	-7952
▁shrim	-7953
▁thres	-7954
lishing	-7955
ounding	-7956
▁harass	-7957
▁proved	-7958
▁tongue	-7959
▁tunnel	-7960
▁closing	-7961
▁graphic	-7962
▁ignored	-7963
▁persist	-7964
▁pretend	-7965
▁tension	-7966
▁uniform	-7967
▁officers	-7968
▁socially	-7969
▁physician	-7970
▁genetically	-7971
▁innovations	-7972
IS	-7973
Wow	-7974
imal	-7975
viol	-7976
▁dut	-7977
▁orb	-7978
produ	-7979
ville	-7980
▁dile	-7981
▁rank	-7982
▁recl	-7983
▁rose	-7984
▁tone	-7985
izarre	-7986
semble	-7987
▁chips	-7988
▁fraud	-7989
▁owned	-7990
▁pairs	-7991
▁stays	-7992
umented	-7993
usiness	-7994
▁Columb	-7995
▁Virgin	-7996
▁annual	-7997
▁enthus	-7998
▁grocer	-7999
▁interf	-8000
▁closest	-8001
▁educate	-8002
▁propose	-8003
▁pyramid	-8004
▁currency	-8005
▁homework	-8006
▁animation	-8007
▁realizing	-8008
▁approached	-8009
▁compelling	-8010
▁immigrants	-8011
▁influenced	-8012
▁profoundly	-8013
▁interviewed	-8014
▁philosopher	-8015
▁unconscious	-8016
▁capabilities	-8017
▁grandparents	-8018
▁photographer	-8019
Sh	-8020
ca	-8021
gu	-8022
see	-8023
acco	-8024
aded	-8025
asty	-8026
gers	-8027
half	-8028
uana	-8029
west	-8030
▁Den	-8031
▁Isn	-8032
▁Its	-8033
▁Mac	-8034
▁Tor	-8035
anges	-8036
▁Jane	-8037
▁blah	-8038
ortion	-8039
▁Power	-8040
▁Smith	-8041
▁dilem	-8042
▁edges	-8043
▁jelly	-8044
▁pause	-8045
▁plain	-8046
▁sends	-8047
▁20,000	-8048
▁capita	-8049
▁metric	-8050
otherapy	-8051
▁consent	-8052
▁enterpr	-8053
▁readers	-8054
▁Ethiopia	-8055
▁articles	-8056
▁branches	-8057
▁dynamics	-8058
▁failures	-8059
▁pandemic	-8060
▁graduated	-8061
▁guarantee	-8062
▁interrupt	-8063
▁stability	-8064
▁threshold	-8065
▁Eventually	-8066
▁assumption	-8067
▁devastating	-8068
▁temperatures	-8069
.”	-8070
Are	-8071
SPR	-8072
bru	-8073
▁BF	-8074
airo	-8075
▁Wow	-8076
▁ham	-8077
▁vag	-8078
RISPR	-8079
arest	-8080
gging	-8081
▁mall	-8082
▁neat	-8083
▁quad	-8084
▁wing	-8085
active	-8086
▁4,000	-8087
▁Medic	-8088
▁acids	-8089
▁grief	-8090
▁lowest	-8091
▁revers	-8092
ventions	-8093
▁bizarre	-8094
▁hitting	-8095
▁momentum	-8096
▁syndrome	-8097
▁countless	-8098
▁preparing	-8099
▁witnessed	-8100
▁facilities	-8101
▁limitations	-8102
▁measurements	-8103
elf	-8104
sun	-8105
vol	-8106
ccer	-8107
utor	-8108
▁120	-8109
▁Bay	-8110
▁Hig	-8111
▁ech	-8112
▁inn	-8113
ctica	-8114
essor	-8115
illed	-8116
otted	-8117
▁Move	-8118
▁corn	-8119
▁dumb	-8120
▁tact	-8121
▁thro	-8122
Cheers	-8123
cember	-8124
▁ambit	-8125
▁array	-8126
▁embry	-8127
▁hired	-8128
▁repet	-8129
▁CRISPR	-8130
▁Church	-8131
▁dispar	-8132
▁habits	-8133
▁halluc	-8134
▁heaven	-8135
▁makers	-8136
▁planes	-8137
▁propag	-8138
▁ticket	-8139
▁tribes	-8140
▁anatomy	-8141
▁counsel	-8142
▁couples	-8143
▁spreads	-8144
▁channels	-8145
▁customer	-8146
▁disabled	-8147
▁sandwich	-8148
▁broadcast	-8149
▁dimension	-8150
▁furniture	-8151
▁microbial	-8152
▁primitive	-8153
▁qualities	-8154
▁explaining	-8155
▁humanitarian	-8156
▁vulnerability	-8157
ima	-8158
rans	-8159
rist	-8160
▁700	-8161
▁Som	-8162
▁pir	-8163
▁vit	-8164
ician	-8165
pless	-8166
riger	-8167
rover	-8168
▁craw	-8169
▁gate	-8170
▁Child	-8171
▁Jesus	-8172
▁downt	-8173
▁fires	-8174
▁genoc	-8175
▁gross	-8176
▁infer	-8177
▁tweet	-8178
▁assets	-8179
▁emails	-8180
▁proven	-8181
▁shrimp	-8182
changing	-8183
▁bridges	-8184
▁drought	-8185
▁selfish	-8186
▁December	-8187
▁activist	-8188
▁calories	-8189
▁peaceful	-8190
▁robotics	-8191
▁accidents	-8192
▁believing	-8193
▁headlines	-8194
▁locations	-8195
▁survivors	-8196
▁Antarctica	-8197
▁concentration	-8198
▁gravitational	-8199
Cl	-8200
bow	-8201
▁Cy	-8202
▁DB	-8203
ahar	-8204
char	-8205
umin	-8206
▁Boy	-8207
▁Hol	-8208
▁Jon	-8209
▁nom	-8210
▁sau	-8211
ureau	-8212
▁cott	-8213
▁duck	-8214
▁scra	-8215
▁encry	-8216
▁squee	-8217
▁crimes	-8218
▁funded	-8219
▁pollen	-8220
▁regime	-8221
▁Italian	-8222
▁beating	-8223
▁besides	-8224
▁corrupt	-8225
▁demands	-8226
▁healing	-8227
▁Together	-8228
▁drawings	-8229
▁managers	-8230
▁penguins	-8231
▁audiences	-8232
▁factories	-8233
▁nutrition	-8234
▁platforms	-8235
▁workforce	-8236
▁simplicity	-8237
▁observations	-8238
aza	-8239
ker	-8240
uke	-8241
▁Kh	-8242
▁Hey	-8243
▁Out	-8244
▁ain	-8245
▁ner	-8246
obile	-8247
puter	-8248
▁2050	-8249
▁Cour	-8250
▁dear	-8251
▁outs	-8252
bruary	-8253
▁Liber	-8254
▁Louis	-8255
▁Turns	-8256
▁fired	-8257
▁hemis	-8258
▁seats	-8259
▁shore	-8260
▁spell	-8261
▁warri	-8262
ictions	-8263
▁agents	-8264
▁chairs	-8265
▁claims	-8266
▁errors	-8267
▁pedest	-8268
▁silver	-8269
▁soccer	-8270
andering	-8271
ervation	-8272
velength	-8273
▁Similar	-8274
▁helicop	-8275
▁located	-8276
▁someday	-8277
▁February	-8278
▁mobility	-8279
▁refriger	-8280
▁ambitious	-8281
▁detection	-8282
▁eliminate	-8283
▁expecting	-8284
▁nonprofit	-8285
▁biologists	-8286
▁continuous	-8287
▁describing	-8288
▁physicists	-8289
▁punishment	-8290
▁translated	-8291
▁vegetables	-8292
▁reconstruct	-8293
▁translation	-8294
▁pharmaceutical	-8295
nat	-8296
▁pa	-8297
Okay	-8298
▁800	-8299
▁bio	-8300
grade	-8301
izoph	-8302
▁Prot	-8303
▁bump	-8304
▁cert	-8305
▁grat	-8306
▁inex	-8307
▁loan	-8308
erable	-8309
soever	-8310
▁Bible	-8311
▁Gates	-8312
▁Using	-8313
▁civic	-8314
▁redes	-8315
working	-8316
▁Friday	-8317
▁Little	-8318
▁bullet	-8319
▁client	-8320
▁cultiv	-8321
▁fibers	-8322
▁manner	-8323
▁racial	-8324
▁rubber	-8325
▁General	-8326
▁hormone	-8327
▁statist	-8328
▁genetics	-8329
▁striking	-8330
▁addiction	-8331
▁medicines	-8332
▁residents	-8333
▁territory	-8334
▁comparison	-8335
▁reflection	-8336
▁whatsoever	-8337
▁description	-8338
▁medications	-8339
▁biodiversity	-8340
dis	-8341
ette	-8342
▁20-	-8343
▁Edu	-8344
▁gif	-8345
aches	-8346
eller	-8347
gener	-8348
maker	-8349
▁July	-8350
▁Make	-8351
▁golf	-8352
▁prey	-8353
▁sole	-8354
▁span	-8355
▁thus	-8356
atever	-8357
▁Higgs	-8358
▁crush	-8359
▁eaten	-8360
▁ingen	-8361
▁sweat	-8362
ressing	-8363
▁anesth	-8364
▁binary	-8365
▁thread	-8366
▁William	-8367
▁briefly	-8368
▁rolling	-8369
▁stepped	-8370
▁advocate	-8371
▁detailed	-8372
▁feminist	-8373
▁minister	-8374
▁shifting	-8375
▁regularly	-8376
▁proportion	-8377
▁authorities	-8378
▁storytelling	-8379
ctu	-8380
▁tu	-8381
atts	-8382
emen	-8383
▁Mor	-8384
▁Old	-8385
▁Sir	-8386
aniel	-8387
emies	-8388
inent	-8389
itage	-8390
lades	-8391
licit	-8392
▁Answ	-8393
▁Mand	-8394
▁Narr	-8395
▁batt	-8396
▁cake	-8397
▁coin	-8398
▁keys	-8399
▁rope	-8400
thirds	-8401
▁2009,	-8402
▁Hedge	-8403
▁lever	-8404
▁ratio	-8405
▁tends	-8406
▁tribe	-8407
▁wider	-8408
▁wrest	-8409
▁Govern	-8410
▁approx	-8411
▁headed	-8412
▁ritual	-8413
▁scenes	-8414
▁slower	-8415
▁hunting	-8416
▁profits	-8417
▁reaches	-8418
▁refused	-8419
▁wealthy	-8420
▁actively	-8421
▁stopping	-8422
▁Banglades	-8423
▁fortunate	-8424
▁inclusive	-8425
▁paralyzed	-8426
▁reporting	-8427
▁responded	-8428
▁commission	-8429
▁impression	-8430
▁beautifully	-8431
▁constraints	-8432
CA	-8433
hot	-8434
▁36	-8435
▁85	-8436
ardo	-8437
keep	-8438
pers	-8439
▁ash	-8440
▁bug	-8441
irect	-8442
▁Eric	-8443
▁Prof	-8444
▁apps	-8445
▁mask	-8446
▁nets	-8447
▁sail	-8448
aneous	-8449
bridge	-8450
ounded	-8451
▁2010,	-8452
▁2015,	-8453
▁Charl	-8454
▁Voice	-8455
▁irony	-8456
▁panic	-8457
▁parks	-8458
▁linear	-8459
▁relief	-8460
▁speaks	-8461
▁unlock	-8462
izophren	-8463
▁adapted	-8464
▁diamond	-8465
▁follows	-8466
▁neutral	-8467
▁soldier	-8468
▁synthes	-8469
▁geometry	-8470
▁spinning	-8471
▁batteries	-8472
▁estimates	-8473
▁temporary	-8474
▁terrified	-8475
▁Scientists	-8476
▁impressive	-8477
▁journalism	-8478
▁newspapers	-8479
▁achievement	-8480
fin	-8481
leg	-8482
▁je	-8483
udge	-8484
▁'60	-8485
▁Mat	-8486
▁zer	-8487
clock	-8488
icked	-8489
ifies	-8490
▁Jose	-8491
▁Long	-8492
▁dirt	-8493
▁drag	-8494
▁west	-8495
engine	-8496
▁actor	-8497
▁bonds	-8498
▁diver	-8499
▁divor	-8500
▁membr	-8501
▁risky	-8502
▁spont	-8503
▁Rights	-8504
▁Turkey	-8505
▁prosth	-8506
▁strike	-8507
▁unfold	-8508
▁cigaret	-8509
▁constit	-8510
▁enabled	-8511
▁ongoing	-8512
▁wedding	-8513
▁connects	-8514
▁promised	-8515
▁correctly	-8516
▁isolation	-8517
▁ownership	-8518
▁aggressive	-8519
▁dictionary	-8520
▁physicians	-8521
▁approaching	-8522
agh	-8523
aus	-8524
enh	-8525
rot	-8526
yon	-8527
..."	-8528
igma	-8529
rint	-8530
▁Ros	-8531
▁Tim	-8532
▁lob	-8533
▁pit	-8534
▁tab	-8535
ghter	-8536
ifact	-8537
opard	-8538
press	-8539
▁Gand	-8540
▁damn	-8541
▁unle	-8542
iating	-8543
market	-8544
usters	-8545
▁2008,	-8546
▁Brook	-8547
▁Civil	-8548
▁Dutch	-8549
▁alarm	-8550
▁altru	-8551
▁bears	-8552
▁harsh	-8553
▁mayor	-8554
▁redef	-8555
▁shirt	-8556
▁vocal	-8557
▁biases	-8558
▁campus	-8559
▁chains	-8560
▁curric	-8561
▁freely	-8562
▁sticks	-8563
▁tempor	-8564
▁bedroom	-8565
▁charges	-8566
▁compreh	-8567
▁default	-8568
▁handful	-8569
▁landing	-8570
▁accuracy	-8571
▁distances	-8572
▁expressed	-8573
▁mutations	-8574
▁reproduce	-8575
▁sacrifice	-8576
▁sensation	-8577
▁monitoring	-8578
▁terrorists	-8579
▁wavelength	-8580
▁Fortunately	-8581
▁schizophren	-8582
▁specialized	-8583
▁institutional	-8584
eart	-8585
phor	-8586
▁Ser	-8587
stone	-8588
unity	-8589
▁Coun	-8590
▁cens	-8591
▁hors	-8592
▁melt	-8593
▁unst	-8594
aching	-8595
▁Hello	-8596
▁Titan	-8597
▁defic	-8598
▁hated	-8599
▁shots	-8600
▁trace	-8601
▁Soviet	-8602
▁asleep	-8603
▁domain	-8604
▁gained	-8605
▁livest	-8606
▁posted	-8607
▁static	-8608
▁stones	-8609
▁tumors	-8610
▁Alright	-8611
▁appoint	-8612
▁assault	-8613
▁assumed	-8614
▁highway	-8615
▁kingdom	-8616
▁methane	-8617
▁artifact	-8618
▁intimate	-8619
▁publicly	-8620
▁purposes	-8621
▁register	-8622
▁siblings	-8623
▁bacterial	-8624
▁executive	-8625
▁mathematicians	-8626
ao	-8627
ado	-8628
iti	-8629
opy	-8630
▁DH	-8631
They	-8632
fire	-8633
grad	-8634
raph	-8635
▁'90	-8636
▁20,	-8637
▁Cap	-8638
▁Give	-8639
▁bite	-8640
▁clue	-8641
▁flee	-8642
▁labs	-8643
▁pron	-8644
▁subt	-8645
▁Still	-8646
▁agent	-8647
▁drown	-8648
▁Compan	-8649
▁drones	-8650
▁ethnic	-8651
▁inevit	-8652
▁bottles	-8653
▁charged	-8654
▁hopeful	-8655
▁sadness	-8656
▁dolphins	-8657
▁vacation	-8658
▁worrying	-8659
▁equations	-8660
▁magnitude	-8661
▁renewable	-8662
▁screaming	-8663
forestation	-8664
▁regulation	-8665
▁sufficient	-8666
▁emotionally	-8667
▁unbelievable	-8668
hh	-8669
▁28	-8670
▁CD	-8671
aped	-8672
imag	-8673
list	-8674
▁Age	-8675
▁Dou	-8676
▁dil	-8677
▁dys	-8678
oting	-8679
rical	-8680
▁Beij	-8681
▁Lord	-8682
▁crop	-8683
▁dose	-8684
arians	-8685
unting	-8686
▁Court	-8687
▁cared	-8688
▁decor	-8689
uilding	-8690
▁Mother	-8691
▁Newton	-8692
▁Square	-8693
▁aggreg	-8694
▁comedy	-8695
▁immers	-8696
▁orders	-8697
▁subway	-8698
▁trains	-8699
▁absence	-8700
▁corners	-8701
▁enzymes	-8702
▁swallow	-8703
▁teenage	-8704
▁Northern	-8705
▁dinosaur	-8706
▁literacy	-8707
▁supplies	-8708
▁atmospher	-8709
▁desperate	-8710
▁empowered	-8711
▁appearance	-8712
▁psychologist	-8713
▁architectural	-8714
asm	-8715
isy	-8716
law	-8717
lor	-8718
uts	-8719
▁Vi	-8720
ifty	-8721
xual	-8722
▁Rio	-8723
▁Tes	-8724
▁jew	-8725
chron	-8726
umble	-8727
▁Cath	-8728
▁Comp	-8729
▁dawn	-8730
▁epic	-8731
▁hint	-8732
▁intr	-8733
▁suff	-8734
▁Video	-8735
▁cable	-8736
▁cliff	-8737
▁delay	-8738
▁penal	-8739
▁teens	-8740
▁winds	-8741
▁zones	-8742
ativity	-8743
▁Sunday	-8744
▁fallen	-8745
▁marvel	-8746
▁steady	-8747
▁cancers	-8748
▁cluster	-8749
▁inhabit	-8750
▁offices	-8751
▁origins	-8752
▁printer	-8753
▁returns	-8754
▁Carolina	-8755
▁circuits	-8756
▁fabulous	-8757
▁incorpor	-8758
▁leverage	-8759
▁magnific	-8760
▁pointing	-8761
▁transmit	-8762
▁classical	-8763
▁incentive	-8764
▁recycling	-8765
▁strategic	-8766
▁candidates	-8767
▁ecological	-8768
▁infectious	-8769
▁organizing	-8770
▁separation	-8771
▁discussions	-8772
▁encouraging	-8773
▁immigration	-8774
▁intersection	-8775
▁controversial	-8776
▁interestingly	-8777
▁straightforward	-8778
sm	-8779
bra	-8780
col	-8781
rey	-8782
▁SW	-8783
oked	-8784
rect	-8785
walk	-8786
▁hey	-8787
▁obt	-8788
bably	-8789
words	-8790
▁Homo	-8791
▁jack	-8792
▁pigs	-8793
▁wore	-8794
▁wrap	-8795
bsolut	-8796
cation	-8797
▁Trans	-8798
▁Young	-8799
▁comic	-8800
▁entry	-8801
▁kills	-8802
▁sizes	-8803
▁unint	-8804
▁Answer	-8805
▁Argent	-8806
▁correl	-8807
▁luxury	-8808
▁sketch	-8809
quarters	-8810
▁formula	-8811
▁islands	-8812
▁mankind	-8813
▁portion	-8814
▁whistle	-8815
▁Narrator	-8816
▁advances	-8817
▁diagnost	-8818
▁downtown	-8819
▁genocide	-8820
▁interven	-8821
▁optimism	-8822
▁rejected	-8823
▁agreement	-8824
▁anonymous	-8825
▁attitudes	-8826
▁excellent	-8827
▁assistance	-8828
▁expectancy	-8829
▁mainstream	-8830
▁trajectory	-8831
▁distinguish	-8832
▁expressions	-8833
▁Organization	-8834
▁personalized	-8835
CE	-8836
aby	-8837
fly	-8838
jud	-8839
anna	-8840
city	-8841
roid	-8842
▁Try	-8843
▁awe	-8844
▁Half	-8845
▁Sand	-8846
▁drum	-8847
▁fits	-8848
▁mand	-8849
▁nurt	-8850
▁tsun	-8851
▁urge	-8852
▁audio	-8853
▁chess	-8854
▁escap	-8855
▁flesh	-8856
▁lifes	-8857
▁poems	-8858
looking	-8859
perform	-8860
▁Oxford	-8861
▁Twenty	-8862
▁inches	-8863
▁likeli	-8864
▁packed	-8865
▁pencil	-8866
▁recall	-8867
▁refuse	-8868
▁retail	-8869
▁strict	-8870
▁despair	-8871
▁enemies	-8872
▁fathers	-8873
▁grocery	-8874
▁harmony	-8875
▁prisons	-8876
▁washing	-8877
▁athletes	-8878
▁portrait	-8879
▁randomly	-8880
▁substant	-8881
▁touching	-8882
▁affecting	-8883
▁ignorance	-8884
▁Technology	-8885
▁discovering	-8886
▁fortunately	-8887
▁disabilities	-8888
▁communicating	-8889
▁psychologists	-8890
He	-8891
MS	-8892
ki	-8893
bul	-8894
lan	-8895
pox	-8896
▁3,	-8897
pres	-8898
rick	-8899
▁Lin	-8900
▁Mer	-8901
▁Rom	-8902
▁gee	-8903
▁hal	-8904
cking	-8905
clear	-8906
gines	-8907
rance	-8908
▁cuts	-8909
▁soup	-8910
aharan	-8911
▁2011,	-8912
▁Arist	-8913
▁Start	-8914
▁coinc	-8915
▁grace	-8916
▁lifel	-8917
▁messy	-8918
▁minus	-8919
▁paths	-8920
attered	-8921
essions	-8922
imeters	-8923
▁Berlin	-8924
▁amazed	-8925
▁garage	-8926
▁purple	-8927
▁skelet	-8928
▁smells	-8929
▁coastal	-8930
▁dismiss	-8931
▁engines	-8932
▁fortune	-8933
▁gardens	-8934
▁package	-8935
▁princip	-8936
▁staring	-8937
▁travels	-8938
▁dreaming	-8939
▁tendency	-8940
▁acknowled	-8941
▁competing	-8942
▁economist	-8943
▁formation	-8944
▁signature	-8945
▁employment	-8946
▁illustrate	-8947
▁manipulate	-8948
▁spacecraft	-8949
▁investigate	-8950
▁historically	-8951
.'"	-8952
All	-8953
▁Da	-8954
▁Es	-8955
ched	-8956
iful	-8957
▁Mel	-8958
▁PhD	-8959
▁seg	-8960
gence	-8961
izers	-8962
ribed	-8963
▁Hist	-8964
▁Mike	-8965
▁fest	-8966
▁flaw	-8967
▁plug	-8968
▁Eight	-8969
▁bless	-8970
▁depri	-8971
▁oblig	-8972
▁raped	-8973
▁recre	-8974
▁sixth	-8975
itative	-8976
opamine	-8977
▁Others	-8978
▁apolog	-8979
▁unfair	-8980
▁anxious	-8981
▁mapping	-8982
▁pursuit	-8983
▁recruit	-8984
bsolutely	-8985
▁Secondly	-8986
▁colonies	-8987
▁findings	-8988
▁helpless	-8989
▁collapsed	-8990
▁contained	-8991
▁extension	-8992
▁overnight	-8993
▁planetary	-8994
▁replicate	-8995
▁statistic	-8996
▁retirement	-8997
▁yourselves	-8998
▁remembering	-8999
▁understands	-9000
▁occasionally	-9001
▁interconnected	-9002
dy	-9003
ati	-9004
▁2:	-9005
▁PT	-9006
ihad	-9007
mind	-9008
olen	-9009
pass	-9010
pril	-9011
▁Tel	-9012
▁hub	-9013
▁mud	-9014
▁tie	-9015
asive	-9016
athan	-9017
ching	-9018
erals	-9019
lfare	-9020
peare	-9021
rimin	-9022
▁Bron	-9023
▁Nove	-9024
▁deck	-9025
▁tune	-9026
engers	-9027
orious	-9028
▁2000,	-9029
▁April	-9030
▁depos	-9031
▁opera	-9032
Saharan	-9033
fulness	-9034
▁30,000	-9035
▁builds	-9036
▁canvas	-9037
▁contra	-9038
▁cotton	-9039
▁covers	-9040
▁cycles	-9041
▁orphan	-9042
▁passes	-9043
▁temple	-9044
▁Someone	-9045
▁belongs	-9046
▁carries	-9047
▁deepest	-9048
▁footage	-9049
▁laughed	-9050
▁useless	-9051
akespeare	-9052
▁activate	-9053
▁attempts	-9054
▁consumed	-9055
▁evolving	-9056
▁sciences	-9057
▁selected	-9058
▁targeted	-9059
▁delicious	-9060
▁describes	-9061
▁sexuality	-9062
▁succeeded	-9063
▁transcend	-9064
▁engineered	-9065
▁protective	-9066
▁interpretation	-9067
hal	-9068
▁Bi	-9069
alia	-9070
irts	-9071
oved	-9072
▁'80	-9073
▁30-	-9074
▁Cle	-9075
▁LED	-9076
▁Sud	-9077
▁les	-9078
adian	-9079
enses	-9080
inery	-9081
ubble	-9082
ucose	-9083
▁Hill	-9084
▁Hosp	-9085
▁indo	-9086
▁mild	-9087
▁pupp	-9088
▁rect	-9089
▁turt	-9090
abling	-9091
▁Chile	-9092
▁boats	-9093
▁boost	-9094
▁exerc	-9095
▁fatal	-9096
▁knife	-9097
▁norms	-9098
▁outdo	-9099
▁regul	-9100
▁spons	-9101
▁wires	-9102
itating	-9103
▁Saturn	-9104
▁copies	-9105
▁crowds	-9106
▁earned	-9107
▁equals	-9108
▁Beijing	-9109
▁analogy	-9110
▁resolve	-9111
▁Consider	-9112
▁glaciers	-9113
▁morality	-9114
▁musician	-9115
▁nitrogen	-9116
▁skeleton	-9117
▁wildlife	-9118
▁Cambridge	-9119
▁airplanes	-9120
▁Industrial	-9121
▁curriculum	-9122
▁preventing	-9123
▁alternatives	-9124
▁independence	-9125
▁photographed	-9126
▁compassionate	-9127
"?	-9128
rin	-9129
▁55	-9130
▁SS	-9131
▁ST	-9132
abul	-9133
amil	-9134
bled	-9135
esia	-9136
inks	-9137
kins	-9138
omed	-9139
oric	-9140
pack	-9141
rons	-9142
▁Had	-9143
ademy	-9144
ilize	-9145
storm	-9146
▁..."	-9147
▁Bell	-9148
▁Camb	-9149
▁Jenn	-9150
▁Sudd	-9151
▁chef	-9152
▁clay	-9153
▁tuna	-9154
ijuana	-9155
weight	-9156
▁Peace	-9157
▁Sorry	-9158
▁grabb	-9159
▁grave	-9160
▁slave	-9161
▁trips	-9162
conomic	-9163
inarily	-9164
▁Disney	-9165
▁Social	-9166
▁kidney	-9167
▁mentor	-9168
▁orient	-9169
▁preval	-9170
▁shower	-9171
▁stabil	-9172
▁chamber	-9173
▁clarity	-9174
▁colored	-9175
▁enhance	-9176
▁enjoyed	-9177
▁pockets	-9178
▁November	-9179
▁attacked	-9180
▁cartoons	-9181
▁generous	-9182
▁ideology	-9183
▁outbreak	-9184
▁gentleman	-9185
▁intensity	-9186
▁realities	-9187
▁classrooms	-9188
▁continuing	-9189
▁narratives	-9190
▁Shakespeare	-9191
▁connectivity	-9192
▁demonstration	-9193
tw	-9194
ini	-9195
idal	-9196
omic	-9197
otes	-9198
quis	-9199
▁FBI	-9200
▁Gab	-9201
▁Mah	-9202
▁Ult	-9203
▁irr	-9204
eling	-9205
ormal	-9206
▁Camp	-9207
▁Fund	-9208
▁PTSD	-9209
▁cycl	-9210
▁fier	-9211
▁gear	-9212
▁lake	-9213
▁rabb	-9214
▁trap	-9215
▁triv	-9216
inator	-9217
▁2007,	-9218
▁Hawai	-9219
▁Santa	-9220
▁Water	-9221
▁alert	-9222
▁belly	-9223
▁drain	-9224
▁spill	-9225
▁taxes	-9226
faction	-9227
ructive	-9228
▁Norway	-9229
▁allies	-9230
▁barrel	-9231
▁confir	-9232
▁contam	-9233
▁handed	-9234
▁nerves	-9235
▁reader	-9236
▁subsid	-9237
▁banking	-9238
▁careers	-9239
▁flowing	-9240
▁reclaim	-9241
▁teaches	-9242
▁welfare	-9243
▁Minister	-9244
▁Suddenly	-9245
▁Whatever	-9246
▁breeding	-9247
▁cellular	-9248
▁kindness	-9249
▁managing	-9250
▁mutation	-9251
▁reinvent	-9252
▁stressed	-9253
▁terribly	-9254
▁triangle	-9255
▁migration	-9256
▁realistic	-9257
▁reflected	-9258
▁resilient	-9259
▁screening	-9260
▁struggled	-9261
▁Bangladesh	-9262
▁continents	-9263
▁landscapes	-9264
▁astronomers	-9265
▁exponential	-9266
▁frightening	-9267
▁magnificent	-9268
▁mathematician	-9269
▁administration	-9270
Go	-9271
eda	-9272
eem	-9273
ema	-9274
oli	-9275
▁SD	-9276
atar	-9277
five	-9278
gend	-9279
iban	-9280
thur	-9281
▁15-	-9282
▁Dad	-9283
▁Def	-9284
▁Gra	-9285
▁Joe	-9286
▁ads	-9287
▁rum	-9288
▁tob	-9289
anzan	-9290
oples	-9291
▁Hall	-9292
▁Penn	-9293
▁cath	-9294
▁hunt	-9295
▁pole	-9296
▁rats	-9297
▁Const	-9298
▁caves	-9299
▁hoped	-9300
▁impul	-9301
▁shops	-9302
▁Greece	-9303
▁cousin	-9304
▁horror	-9305
▁matrix	-9306
▁nightm	-9307
▁stolen	-9308
▁virgin	-9309
▁Develop	-9310
▁broader	-9311
▁clinics	-9312
▁hackers	-9313
▁locally	-9314
▁priorit	-9315
▁proceed	-9316
▁tobacco	-9317
▁trusted	-9318
▁venture	-9319
▁Brooklyn	-9320
▁compound	-9321
▁explicit	-9322
▁horizont	-9323
▁openness	-9324
▁protocol	-9325
▁struggles	-9326
▁destroying	-9327
▁generating	-9328
▁girlfriend	-9329
▁likelihood	-9330
▁prevention	-9331
▁variations	-9332
▁demographic	-9333
▁restaurants	-9334
▁approximately	-9335
▁revolutionary	-9336
LA	-9337
200	-9338
bye	-9339
neg	-9340
adel	-9341
cost	-9342
orph	-9343
plus	-9344
▁Met	-9345
▁Roy	-9346
▁fet	-9347
▁kit	-9348
▁sel	-9349
Laugh	-9350
atial	-9351
aware	-9352
idesp	-9353
iffer	-9354
odied	-9355
opath	-9356
▁Brun	-9357
▁Hope	-9358
▁Play	-9359
▁dent	-9360
▁pale	-9361
▁sake	-9362
minute	-9363
ounder	-9364
rolled	-9365
▁cream	-9366
▁facil	-9367
▁humil	-9368
▁oppon	-9369
▁penet	-9370
▁sheer	-9371
▁twist	-9372
Singing	-9373
itivity	-9374
▁Except	-9375
▁Tanzan	-9376
▁appeal	-9377
▁atomic	-9378
▁courts	-9379
▁criter	-9380
▁estate	-9381
▁excuse	-9382
▁magnet	-9383
▁mining	-9384
▁riding	-9385
▁topics	-9386
▁waited	-9387
▁Atlanta	-9388
▁Indones	-9389
▁crossed	-9390
▁outrage	-9391
▁request	-9392
▁shifted	-9393
idespread	-9394
▁Egyptian	-9395
▁Somebody	-9396
▁admitted	-9397
▁division	-9398
▁expanded	-9399
▁explored	-9400
▁priority	-9401
▁shocking	-9402
▁sequences	-9403
▁skeptical	-9404
▁altogether	-9405
▁astronauts	-9406
▁discipline	-9407
▁collaborate	-9408
▁legislation	-9409
▁microscopic	-9410
▁politically	-9411
▁recognizing	-9412
▁contribution	-9413
▁demonstrated	-9414
▁accountability	-9415
aa	-9416
cip	-9417
rie	-9418
▁33	-9419
▁42	-9420
▁AM	-9421
▁Id	-9422
alog	-9423
conf	-9424
ocin	-9425
udio	-9426
wind	-9427
▁'70	-9428
▁Cra	-9429
▁Ell	-9430
▁Leg	-9431
▁Moo	-9432
▁mac	-9433
creen	-9434
enter	-9435
oning	-9436
thood	-9437
urday	-9438
▁List	-9439
▁Mond	-9440
▁Shan	-9441
▁blur	-9442
▁forb	-9443
▁gram	-9444
▁orig	-9445
alized	-9446
driven	-9447
erving	-9448
▁2012,	-9449
▁ambig	-9450
▁anten	-9451
▁award	-9452
▁blend	-9453
▁divid	-9454
▁drone	-9455
▁loose	-9456
▁mimic	-9457
▁phant	-9458
▁pulls	-9459
▁tubes	-9460
ultures	-9461
▁Though	-9462
▁cracks	-9463
▁purely	-9464
▁recess	-9465
▁shifts	-9466
▁slaves	-9467
▁Iceland	-9468
▁glucose	-9469
▁injured	-9470
▁nearest	-9471
▁onstage	-9472
▁peoples	-9473
▁pronoun	-9474
▁shining	-9475
▁shorter	-9476
▁Palestin	-9477
▁approved	-9478
▁catching	-9479
▁diameter	-9480
▁historic	-9481
▁interrog	-9482
▁minority	-9483
▁prisoner	-9484
▁redesign	-9485
▁synchron	-9486
▁weakness	-9487
▁websites	-9488
▁criminals	-9489
▁libraries	-9490
▁occurring	-9491
▁promising	-9492
▁accurately	-9493
▁delivering	-9494
▁expedition	-9495
▁manufactur	-9496
▁computation	-9497
▁encountered	-9498
▁partnership	-9499
▁predictable	-9500
▁contributing	-9501
bu	-9502
mal	-9503
obi	-9504
▁Us	-9505
aken	-9506
onia	-9507
oths	-9508
stru	-9509
vity	-9510
▁190	-9511
▁193	-9512
▁jar	-9513
▁ubi	-9514
avors	-9515
ogens	-9516
ourse	-9517
uther	-9518
▁belt	-9519
▁edit	-9520
▁offs	-9521
racies	-9522
ussion	-9523
▁Colle	-9524
▁Milky	-9525
▁align	-9526
▁jewel	-9527
▁jihad	-9528
▁limbs	-9529
▁shine	-9530
▁treas	-9531
▁wrist	-9532
ascular	-9533
▁Anyone	-9534
▁Korean	-9535
▁absurd	-9536
▁archae	-9537
▁argued	-9538
▁depart	-9539
▁equity	-9540
▁guards	-9541
▁selves	-9542
▁spends	-9543
▁worthy	-9544
▁dilemma	-9545
▁insulin	-9546
▁museums	-9547
▁nucleus	-9548
▁origami	-9549
▁rituals	-9550
▁scanner	-9551
▁simpler	-9552
▁weekend	-9553
▁Business	-9554
▁Saturday	-9555
▁contrary	-9556
▁dopamine	-9557
▁endanger	-9558
▁graphics	-9559
▁heritage	-9560
▁pathways	-9561
▁tropical	-9562
▁underest	-9563
▁visiting	-9564
▁Alexander	-9565
▁Professor	-9566
▁Similarly	-9567
▁installed	-9568
▁passenger	-9569
▁reasoning	-9570
▁shoulders	-9571
▁basketball	-9572
▁compromise	-9573
▁inevitably	-9574
▁practicing	-9575
▁widespread	-9576
▁investments	-9577
▁pornography	-9578
▁regulations	-9579
▁deforestation	-9580
40	-9581
BM	-9582
EC	-9583
su	-9584
adv	-9585
oln	-9586
▁37	-9587
bing	-9588
cycl	-9589
hist	-9590
rane	-9591
rong	-9592
▁Jup	-9593
▁Men	-9594
▁Nic	-9595
▁blu	-9596
adium	-9597
itzer	-9598
osity	-9599
▁Deep	-9600
▁Leon	-9601
▁Pret	-9602
▁bats	-9603
▁ende	-9604
▁logo	-9605
▁ster	-9606
▁sulf	-9607
resist	-9608
umbled	-9609
▁amino	-9610
▁artic	-9611
▁blown	-9612
▁drops	-9613
▁fever	-9614
▁loyal	-9615
▁meets	-9616
▁rigid	-9617
▁wired	-9618
eliness	-9619
▁Empire	-9620
▁curves	-9621
▁hypoth	-9622
▁serves	-9623
▁viewed	-9624
▁courses	-9625
▁earning	-9626
▁passive	-9627
▁rethink	-9628
▁trading	-9629
▁Catholic	-9630
▁Olympics	-9631
▁Probably	-9632
▁accompan	-9633
▁activism	-9634
▁assigned	-9635
▁informal	-9636
▁smallpox	-9637
▁consensus	-9638
▁miserable	-9639
▁passwords	-9640
▁accelerate	-9641
▁convenient	-9642
▁backgrounds	-9643
▁perceptions	-9644
▁continuously	-9645
▁computational	-9646
BC	-9647
EM	-9648
you	-9649
zee	-9650
▁AG	-9651
bean	-9652
illa	-9653
mate	-9654
rine	-9655
zero	-9656
▁192	-9657
▁Ath	-9658
▁Dra	-9659
▁Ext	-9660
▁Fed	-9661
▁Sal	-9662
▁yog	-9663
tocin	-9664
▁Mass	-9665
▁News	-9666
▁Open	-9667
▁bang	-9668
▁cues	-9669
▁lion	-9670
▁scal	-9671
▁shit	-9672
ements	-9673
ifting	-9674
ournal	-9675
▁Apoll	-9676
▁bills	-9677
▁incom	-9678
▁myths	-9679
▁revel	-9680
▁sauce	-9681
▁stair	-9682
ometown	-9683
▁Recent	-9684
▁System	-9685
▁Yorker	-9686
▁config	-9687
▁diving	-9688
▁empath	-9689
▁virtue	-9690
▁Islands	-9691
▁Johnson	-9692
▁Seattle	-9693
▁commons	-9694
▁doubled	-9695
▁heavily	-9696
▁tsunami	-9697
▁employee	-9698
▁misunder	-9699
▁prospect	-9700
▁surgeons	-9701
▁copyright	-9702
▁displaced	-9703
▁machinery	-9704
▁phenomena	-9705
▁legitimate	-9706
▁professors	-9707
▁remarkably	-9708
▁repeatedly	-9709
▁subjective	-9710
▁contributed	-9711
▁prescription	-9712
▁presidential	-9713
vy	-9714
yg	-9715
afe	-9716
hib	-9717
▁AT	-9718
▁DC	-9719
itar	-9720
phia	-9721
▁Ire	-9722
▁Too	-9723
▁Tre	-9724
▁USA	-9725
▁bin	-9726
▁bip	-9727
▁tur	-9728
raham	-9729
▁Food	-9730
▁Luck	-9731
▁Tony	-9732
▁palm	-9733
▁phos	-9734
▁wage	-9735
awater	-9736
minded	-9737
vasive	-9738
▁Bronx	-9739
▁gorge	-9740
▁gotta	-9741
▁grasp	-9742
▁loans	-9743
▁pulse	-9744
▁vivid	-9745
▁voted	-9746
▁Having	-9747
▁Native	-9748
▁Unlike	-9749
▁acoust	-9750
▁beaten	-9751
▁cattle	-9752
▁marked	-9753
▁throat	-9754
▁truths	-9755
▁valley	-9756
▁wheels	-9757
adelphia	-9758
▁Council	-9759
▁Georgia	-9760
▁Jupiter	-9761
▁Stephen	-9762
▁arguing	-9763
▁planned	-9764
▁retreat	-9765
▁uncover	-9766
▁Hospital	-9767
▁announce	-9768
▁criteria	-9769
▁headline	-9770
▁keyboard	-9771
▁protests	-9772
▁shipping	-9773
▁superher	-9774
▁abundance	-9775
▁biologist	-9776
▁blindness	-9777
▁dictators	-9778
▁dominated	-9779
▁universes	-9780
▁Absolutely	-9781
▁celebrated	-9782
▁inherently	-9783
▁initiative	-9784
▁documentary	-9785
▁Philadelphia	-9786
▁perspectives	-9787
▁representative	-9788
po	-9789
▁&	-9790
aph	-9791
arn	-9792
▁Bh	-9793
▁Ra	-9794
ocal	-9795
ocks	-9796
rade	-9797
roup	-9798
unic	-9799
▁Kat	-9800
▁Moz	-9801
▁RNA	-9802
▁fir	-9803
▁lap	-9804
▁nic	-9805
▁vel	-9806
▁voy	-9807
aired	-9808
phony	-9809
usive	-9810
▁Hind	-9811
▁NGOs	-9812
▁Nick	-9813
▁Peru	-9814
▁cows	-9815
▁duty	-9816
▁mixt	-9817
▁nuts	-9818
▁pige	-9819
▁sexy	-9820
astics	-9821
usions	-9822
▁Media	-9823
▁Venus	-9824
▁Watch	-9825
▁awake	-9826
▁cabin	-9827
▁dimin	-9828
▁feeds	-9829
▁octop	-9830
▁proph	-9831
▁radar	-9832
▁rebel	-9833
▁shelf	-9834
powered	-9835
▁addict	-9836
▁behalf	-9837
▁elabor	-9838
▁grades	-9839
▁manual	-9840
▁strain	-9841
▁Aristot	-9842
▁applies	-9843
▁cooling	-9844
▁destiny	-9845
▁heading	-9846
▁implant	-9847
▁neglect	-9848
▁smiling	-9849
▁terrain	-9850
▁texture	-9851
▁fairness	-9852
▁humility	-9853
▁indicate	-9854
▁interior	-9855
▁numerous	-9856
▁achieving	-9857
▁associate	-9858
▁hierarchy	-9859
▁immigrant	-9860
▁integrate	-9861
▁returning	-9862
▁therapies	-9863
otechnology	-9864
▁accountable	-9865
▁consciously	-9866
▁efficiently	-9867
▁realization	-9868
▁transgender	-9869
▁transforming	-9870
nut	-9871
Here	-9872
ousy	-9873
plic	-9874
▁Ann	-9875
▁Has	-9876
▁Mos	-9877
▁NSA	-9878
▁Rad	-9879
▁Sah	-9880
▁Say	-9881
▁Van	-9882
▁alb	-9883
▁jet	-9884
impse	-9885
iolet	-9886
oured	-9887
▁Plan	-9888
▁Vict	-9889
▁Zeal	-9890
▁ange	-9891
▁bust	-9892
▁fans	-9893
▁jeal	-9894
▁prol	-9895
▁surg	-9896
romagn	-9897
▁Moore	-9898
▁entit	-9899
▁pills	-9900
▁rings	-9901
▁Arthur	-9902
▁Cambod	-9903
▁Daniel	-9904
▁Ladies	-9905
▁Pretty	-9906
▁dishes	-9907
▁enrich	-9908
▁export	-9909
▁immort	-9910
▁prejud	-9911
▁raises	-9912
▁retina	-9913
ffective	-9914
▁College	-9915
▁authors	-9916
▁glimpse	-9917
▁penalty	-9918
▁phantom	-9919
▁unhappy	-9920
▁backyard	-9921
▁contempl	-9922
▁defining	-9923
▁dropping	-9924
▁referred	-9925
▁simplest	-9926
▁switched	-9927
▁imagining	-9928
▁intensive	-9929
▁jellyfish	-9930
▁livestock	-9931
▁respected	-9932
▁secondary	-9933
▁stressful	-9934
▁visualize	-9935
▁elementary	-9936
▁endangered	-9937
▁privileged	-9938
▁foundations	-9939
▁practically	-9940
▁calculations	-9941
▁introduction	-9942
▁investigation	-9943
ava	-9944
bar	-9945
ika	-9946
▁MB	-9947
ador	-9948
ghai	-9949
gram	-9950
isan	-9951
izza	-9952
▁350	-9953
▁Ray	-9954
▁Sum	-9955
▁coc	-9956
▁sir	-9957
burgh	-9958
gency	-9959
inger	-9960
▁Fore	-9961
▁Jord	-9962
▁Soon	-9963
▁bugs	-9964
▁torn	-9965
▁wond	-9966
Please	-9967
advant	-9968
omfort	-9969
ricane	-9970
taking	-9971
▁Yemen	-9972
▁acute	-9973
▁bench	-9974
▁bucks	-9975
▁fails	-9976
▁flags	-9977
▁knees	-9978
▁marks	-9979
▁meals	-9980
▁uniqu	-9981
ilation	-9982
▁Albert	-9983
▁Around	-9984
▁Public	-9985
▁accent	-9986
▁counts	-9987
▁denial	-9988
▁prepar	-9989
▁stigma	-9990
▁sugars	-9991
▁urgent	-9992
▁waking	-9993
▁wasted	-9994
▁Taliban	-9995
▁Zealand	-9996
▁cousins	-9997
▁farther	-9998
▁greatly	-9999
▁pathway	-10000
▁settled	-10001
▁strings	-10002
▁ubiquit	-10003
▁wrapped	-10004
conscious	-10005
▁alphabet	-10006
▁checking	-10007
▁declared	-10008
▁hometown	-10009
▁mentally	-10010
▁proposal	-10011
▁aesthetic	-10012
▁disadvant	-10013
▁receptors	-10014
▁resistant	-10015
▁worldview	-10016
▁determines	-10017
▁discomfort	-10018
▁electrodes	-10019
▁helicopter	-10020
▁publishing	-10021
▁sanitation	-10022
▁distinction	-10023
▁overwhelmed	-10024
▁technically	-10025
▁improvements	-10026
▁philosophers	-10027
▁representing	-10028
▁reproductive	-10029
jo	-10030
awn	-10031
een	-10032
▁TK	-10033
iven	-10034
mony	-10035
teen	-10036
ylum	-10037
▁Add	-10038
▁Tun	-10039
▁Wor	-10040
Audio	-10041
Thank	-10042
acent	-10043
arded	-10044
arrhe	-10045
atoes	-10046
month	-10047
ouses	-10048
plete	-10049
▁Army	-10050
▁Ford	-10051
▁Kenn	-10052
▁Same	-10053
▁airl	-10054
▁blew	-10055
▁buzz	-10056
▁mama	-10057
▁mant	-10058
▁masc	-10059
▁solo	-10060
▁ward	-10061
health	-10062
ilized	-10063
screen	-10064
▁blast	-10065
▁buses	-10066
▁careg	-10067
▁cares	-10068
▁deter	-10069
▁lanes	-10070
▁mines	-10071
▁reass	-10072
▁spite	-10073
▁texts	-10074
▁twins	-10075
violent	-10076
▁Apollo	-10077
▁County	-10078
▁Howard	-10079
▁Portug	-10080
▁carpet	-10081
▁enzyme	-10082
▁foster	-10083
▁horses	-10084
▁shrink	-10085
▁troops	-10086
▁200,000	-10087
▁Academy	-10088
▁decides	-10089
▁elegant	-10090
▁exploit	-10091
▁jumping	-10092
▁ordered	-10093
▁puzzles	-10094
▁utterly	-10095
▁famously	-10096
▁forecast	-10097
▁hopeless	-10098
▁sexually	-10099
▁singular	-10100
▁supernov	-10101
▁Indonesia	-10102
▁attracted	-10103
▁confusion	-10104
▁parenting	-10105
▁chimpanzee	-10106
▁ubiquitous	-10107
▁considering	-10108
▁electromagn	-10109
▁concentrated	-10110
▁embarrassing	-10111
▁civilizations	-10112
▁interventions	-10113
,'	-10114
],	-10115
].	-10116
eps	-10117
orr	-10118
▁IQ	-10119
▁cul	-10120
▁ego	-10121
▁shy	-10122
▁wre	-10123
piece	-10124
▁1900	-10125
▁bail	-10126
▁chew	-10127
▁dece	-10128
▁subm	-10129
enance	-10130
esters	-10131
▁Later	-10132
▁Sarah	-10133
▁arbit	-10134
▁fence	-10135
▁float	-10136
▁illum	-10137
▁rever	-10138
roverts	-10139
umbling	-10140
▁Jersey	-10141
▁Michel	-10142
▁Nether	-10143
▁hatred	-10144
▁insist	-10145
▁kicked	-10146
▁voters	-10147
function	-10148
▁Indians	-10149
▁Ireland	-10150
▁congest	-10151
▁sectors	-10152
▁stagger	-10153
▁victory	-10154
▁whisper	-10155
▁Nigerian	-10156
▁Virginia	-10157
▁autonomy	-10158
▁friction	-10159
▁oxytocin	-10160
▁reflects	-10161
▁seawater	-10162
▁asteroids	-10163
▁augmented	-10164
▁collision	-10165
▁converted	-10166
▁marijuana	-10167
▁offspring	-10168
▁tolerance	-10169
▁acceptance	-10170
▁documented	-10171
▁interviews	-10172
▁photosynth	-10173
▁Netherlands	-10174
▁composition	-10175
▁democracies	-10176
▁destination	-10177
▁embarrassed	-10178
▁marketplace	-10179
▁chemotherapy	-10180
▁transformative	-10181
As	-10182
va	-10183
azi	-10184
ham	-10185
uan	-10186
▁SB	-10187
bles	-10188
umph	-10189
▁203	-10190
▁Mur	-10191
▁Sky	-10192
elson	-10193
ocamp	-10194
▁Gore	-10195
▁Lake	-10196
▁Scot	-10197
▁cope	-10198
▁lamp	-10199
▁rays	-10200
▁ware	-10201
▁wins	-10202
▁advis	-10203
▁asset	-10204
▁clues	-10205
▁couch	-10206
▁deals	-10207
▁dough	-10208
▁dread	-10209
▁drunk	-10210
▁maker	-10211
▁resur	-10212
▁worms	-10213
holders	-10214
unclear	-10215
▁abroad	-10216
▁brands	-10217
▁canopy	-10218
▁confer	-10219
▁evapor	-10220
▁humble	-10221
▁insane	-10222
▁stairs	-10223
▁tribal	-10224
etheless	-10225
ogenesis	-10226
▁Kingdom	-10227
▁Whereas	-10228
▁creator	-10229
▁crystal	-10230
▁filling	-10231
▁happily	-10232
▁intimid	-10233
▁leather	-10234
▁monster	-10235
▁optical	-10236
▁skilled	-10237
▁whoever	-10238
▁Shanghai	-10239
▁ambition	-10240
▁annivers	-10241
▁gorgeous	-10242
▁nowadays	-10243
▁predator	-10244
▁recycled	-10245
▁resident	-10246
▁spelling	-10247
▁amazingly	-10248
▁scenarios	-10249
▁therapist	-10250
▁addressing	-10251
▁convincing	-10252
▁discussing	-10253
▁enterprise	-10254
▁microphone	-10255
▁theoretical	-10256
▁satisfaction	-10257
▁philosophical	-10258
▁characteristic	-10259
.5	-10260
dig	-10261
ila	-10262
sen	-10263
▁29	-10264
▁31	-10265
▁DV	-10266
▁MT	-10267
▁dy	-10268
▁gy	-10269
▁ov	-10270
mill	-10271
oven	-10272
rity	-10273
ropy	-10274
rust	-10275
thal	-10276
zone	-10277
▁Ver	-10278
gradu	-10279
inton	-10280
omics	-10281
▁Carl	-10282
▁Dere	-10283
▁Post	-10284
▁Rock	-10285
▁Saud	-10286
▁adul	-10287
▁aunt	-10288
▁bowl	-10289
▁chop	-10290
▁holy	-10291
▁indu	-10292
▁junk	-10293
▁mini	-10294
▁sale	-10295
Laughs	-10296
rators	-10297
▁Coast	-10298
▁Lagos	-10299
▁Music	-10300
▁brush	-10301
▁clubs	-10302
▁inhib	-10303
▁param	-10304
▁steam	-10305
uscript	-10306
▁bureau	-10307
▁divers	-10308
▁losses	-10309
▁masses	-10310
▁sheets	-10311
▁cocaine	-10312
▁desires	-10313
▁gesture	-10314
▁abundant	-10315
▁applause	-10316
▁blocking	-10317
▁detected	-10318
▁multiply	-10319
▁noticing	-10320
▁orbiting	-10321
▁supports	-10322
▁champions	-10323
▁cooperate	-10324
▁hippocamp	-10325
▁acceptable	-10326
▁chromosome	-10327
▁hemisphere	-10328
▁accomplished	-10329
▁individually	-10330
▁schizophrenia	-10331
dam	-10332
isa	-10333
net	-10334
▁IM	-10335
▁IS	-10336
▁Ir	-10337
Come	-10338
aire	-10339
burg	-10340
fare	-10341
oton	-10342
rats	-10343
rier	-10344
▁Kar	-10345
▁Sup	-10346
▁Sus	-10347
▁ere	-10348
▁lau	-10349
▁ski	-10350
anium	-10351
athon	-10352
inity	-10353
ogram	-10354
shore	-10355
▁Bern	-10356
▁Hans	-10357
▁Math	-10358
▁Show	-10359
▁alar	-10360
▁dare	-10361
▁demo	-10362
▁inch	-10363
▁narc	-10364
▁thor	-10365
▁toll	-10366
incoln	-10367
second	-10368
▁6,000	-10369
▁McDon	-10370
▁ghost	-10371
▁index	-10372
▁infra	-10373
▁lingu	-10374
▁pants	-10375
▁pizza	-10376
▁slice	-10377
▁slums	-10378
▁stamp	-10379
issance	-10380
▁60,000	-10381
▁Steven	-10382
▁asylum	-10383
▁frames	-10384
▁mapped	-10385
▁mature	-10386
▁racist	-10387
▁sooner	-10388
▁summar	-10389
breaking	-10390
▁artwork	-10391
▁episode	-10392
▁genomes	-10393
▁longest	-10394
▁mirrors	-10395
▁planted	-10396
▁shaking	-10397
▁trivial	-10398
▁Tanzania	-10399
▁composed	-10400
▁deserves	-10401
▁mattered	-10402
▁minimize	-10403
▁youngest	-10404
▁Parkinson	-10405
▁automated	-10406
▁belonging	-10407
▁disasters	-10408
▁geography	-10409
▁principal	-10410
▁similarly	-10411
▁calculated	-10412
▁confronted	-10413
▁prosthetic	-10414
▁supportive	-10415
▁questioning	-10416
▁supermarket	-10417
▁collaborators	-10418
▁extraordinarily	-10419
BT	-10420
Spe	-10421
asi	-10422
psy	-10423
vir	-10424
▁4,	-10425
▁48	-10426
▁Gi	-10427
aven	-10428
offs	-10429
sens	-10430
unes	-10431
unks	-10432
weed	-10433
▁Nav	-10434
▁Ram	-10435
▁cav	-10436
▁lam	-10437
▁sho	-10438
▁tin	-10439
eting	-10440
icism	-10441
venth	-10442
▁Josh	-10443
▁Lear	-10444
▁beam	-10445
▁cube	-10446
▁glow	-10447
▁ties	-10448
angles	-10449
ergart	-10450
itated	-10451
normal	-10452
▁2005,	-10453
▁2014,	-10454
▁Creat	-10455
▁Swiss	-10456
▁amate	-10457
▁chase	-10458
▁codes	-10459
▁moder	-10460
▁probe	-10461
▁royal	-10462
▁wages	-10463
▁Nelson	-10464
▁calend	-10465
▁cataly	-10466
▁insert	-10467
▁intact	-10468
▁motors	-10469
▁parach	-10470
▁potent	-10471
▁preced	-10472
▁restor	-10473
▁server	-10474
▁speeds	-10475
raviolet	-10476
▁History	-10477
▁dolphin	-10478
▁fluores	-10479
▁halfway	-10480
▁intrins	-10481
▁maximum	-10482
▁passage	-10483
▁transit	-10484
▁triumph	-10485
▁commonly	-10486
▁plankton	-10487
▁pressing	-10488
▁thrilled	-10489
ifications	-10490
ustainable	-10491
▁Aristotle	-10492
▁observing	-10493
▁releasing	-10494
▁antibiotic	-10495
▁disconnect	-10496
▁ingredient	-10497
▁manuscript	-10498
▁anniversary	-10499
▁functioning	-10500
▁combinations	-10501
▁installation	-10502
Ex	-10503
▁KB	-10504
acks	-10505
ieve	-10506
oids	-10507
▁Ari	-10508
▁FDA	-10509
▁Nin	-10510
▁jam	-10511
aning	-10512
ansas	-10513
▁Jews	-10514
▁Keep	-10515
▁Snow	-10516
▁Soci	-10517
▁glue	-10518
▁shed	-10519
▁slip	-10520
▁symp	-10521
bercul	-10522
boards	-10523
ieties	-10524
inable	-10525
inding	-10526
▁Force	-10527
▁Leban	-10528
▁Queen	-10529
▁Stand	-10530
▁attor	-10531
▁donor	-10532
▁gains	-10533
▁nanop	-10534
▁newly	-10535
▁strip	-10536
abulary	-10537
▁Joseph	-10538
▁aliens	-10539
▁checks	-10540
▁cosmos	-10541
▁dragon	-10542
▁format	-10543
▁iconic	-10544
▁insult	-10545
▁judges	-10546
▁storms	-10547
▁underm	-10548
▁wishes	-10549
ifferent	-10550
▁Anybody	-10551
▁Lincoln	-10552
▁diarrhe	-10553
▁digging	-10554
▁kidding	-10555
▁melting	-10556
▁portray	-10557
▁romance	-10558
▁accommod	-10559
▁circular	-10560
▁cleaning	-10561
▁deciding	-10562
▁enabling	-10563
▁entrance	-10564
▁injuries	-10565
berculosis	-10566
▁Otherwise	-10567
▁Therefore	-10568
▁convicted	-10569
▁embracing	-10570
▁firsthand	-10571
▁inflation	-10572
▁involving	-10573
▁textbooks	-10574
▁Republican	-10575
▁empowering	-10576
▁procedures	-10577
▁hippocampus	-10578
▁instruction	-10579
OL	-10580
yd	-10581
▁#	-10582
api	-10583
bag	-10584
def	-10585
iva	-10586
olt	-10587
sex	-10588
▁1.5	-10589
▁Dom	-10590
▁cyl	-10591
grand	-10592
ighth	-10593
▁Emma	-10594
▁LGBT	-10595
▁athe	-10596
▁biof	-10597
▁fees	-10598
▁hybr	-10599
▁kidn	-10600
▁odor	-10601
▁pays	-10602
▁shoe	-10603
cyclop	-10604
ervice	-10605
shaped	-10606
▁Bruno	-10607
▁Kevin	-10608
▁Saudi	-10609
▁alpha	-10610
▁comet	-10611
▁lists	-10612
▁lobby	-10613
▁nodes	-10614
▁spher	-10615
▁trait	-10616
▁wheat	-10617
▁withd	-10618
natural	-10619
theless	-10620
▁brutal	-10621
▁comics	-10622
▁cowork	-10623
▁jungle	-10624
▁marrow	-10625
▁plates	-10626
▁sought	-10627
▁timing	-10628
▁tricky	-10629
omething	-10630
▁Climate	-10631
▁Mandela	-10632
▁Medical	-10633
▁blowing	-10634
▁entropy	-10635
▁fantasy	-10636
▁funeral	-10637
▁labeled	-10638
▁octopus	-10639
▁shortly	-10640
▁Canadian	-10641
▁adoption	-10642
▁assembly	-10643
▁champion	-10644
▁consists	-10645
▁deployed	-10646
▁innovate	-10647
▁variable	-10648
▁Education	-10649
▁campaigns	-10650
▁generates	-10651
▁mysteries	-10652
▁recovered	-10653
▁resulting	-10654
▁adolescent	-10655
▁critically	-10656
▁loneliness	-10657
▁responding	-10658
▁vocabulary	-10659
▁frustrating	-10660
▁tuberculosis	-10661
▁authoritarian	-10662
▁systematically	-10663
Did	-10664
For	-10665
ods	-10666
run	-10667
urp	-10668
▁RB	-10669
▁TB	-10670
▁UC	-10671
aste	-10672
beat	-10673
cked	-10674
eres	-10675
igan	-10676
oves	-10677
▁Ang	-10678
▁Jud	-10679
▁Nan	-10680
▁mit	-10681
Every	-10682
rison	-10683
ugged	-10684
▁1930	-10685
▁Cape	-10686
▁Know	-10687
▁Lead	-10688
▁Mill	-10689
▁coat	-10690
▁outl	-10691
▁slic	-10692
▁tale	-10693
▁verb	-10694
acious	-10695
ancers	-10696
culiar	-10697
handed	-10698
▁2013,	-10699
▁Carib	-10700
▁Delhi	-10701
▁Light	-10702
▁brick	-10703
▁juven	-10704
▁loads	-10705
▁moist	-10706
▁stare	-10707
▁votes	-10708
atories	-10709
▁Andrew	-10710
▁Humans	-10711
▁Singap	-10712
▁casual	-10713
▁contag	-10714
▁mutual	-10715
▁winner	-10716
▁wooden	-10717
▁climbed	-10718
▁exagger	-10719
▁reveals	-10720
▁stadium	-10721
▁strikes	-10722
▁winners	-10723
▁enjoying	-10724
▁impacted	-10725
▁infrared	-10726
▁membrane	-10727
▁nanopart	-10728
▁obstacle	-10729
▁password	-10730
▁peculiar	-10731
▁scanning	-10732
▁surgical	-10733
▁talented	-10734
▁elaborate	-10735
▁inclusion	-10736
▁orchestra	-10737
▁paralysis	-10738
▁producers	-10739
▁anticipate	-10740
▁friendship	-10741
▁harassment	-10742
▁intentions	-10743
▁kindergart	-10744
▁parliament	-10745
▁passengers	-10746
▁programmed	-10747
▁suggestion	-10748
▁implemented	-10749
▁researching	-10750
▁disappointed	-10751
mn	-10752
deg	-10753
mia	-10754
sor	-10755
▁Gr	-10756
▁LE	-10757
▁MR	-10758
Beat	-10759
ella	-10760
inda	-10761
medi	-10762
oran	-10763
yles	-10764
▁130	-10765
▁Aut	-10766
▁DVD	-10767
▁fer	-10768
▁quo	-10769
atric	-10770
eries	-10771
opian	-10772
proof	-10773
rator	-10774
▁Balt	-10775
▁Coll	-10776
▁Less	-10777
▁Rand	-10778
▁crap	-10779
▁seal	-10780
▁seiz	-10781
earing	-10782
eprint	-10783
iances	-10784
orship	-10785
umines	-10786
▁1,500	-10787
▁Brian	-10788
▁Derek	-10789
▁Seven	-10790
▁candy	-10791
▁crick	-10792
▁freed	-10793
▁grant	-10794
▁morph	-10795
▁nasty	-10796
▁occas	-10797
▁consol	-10798
▁empire	-10799
▁exceed	-10800
▁exotic	-10801
▁mammal	-10802
▁noises	-10803
▁pestic	-10804
▁shield	-10805
▁tables	-10806
▁turbul	-10807
▁viewer	-10808
▁volunt	-10809
▁Clinton	-10810
▁Journal	-10811
▁Kennedy	-10812
▁Luckily	-10813
▁Switzer	-10814
▁emerges	-10815
▁examine	-10816
▁fitness	-10817
▁lottery	-10818
▁powered	-10819
▁rewards	-10820
▁subsequ	-10821
▁talents	-10822
▁western	-10823
fortunate	-10824
▁Interest	-10825
▁avoiding	-10826
▁colorful	-10827
▁detector	-10828
▁intimacy	-10829
▁modeling	-10830
▁stepping	-10831
▁Caribbean	-10832
▁Singapore	-10833
▁analyzing	-10834
▁fisheries	-10835
▁inherited	-10836
▁disturbing	-10837
▁irrational	-10838
▁propaganda	-10839
▁Switzerland	-10840
▁chromosomes	-10841
▁destructive	-10842
▁fingerprint	-10843
▁integration	-10844
▁trafficking	-10845
▁ultraviolet	-10846
▁accelerating	-10847
▁accidentally	-10848
▁catastrophic	-10849
▁economically	-10850
▁participating	-10851
?'	-10852
MA	-10853
da	-10854
gm	-10855
tt	-10856
God	-10857
Man	-10858
erk	-10859
isc	-10860
▁AK	-10861
▁CP	-10862
▁MS	-10863
seen	-10864
▁Ele	-10865
▁los	-10866
▁pee	-10867
acher	-10868
atson	-10869
ggers	-10870
▁Book	-10871
▁Hong	-10872
▁Turk	-10873
▁Wind	-10874
▁dung	-10875
▁hood	-10876
▁lawn	-10877
▁summ	-10878
▁unac	-10879
illing	-10880
▁Color	-10881
▁Teles	-10882
▁boots	-10883
▁brows	-10884
▁drama	-10885
▁gifts	-10886
▁guilt	-10887
▁loses	-10888
▁rises	-10889
▁spare	-10890
▁taboo	-10891
▁towns	-10892
▁vapor	-10893
ocation	-10894
▁Luther	-10895
▁cheers	-10896
▁divine	-10897
▁fruits	-10898
▁intric	-10899
▁legend	-10900
▁reflex	-10901
▁vagina	-10902
interest	-10903
▁Olympic	-10904
▁Supreme	-10905
▁columns	-10906
▁editors	-10907
▁exhibit	-10908
▁generic	-10909
▁hostile	-10910
▁justify	-10911
▁matched	-10912
▁matches	-10913
▁menstru	-10914
▁patents	-10915
▁shadows	-10916
▁sounded	-10917
▁visions	-10918
▁altitude	-10919
▁boundary	-10920
▁coverage	-10921
▁overlook	-10922
▁parasite	-10923
▁patience	-10924
▁pleasant	-10925
▁promises	-10926
▁regulate	-10927
▁relation	-10928
▁tangible	-10929
▁visually	-10930
▁Argentina	-10931
▁apologize	-10932
▁blueprint	-10933
▁certainty	-10934
▁comparing	-10935
▁discussed	-10936
▁massively	-10937
▁pathogens	-10938
▁promoting	-10939
▁replacing	-10940
▁surgeries	-10941
▁assignment	-10942
▁automobile	-10943
▁politician	-10944
▁priorities	-10945
▁unintended	-10946
▁Development	-10947
▁identifying	-10948
▁preparation	-10949
▁problematic	-10950
▁transmitted	-10951
▁reproduction	-10952
▁significance	-10953
▁contributions	-10954
RA	-10955
dle	-10956
org	-10957
uri	-10958
▁ES	-10959
▁PC	-10960
▁ow	-10961
etti	-10962
flix	-10963
inch	-10964
ptic	-10965
rium	-10966
size	-10967
ucks	-10968
utan	-10969
▁10.	-10970
▁11,	-10971
▁Dig	-10972
▁Luc	-10973
▁Off	-10974
▁Pot	-10975
▁mum	-10976
▁nin	-10977
▁sup	-10978
imore	-10979
ipher	-10980
ittee	-10981
keley	-10982
raine	-10983
speed	-10984
utors	-10985
viron	-10986
▁Eliz	-10987
▁Home	-10988
▁Kong	-10989
▁brow	-10990
▁budd	-10991
▁cage	-10992
▁deaf	-10993
▁ease	-10994
▁obsc	-10995
▁proc	-10996
▁rage	-10997
▁worn	-10998
uction	-10999
▁Elect	-11000
▁alike	-11001
▁cheat	-11002
▁jokes	-11003
▁veloc	-11004
▁Jordan	-11005
▁Monday	-11006
▁bitter	-11007
▁enters	-11008
▁ethics	-11009
▁famine	-11010
▁flavor	-11011
▁floors	-11012
▁legisl	-11013
▁lifted	-11014
▁namely	-11015
▁rolled	-11016
▁spiral	-11017
▁unimag	-11018
▁warmer	-11019
lessness	-11020
▁Netflix	-11021
▁Philipp	-11022
▁buttons	-11023
▁council	-11024
▁disagre	-11025
▁ecology	-11026
▁forgive	-11027
▁futures	-11028
▁inmates	-11029
▁joining	-11030
▁reactor	-11031
▁reinfor	-11032
▁reserve	-11033
▁squares	-11034
▁superst	-11035
▁Berkeley	-11036
▁McDonald	-11037
▁acquired	-11038
▁clusters	-11039
▁embraced	-11040
▁freezing	-11041
▁modified	-11042
▁overhead	-11043
▁plastics	-11044
▁prostate	-11045
▁thriving	-11046
▁activated	-11047
▁astronomy	-11048
▁confirmed	-11049
▁glamorous	-11050
▁lightning	-11051
▁millennia	-11052
▁practiced	-11053
▁pressures	-11054
▁traumatic	-11055
▁Christians	-11056
▁disruption	-11057
▁perfection	-11058
▁relativity	-11059
▁staggering	-11060
▁concentrate	-11061
▁empowerment	-11062
▁frustration	-11063
▁unfortunate	-11064
▁unemployment	-11065
aky	-11066
▁DM	-11067
▁GG	-11068
▁JH	-11069
aeda	-11070
agan	-11071
inci	-11072
▁Ast	-11073
▁Mid	-11074
▁Pre	-11075
▁Reg	-11076
amous	-11077
berry	-11078
icill	-11079
oking	-11080
owder	-11081
uctor	-11082
ymmet	-11083
▁Brad	-11084
▁Cost	-11085
▁Such	-11086
▁Walk	-11087
▁carp	-11088
▁fled	-11089
▁gaze	-11090
▁perm	-11091
etical	-11092
phorus	-11093
stairs	-11094
▁Sudan	-11095
▁adequ	-11096
▁arrow	-11097
▁discl	-11098
▁hatch	-11099
▁posed	-11100
▁scaff	-11101
enhagen	-11102
healthy	-11103
▁15,000	-11104
▁Gandhi	-11105
▁Greeks	-11106
▁Secret	-11107
▁Victor	-11108
▁denied	-11109
▁eighth	-11110
▁exclud	-11111
▁fierce	-11112
▁fluctu	-11113
▁grains	-11114
▁lethal	-11115
▁marker	-11116
▁modest	-11117
▁pixels	-11118
▁rotate	-11119
▁statue	-11120
▁Israeli	-11121
▁Library	-11122
▁affairs	-11123
▁beloved	-11124
▁contest	-11125
▁counted	-11126
▁folding	-11127
▁mixture	-11128
▁recycle	-11129
▁torture	-11130
▁distress	-11131
▁entities	-11132
▁inventor	-11133
▁lifelong	-11134
▁persuade	-11135
▁releases	-11136
▁reminder	-11137
▁reserves	-11138
▁societal	-11139
▁survivor	-11140
▁answering	-11141
▁imperfect	-11142
▁processed	-11143
▁suspended	-11144
▁sequencing	-11145
▁cooperative	-11146
▁existential	-11147
▁orientation	-11148
▁proposition	-11149
▁sensitivity	-11150
▁illustration	-11151
▁philanthropy	-11152
▁incarceration	-11153
▁visualization	-11154
▁72	-11155
▁Mi	-11156
▁du	-11157
aska	-11158
ique	-11159
onal	-11160
oned	-11161
owed	-11162
take	-11163
▁12-	-11164
▁15,	-11165
▁Dub	-11166
▁Mem	-11167
▁Sol	-11168
▁hob	-11169
▁pel	-11170
▁rap	-11171
▁tex	-11172
▁zoo	-11173
abeth	-11174
ached	-11175
asant	-11176
heads	-11177
ierra	-11178
ilton	-11179
ophob	-11180
▁Gard	-11181
▁Gene	-11182
▁Phot	-11183
▁bulb	-11184
▁caut	-11185
▁conj	-11186
▁hips	-11187
▁obso	-11188
▁radi	-11189
▁reun	-11190
▁vice	-11191
airobi	-11192
asting	-11193
emical	-11194
izable	-11195
orient	-11196
redict	-11197
ulsion	-11198
▁incon	-11199
▁overd	-11200
▁patri	-11201
▁proto	-11202
▁steep	-11203
▁usage	-11204
ethoven	-11205
lighten	-11206
▁Hubble	-11207
▁Inside	-11208
▁defect	-11209
▁helium	-11210
▁lenses	-11211
▁prayer	-11212
▁racing	-11213
▁retain	-11214
▁routes	-11215
▁scarce	-11216
▁segreg	-11217
▁underp	-11218
▁Justice	-11219
▁Nairobi	-11220
▁checked	-11221
▁divorce	-11222
▁eastern	-11223
▁editing	-11224
▁fossils	-11225
▁luckily	-11226
▁streams	-11227
▁warrior	-11228
mentation	-11229
▁Michigan	-11230
▁Recently	-11231
▁analyzed	-11232
▁elevator	-11233
▁envision	-11234
▁habitats	-11235
▁maximize	-11236
▁minerals	-11237
▁offshore	-11238
▁pursuing	-11239
▁removing	-11240
▁Baltimore	-11241
▁Telescope	-11242
▁emergence	-11243
▁surviving	-11244
▁Australian	-11245
▁Copenhagen	-11246
▁Ultimately	-11247
▁beneficial	-11248
▁sculptures	-11249
▁celebrating	-11250
▁financially	-11251
▁preferences	-11252
▁stereotypes	-11253
▁deliberately	-11254
▁scientifically	-11255
bot	-11256
pay	-11257
▁ID	-11258
aved	-11259
bris	-11260
orse	-11261
pple	-11262
rame	-11263
rays	-11264
usal	-11265
▁Ron	-11266
▁Sub	-11267
▁Tro	-11268
▁Vol	-11269
▁asp	-11270
▁pad	-11271
▁thy	-11272
ropol	-11273
▁CEOs	-11274
▁Kids	-11275
▁Pitt	-11276
▁Supp	-11277
▁Zero	-11278
▁epip	-11279
▁jazz	-11280
▁lump	-11281
▁toes	-11282
erness	-11283
necess	-11284
ocaust	-11285
worthy	-11286
▁Jones	-11287
▁Tesla	-11288
▁backs	-11289
▁blogs	-11290
▁devil	-11291
▁guest	-11292
▁hydro	-11293
▁naive	-11294
▁obese	-11295
▁piles	-11296
▁remem	-11297
▁telom	-11298
frontal	-11299
icillin	-11300
keepers	-11301
version	-11302
▁Colomb	-11303
▁cockro	-11304
▁corrid	-11305
▁debris	-11306
▁depths	-11307
▁finite	-11308
▁guitar	-11309
▁improv	-11310
▁ladder	-11311
▁makeup	-11312
▁punish	-11313
▁sovere	-11314
▁towers	-11315
▁Neander	-11316
▁acquire	-11317
▁defines	-11318
▁explode	-11319
▁heating	-11320
▁rescued	-11321
▁strands	-11322
▁texting	-11323
▁toilets	-11324
resistant	-11325
▁Leonardo	-11326
▁Security	-11327
▁ceremony	-11328
▁chickens	-11329
▁colonial	-11330
▁democrat	-11331
▁equipped	-11332
▁exploded	-11333
▁murdered	-11334
▁obsolete	-11335
▁receptor	-11336
▁thinkers	-11337
▁artifacts	-11338
▁automatic	-11339
▁commodity	-11340
▁followers	-11341
▁intervene	-11342
▁unpredict	-11343
▁Geographic	-11344
▁advantages	-11345
▁apartments	-11346
▁exceptions	-11347
▁horizontal	-11348
▁profitable	-11349
▁settlement	-11350
▁undergradu	-11351
▁Christopher	-11352
▁expectation	-11353
▁flexibility	-11354
▁manufacture	-11355
▁measurement	-11356
▁threatening	-11357
▁transported	-11358
▁kindergarten	-11359
IDS	-11360
Not	-11361
har	-11362
▁JF	-11363
eard	-11364
eddy	-11365
eted	-11366
food	-11367
four	-11368
know	-11369
olas	-11370
pace	-11371
page	-11372
pted	-11373
▁Dru	-11374
▁IBM	-11375
▁Pen	-11376
▁Pop	-11377
▁cin	-11378
ennis	-11379
rence	-11380
rians	-11381
shirt	-11382
▁Cold	-11383
▁Fire	-11384
▁Phys	-11385
▁adds	-11386
▁biol	-11387
▁pipe	-11388
▁pose	-11389
▁toss	-11390
ankind	-11391
gevity	-11392
istine	-11393
school	-11394
uminum	-11395
▁2006,	-11396
▁Party	-11397
▁cheer	-11398
▁deple	-11399
▁essay	-11400
▁faint	-11401
▁midst	-11402
▁pound	-11403
▁resid	-11404
▁sadly	-11405
▁stiff	-11406
▁straw	-11407
▁ultra	-11408
ulative	-11409
▁40,000	-11410
▁Senate	-11411
▁Watson	-11412
▁bricks	-11413
▁digits	-11414
▁heroic	-11415
▁ironic	-11416
▁mouths	-11417
▁presum	-11418
▁prohib	-11419
▁rooted	-11420
▁scheme	-11421
▁tomato	-11422
▁typing	-11423
▁valued	-11424
▁writes	-11425
▁ashamed	-11426
▁dreamed	-11427
▁motions	-11428
▁newborn	-11429
▁quietly	-11430
▁spatial	-11431
▁tickets	-11432
▁tightly	-11433
▁utility	-11434
▁addicted	-11435
▁basement	-11436
▁goodness	-11437
▁operates	-11438
▁protects	-11439
▁settings	-11440
▁sticking	-11441
▁stunning	-11442
▁uniquely	-11443
generation	-11444
▁Beethoven	-11445
▁Greenland	-11446
▁accepting	-11447
▁cardboard	-11448
▁emphasize	-11449
▁variables	-11450
▁wandering	-11451
▁courageous	-11452
▁opposition	-11453
▁phosphorus	-11454
▁Palestinian	-11455
▁aspirations	-11456
▁replacement	-11457
▁appreciation	-11458
▁explanations	-11459
HC	-11460
On	-11461
Re	-11462
iov	-11463
kyo	-11464
ogs	-11465
▁LA	-11466
aver	-11467
cher	-11468
edes	-11469
ican	-11470
irth	-11471
wing	-11472
▁50-	-11473
▁Gar	-11474
▁Tri	-11475
▁hij	-11476
actic	-11477
atics	-11478
ieval	-11479
▁Coke	-11480
▁Conf	-11481
▁Expl	-11482
▁Uber	-11483
▁auto	-11484
▁cann	-11485
▁echo	-11486
▁moms	-11487
▁pond	-11488
▁reck	-11489
▁skip	-11490
▁twin	-11491
▁unre	-11492
degree	-11493
ogenic	-11494
ulates	-11495
▁2003,	-11496
▁Death	-11497
▁Ethic	-11498
▁Stone	-11499
▁Tokyo	-11500
▁Tunis	-11501
▁arena	-11502
▁cried	-11503
▁ensla	-11504
▁erect	-11505
▁escal	-11506
▁juice	-11507
▁scans	-11508
▁subsc	-11509
▁suits	-11510
▁zeros	-11511
driving	-11512
osexual	-11513
▁Edward	-11514
▁Hawaii	-11515
▁Sierra	-11516
▁Syrian	-11517
▁beetle	-11518
▁biased	-11519
▁cement	-11520
▁firing	-11521
▁firmly	-11522
▁freeze	-11523
▁helmet	-11524
▁lasted	-11525
▁salary	-11526
▁summit	-11527
ediatric	-11528
▁Freedom	-11529
▁cardiac	-11530
▁chasing	-11531
▁confirm	-11532
▁dangers	-11533
▁genital	-11534
▁glacier	-11535
▁grabbed	-11536
▁impress	-11537
▁lighter	-11538
▁pleased	-11539
▁reduces	-11540
▁suscept	-11541
▁Movement	-11542
▁annoying	-11543
▁assemble	-11544
▁frequent	-11545
▁purchase	-11546
▁simulate	-11547
▁stealing	-11548
▁unnecess	-11549
▁vultures	-11550
▁deception	-11551
▁demanding	-11552
▁discrimin	-11553
▁fishermen	-11554
▁illnesses	-11555
▁magazines	-11556
▁obsession	-11557
▁strengths	-11558
▁strongest	-11559
▁encryption	-11560
▁generosity	-11561
▁intriguing	-11562
▁inventions	-11563
▁atmospheric	-11564
▁maintenance	-11565
▁nonetheless	-11566
▁programmers	-11567
▁independently	-11568
▁traditionally	-11569
She	-11570
low	-11571
Your	-11572
aman	-11573
aron	-11574
asma	-11575
educ	-11576
mass	-11577
mile	-11578
opol	-11579
tent	-11580
▁12,	-11581
▁180	-11582
▁30,	-11583
▁Eve	-11584
▁Jac	-11585
▁Ken	-11586
▁Nep	-11587
▁arc	-11588
▁caf	-11589
▁wow	-11590
amboo	-11591
brush	-11592
etary	-11593
ortex	-11594
vania	-11595
white	-11596
▁9/11	-11597
▁Dick	-11598
▁Matt	-11599
▁Stop	-11600
▁Wars	-11601
▁asth	-11602
▁carc	-11603
▁casc	-11604
▁deny	-11605
▁mang	-11606
▁myst	-11607
▁neoc	-11608
▁rhet	-11609
▁tips	-11610
▁vend	-11611
ighter	-11612
ocracy	-11613
ograms	-11614
ranean	-11615
▁ambul	-11616
▁eager	-11617
▁fungi	-11618
▁jeans	-11619
▁tiles	-11620
▁woods	-11621
rospect	-11622
▁Cancer	-11623
▁bamboo	-11624
▁beside	-11625
▁joints	-11626
▁learns	-11627
▁mating	-11628
▁metaph	-11629
▁openly	-11630
▁priest	-11631
▁shares	-11632
▁taller	-11633
▁varied	-11634
▁Connect	-11635
▁accused	-11636
▁anytime	-11637
▁donated	-11638
▁filters	-11639
▁hacking	-11640
▁laptops	-11641
▁margins	-11642
▁phrases	-11643
▁rhythms	-11644
▁scaling	-11645
▁spiders	-11646
▁currents	-11647
▁diagnose	-11648
▁imprison	-11649
▁inherent	-11650
▁missions	-11651
▁triggers	-11652
▁Brazilian	-11653
▁execution	-11654
▁histories	-11655
▁impressed	-11656
▁nightmare	-11657
▁Parliament	-11658
▁disruptive	-11659
▁distribute	-11660
▁frightened	-11661
▁prototypes	-11662
▁suspicious	-11663
▁celebration	-11664
▁frequencies	-11665
▁authenticity	-11666
▁coordination	-11667
▁headquarters	-11668
▁surroundings	-11669
wal	-11670
▁1:	-11671
▁AB	-11672
▁Fa	-11673
▁Ms	-11674
▁Sk	-11675
▁zo	-11676
anan	-11677
eyed	-11678
itis	-11679
lied	-11680
ogan	-11681
rise	-11682
▁24-	-11683
▁900	-11684
▁Ash	-11685
▁Kir	-11686
▁Sad	-11687
▁Tib	-11688
▁blo	-11689
▁laz	-11690
▁nap	-11691
ancer	-11692
ouver	-11693
umbai	-11694
▁Free	-11695
▁Much	-11696
▁Ohio	-11697
▁Yale	-11698
▁alle	-11699
▁cram	-11700
▁dens	-11701
▁disk	-11702
▁frog	-11703
▁numb	-11704
▁yard	-11705
alling	-11706
assemb	-11707
idance	-11708
people	-11709
▁acres	-11710
▁armor	-11711
▁beats	-11712
▁dates	-11713
▁immun	-11714
▁penis	-11715
▁rains	-11716
▁ruled	-11717
▁spine	-11718
▁swing	-11719
▁tanks	-11720
▁tread	-11721
▁urine	-11722
▁wives	-11723
iations	-11724
ighters	-11725
iscover	-11726
ourcing	-11727
writing	-11728
▁Associ	-11729
▁Mumbai	-11730
▁affair	-11731
▁angles	-11732
▁decomp	-11733
▁fights	-11734
▁laying	-11735
▁occupy	-11736
▁poorly	-11737
▁scream	-11738
▁stocks	-11739
▁submit	-11740
▁superp	-11741
▁tastes	-11742
ependent	-11743
▁Everest	-11744
▁Society	-11745
▁asymmet	-11746
▁biomass	-11747
▁blessed	-11748
▁browser	-11749
▁claimed	-11750
▁enthusi	-11751
▁expense	-11752
▁goodbye	-11753
▁honesty	-11754
▁lasting	-11755
▁nursing	-11756
▁pouring	-11757
▁richest	-11758
▁shipped	-11759
▁thermal	-11760
▁assuming	-11761
▁backpack	-11762
▁balloons	-11763
▁creators	-11764
▁delicate	-11765
▁diamonds	-11766
▁feminine	-11767
▁festival	-11768
▁frontier	-11769
▁marathon	-11770
▁memorial	-11771
▁primates	-11772
▁responds	-11773
▁sacrific	-11774
▁sections	-11775
▁superior	-11776
▁transist	-11777
▁assembled	-11778
▁assistant	-11779
▁fragments	-11780
▁integrity	-11781
▁satisfied	-11782
▁triggered	-11783
▁accumulate	-11784
▁biolumines	-11785
▁confession	-11786
▁conviction	-11787
▁infinitely	-11788
▁invitation	-11789
▁metabolism	-11790
▁millimeter	-11791
▁phenomenal	-11792
▁systematic	-11793
▁circulation	-11794
▁initiatives	-11795
▁nationalism	-11796
▁progressive	-11797
▁statistical	-11798
▁exploitation	-11799
▁experimenting	-11800
▁physiological	-11801
▁hallucinations	-11802
▁electromagnetic	-11803
lar	-11804
opp	-11805
sur	-11806
syl	-11807
uci	-11808
via	-11809
▁34	-11810
▁AD	-11811
▁Av	-11812
▁LT	-11813
▁ol	-11814
Just	-11815
arks	-11816
emia	-11817
iana	-11818
risk	-11819
stal	-11820
▁Oft	-11821
▁Pic	-11822
▁eru	-11823
▁haz	-11824
abama	-11825
ropri	-11826
tered	-11827
▁Data	-11828
▁ISIS	-11829
▁Jean	-11830
▁Line	-11831
▁Lots	-11832
▁Ross	-11833
▁Vanc	-11834
▁quiz	-11835
▁worm	-11836
estone	-11837
gments	-11838
velope	-11839
▁Exact	-11840
▁Fifty	-11841
▁Small	-11842
▁Talks	-11843
▁creep	-11844
▁folds	-11845
▁marsh	-11846
▁memes	-11847
▁noisy	-11848
▁snake	-11849
▁tails	-11850
lection	-11851
onymous	-11852
▁25,000	-11853
▁Cities	-11854
▁Donald	-11855
▁Either	-11856
▁Mozart	-11857
▁Notice	-11858
▁Thirty	-11859
▁apples	-11860
▁copied	-11861
▁copper	-11862
▁defeat	-11863
▁exquis	-11864
▁hybrid	-11865
▁lately	-11866
▁nicely	-11867
▁obsess	-11868
▁overse	-11869
▁submar	-11870
▁themes	-11871
▁viable	-11872
▁viscer	-11873
▁washed	-11874
security	-11875
sylvania	-11876
▁Swedish	-11877
▁athlete	-11878
▁chaotic	-11879
▁compens	-11880
▁crushed	-11881
▁dancers	-11882
▁easiest	-11883
▁holiday	-11884
▁liberty	-11885
▁masters	-11886
▁photons	-11887
▁placing	-11888
▁sailing	-11889
▁squeeze	-11890
▁surveys	-11891
istically	-11892
▁ancestor	-11893
▁cocktail	-11894
▁diarrhea	-11895
▁thorough	-11896
▁unstable	-11897
▁Vancouver	-11898
▁parachute	-11899
▁qualified	-11900
▁successes	-11901
▁unhealthy	-11902
lightenment	-11903
▁conceptual	-11904
▁congestion	-11905
▁coordinate	-11906
▁disappears	-11907
▁guaranteed	-11908
▁Researchers	-11909
▁competitors	-11910
▁disciplines	-11911
▁millennials	-11912
▁neighboring	-11913
▁willingness	-11914
▁Pennsylvania	-11915
Ah	-11916
eu	-11917
ga	-11918
gr	-11919
ETI	-11920
Mom	-11921
Now	-11922
lla	-11923
nia	-11924
oft	-11925
▁4.	-11926
▁JC	-11927
▁RS	-11928
aque	-11929
inea	-11930
intu	-11931
ippi	-11932
▁'50	-11933
▁14,	-11934
▁Ask	-11935
▁Hon	-11936
▁dug	-11937
▁fog	-11938
▁jur	-11939
▁ooh	-11940
▁owe	-11941
ashes	-11942
epher	-11943
oline	-11944
▁2008	-11945
▁Rick	-11946
▁Side	-11947
▁Soph	-11948
▁cher	-11949
▁clar	-11950
▁jugg	-11951
▁mesh	-11952
▁uter	-11953
ailand	-11954
boxing	-11955
itical	-11956
places	-11957
ulator	-11958
▁2016,	-11959
▁Among	-11960
▁Koran	-11961
▁Larry	-11962
▁camel	-11963
▁comed	-11964
▁crude	-11965
▁holog	-11966
▁tuned	-11967
respect	-11968
▁Spring	-11969
▁admire	-11970
▁closet	-11971
▁donate	-11972
▁fixing	-11973
▁hammer	-11974
▁reserv	-11975
▁salmon	-11976
▁weekly	-11977
▁weighs	-11978
▁wounds	-11979
computer	-11980
ictional	-11981
▁Alabama	-11982
▁Mississ	-11983
▁cricket	-11984
▁gallery	-11985
▁knocked	-11986
▁minimal	-11987
▁rehabil	-11988
▁viewing	-11989
▁warfare	-11990
▁Thailand	-11991
▁attorney	-11992
▁autistic	-11993
▁entitled	-11994
▁feathers	-11995
▁flourish	-11996
▁gestures	-11997
▁gigantic	-11998
▁meantime	-11999
▁mushroom	-12000
▁prevents	-12001
▁reporter	-12002
▁veterans	-12003
▁Architect	-12004
▁combining	-12005
▁consuming	-12006
▁directors	-12007
▁exhausted	-12008
▁favorites	-12009
▁headaches	-12010
▁ingenuity	-12011
▁launching	-12012
▁negotiate	-12013
▁pediatric	-12014
▁recession	-12015
▁sustained	-12016
▁varieties	-12017
▁households	-12018
▁interfaces	-12019
▁nonviolent	-12020
▁prefrontal	-12021
▁psychopath	-12022
▁quantities	-12023
▁substances	-12024
▁superpower	-12025
▁Republicans	-12026
▁correlation	-12027
▁exceptional	-12028
▁maintaining	-12029
▁substantial	-12030
▁hypothetical	-12031
IN	-12032
▁.	-12033
lem	-12034
oen	-12035
oic	-12036
pos	-12037
▁7,	-12038
▁NB	-12039
▁SP	-12040
▁UV	-12041
▁ah	-12042
acon	-12043
enez	-12044
▁Beh	-12045
▁Ide	-12046
▁Rog	-12047
▁gym	-12048
▁hug	-12049
▁vig	-12050
apses	-12051
ected	-12052
leans	-12053
pound	-12054
▁Barb	-12055
▁Beck	-12056
▁Chap	-12057
▁Fast	-12058
▁Hund	-12059
▁Wait	-12060
▁Whit	-12061
▁Year	-12062
▁Zimb	-12063
▁beef	-12064
▁bush	-12065
▁curt	-12066
▁encl	-12067
▁folk	-12068
▁merg	-12069
▁panc	-12070
▁slee	-12071
atible	-12072
formed	-12073
iments	-12074
iverse	-12075
uation	-12076
ugging	-12077
▁Years	-12078
▁hurts	-12079
▁inert	-12080
▁merit	-12081
▁picks	-12082
▁scope	-12083
▁slept	-12084
▁snaps	-12085
▁wrink	-12086
ocratic	-12087
▁Alaska	-12088
▁Prince	-12089
▁filmed	-12090
▁harbor	-12091
▁hiring	-12092
▁hugely	-12093
▁ideals	-12094
▁labels	-12095
▁theirs	-12096
▁verbal	-12097
▁voyage	-12098
intellig	-12099
osterone	-12100
▁Charlie	-12101
▁Denmark	-12102
▁Orleans	-12103
▁Somalia	-12104
▁battles	-12105
▁budgets	-12106
▁compass	-12107
▁condoms	-12108
▁inherit	-12109
▁needing	-12110
▁praying	-12111
▁premise	-12112
▁sensing	-12113
▁volumes	-12114
▁Cambodia	-12115
▁absorbed	-12116
▁civilian	-12117
▁encyclop	-12118
▁endeavor	-12119
▁guidance	-12120
▁horrific	-12121
▁improvis	-12122
▁optimize	-12123
▁quantity	-12124
▁skeletal	-12125
▁stimulus	-12126
▁terrific	-12127
▁velocity	-12128
▁visitors	-12129
ographical	-12130
▁Elizabeth	-12131
▁addressed	-12132
▁affection	-12133
▁attempted	-12134
▁boyfriend	-12135
▁celebrity	-12136
▁exclusive	-12137
▁gratitude	-12138
▁intersect	-12139
▁supernova	-12140
▁accounting	-12141
▁convention	-12142
▁meditation	-12143
▁projection	-12144
▁solidarity	-12145
▁Mississippi	-12146
▁fluorescent	-12147
▁illustrates	-12148
▁inefficient	-12149
▁permanently	-12150
▁smartphones	-12151
▁disappearing	-12152
ES	-12153
emi	-12154
hyd	-12155
▁52	-12156
▁Aw	-12157
▁ED	-12158
▁MK	-12159
▁Od	-12160
amas	-12161
elve	-12162
ller	-12163
ston	-12164
ucky	-12165
velt	-12166
▁140	-12167
▁189	-12168
▁Est	-12169
▁Fut	-12170
▁McC	-12171
▁dim	-12172
▁jan	-12173
apeut	-12174
epler	-12175
olith	-12176
osion	-12177
peror	-12178
pling	-12179
raged	-12180
▁Alan	-12181
▁Marg	-12182
▁Nike	-12183
▁Stat	-12184
▁nano	-12185
▁padd	-12186
▁semi	-12187
ateral	-12188
atient	-12189
tering	-12190
ulsive	-12191
▁Gabby	-12192
▁Jason	-12193
▁Venez	-12194
▁album	-12195
▁breed	-12196
▁cloth	-12197
▁coher	-12198
▁recur	-12199
▁telec	-12200
▁wiped	-12201
alities	-12202
amiliar	-12203
centric	-12204
ousands	-12205
▁boards	-12206
▁crises	-12207
▁issued	-12208
▁lining	-12209
▁mixing	-12210
▁novels	-12211
▁resemb	-12212
▁traces	-12213
▁transf	-12214
attering	-12215
ensively	-12216
friendly	-12217
▁Exactly	-12218
▁Lebanon	-12219
▁Liberia	-12220
▁archive	-12221
▁blocked	-12222
▁chemist	-12223
▁legally	-12224
▁migrate	-12225
▁monthly	-12226
▁penguin	-12227
▁ranging	-12228
▁retired	-12229
▁seaweed	-12230
▁slowing	-12231
▁symptom	-12232
▁tattoos	-12233
▁tipping	-12234
▁vibrant	-12235
▁abnormal	-12236
▁aluminum	-12237
▁calendar	-12238
▁civility	-12239
▁lifespan	-12240
▁matching	-12241
▁maternal	-12242
▁motivate	-12243
▁presents	-12244
▁remotely	-12245
▁shortcut	-12246
▁systemic	-12247
▁ambulance	-12248
▁attending	-12249
▁detectors	-12250
▁humankind	-12251
▁injection	-12252
▁instances	-12253
▁intrigued	-12254
▁longevity	-12255
▁portraits	-12256
▁warehouse	-12257
▁adaptation	-12258
▁developers	-12259
▁diagnostic	-12260
▁imperative	-12261
▁influences	-12262
▁restricted	-12263
▁Association	-12264
▁catastrophe	-12265
▁corresponds	-12266
▁stimulation	-12267
▁consistently	-12268
▁constitution	-12269
?]	-12270
AL	-12271
Ar	-12272
EG	-12273
Hi	-12274
NH	-12275
tz	-12276
One	-12277
elp	-12278
oul	-12279
ygd	-12280
▁46	-12281
▁Os	-12282
▁Si	-12283
▁Sn	-12284
abwe	-12285
eman	-12286
good	-12287
ndry	-12288
oren	-12289
worm	-12290
▁1.2	-12291
▁Arm	-12292
▁Bos	-12293
▁Han	-12294
▁Tas	-12295
▁Win	-12296
▁hes	-12297
▁hut	-12298
▁nod	-12299
meter	-12300
▁Oper	-12301
▁anch	-12302
▁beds	-12303
▁dorm	-12304
▁hats	-12305
▁nons	-12306
▁plum	-12307
▁seam	-12308
▁stew	-12309
asking	-12310
crimin	-12311
imalay	-12312
teries	-12313
▁2004,	-12314
▁Alice	-12315
▁Harry	-12316
▁Maria	-12317
▁Short	-12318
▁amygd	-12319
▁arise	-12320
▁epile	-12321
▁files	-12322
▁flick	-12323
▁gates	-12324
▁heter	-12325
▁incub	-12326
▁inexp	-12327
▁landf	-12328
▁maneu	-12329
▁moons	-12330
▁remix	-12331
▁souls	-12332
▁yards	-12333
percent	-12334
ulously	-12335
▁Canyon	-12336
▁Kepler	-12337
▁assure	-12338
▁banned	-12339
▁bounce	-12340
▁cables	-12341
▁hooked	-12342
▁loaded	-12343
▁microw	-12344
▁neurot	-12345
▁sticky	-12346
▁Certain	-12347
▁Defense	-12348
▁Himalay	-12349
▁Mediter	-12350
▁beetles	-12351
▁grounds	-12352
▁motorcy	-12353
▁reviews	-12354
▁secular	-12355
▁shelves	-12356
▁silicon	-12357
▁spirits	-12358
▁thereby	-12359
▁wonders	-12360
▁worship	-12361
clusively	-12362
▁Columbia	-12363
▁Scotland	-12364
▁Whenever	-12365
▁Zimbabwe	-12366
▁approval	-12367
▁arranged	-12368
▁balanced	-12369
▁contexts	-12370
▁employed	-12371
▁evaluate	-12372
▁insisted	-12373
▁lectures	-12374
▁lightbul	-12375
▁shouting	-12376
iovascular	-12377
▁confusing	-12378
▁ethnicity	-12379
▁exercises	-12380
▁fictional	-12381
▁imaginary	-12382
▁judgments	-12383
▁pervasive	-12384
▁reinforce	-12385
▁remembers	-12386
engineering	-12387
▁brainstorm	-12388
▁containing	-12389
▁culturally	-12390
▁networking	-12391
▁oppression	-12392
▁presenting	-12393
▁recognizes	-12394
▁statements	-12395
▁structured	-12396
▁vibrations	-12397
▁association	-12398
▁controversy	-12399
▁publication	-12400
▁difficulties	-12401
▁disconnected	-12402
▁Mediterranean	-12403
▁contradiction	-12404
100	-12405
bly	-12406
cus	-12407
ira	-12408
izz	-12409
lay	-12410
oto	-12411
roc	-12412
tic	-12413
uce	-12414
▁Hu	-12415
▁Ur	-12416
▁Wi	-12417
▁Ze	-12418
anas	-12419
ells	-12420
fund	-12421
hops	-12422
iasm	-12423
lear	-12424
lies	-12425
▁16,	-12426
▁Bat	-12427
▁Bit	-12428
▁Cat	-12429
▁Fur	-12430
▁Sex	-12431
▁Ted	-12432
▁Tem	-12433
▁rab	-12434
Would	-12435
agram	-12436
berty	-12437
kings	-12438
onder	-12439
roots	-12440
venue	-12441
ynman	-12442
▁2010	-12443
▁Mind	-12444
▁Pers	-12445
▁SETI	-12446
▁TEDT	-12447
▁Wood	-12448
▁Work	-12449
▁beeh	-12450
▁exit	-12451
▁lips	-12452
▁oven	-12453
▁penn	-12454
▁pops	-12455
ection	-12456
enders	-12457
rative	-12458
reated	-12459
▁Heart	-12460
▁freak	-12461
▁jumps	-12462
▁lakes	-12463
▁locom	-12464
▁milit	-12465
▁pumps	-12466
▁roofs	-12467
▁skies	-12468
▁smugg	-12469
▁troll	-12470
▁candle	-12471
▁donors	-12472
▁intest	-12473
▁powder	-12474
▁scroll	-12475
▁violin	-12476
▁Clearly	-12477
▁Feynman	-12478
▁Suppose	-12479
▁desktop	-12480
▁dragged	-12481
▁eternal	-12482
▁founder	-12483
▁posture	-12484
▁segment	-12485
▁urgency	-12486
▁Venezuel	-12487
▁advertis	-12488
▁calculus	-12489
▁envelope	-12490
▁executed	-12491
▁founders	-12492
▁midnight	-12493
▁migrants	-12494
▁peripher	-12495
▁portable	-12496
▁recreate	-12497
▁regional	-12498
▁schedule	-12499
▁sidewalk	-12500
▁weekends	-12501
▁Holocaust	-12502
▁adulthood	-12503
▁arbitrary	-12504
▁capturing	-12505
▁extremism	-12506
▁finishing	-12507
▁genuinely	-12508
▁habitable	-12509
▁illusions	-12510
▁metabolic	-12511
▁prevented	-12512
▁projected	-12513
▁revealing	-12514
▁stimulate	-12515
▁vegetable	-12516
▁viewpoint	-12517
▁attributes	-12518
▁enormously	-12519
▁fertilizer	-12520
▁irrelevant	-12521
▁penicillin	-12522
▁physiology	-12523
▁prioritize	-12524
▁regenerate	-12525
▁arrangement	-12526
▁dysfunction	-12527
▁unnecessary	-12528
▁manipulation	-12529
▁partnerships	-12530
▁conservatives	-12531
▁exponentially	-12532
▁photographers	-12533
▁unpredictable	-12534
-2	-12535
Me	-12536
ja	-12537
600	-12538
aba	-12539
ecd	-12540
oub	-12541
pha	-12542
yan	-12543
zzy	-12544
▁44	-12545
▁Cr	-12546
▁FG	-12547
▁MA	-12548
▁Wr	-12549
bian	-12550
bone	-12551
inos	-12552
kill	-12553
oter	-12554
ribe	-12555
type	-12556
uled	-12557
▁18,	-12558
▁Die	-12559
▁Dor	-12560
▁bot	-12561
▁cem	-12562
▁pod	-12563
atile	-12564
cific	-12565
essim	-12566
oping	-12567
▁Anna	-12568
▁Down	-12569
▁Hung	-12570
▁LEGO	-12571
▁Real	-12572
▁apes	-12573
▁clap	-12574
▁fame	-12575
▁godd	-12576
▁lazy	-12577
▁leak	-12578
▁lend	-12579
▁meme	-12580
▁mund	-12581
▁ramp	-12582
opardy	-12583
urches	-12584
▁2050,	-12585
▁7,000	-12586
▁Group	-12587
▁Leone	-12588
▁Tibet	-12589
▁Trade	-12590
▁anecd	-12591
▁chore	-12592
▁decay	-12593
▁fatig	-12594
▁halls	-12595
▁inequ	-12596
▁paran	-12597
▁paste	-12598
▁poets	-12599
▁polls	-12600
▁rolls	-12601
▁seals	-12602
▁slime	-12603
▁spraw	-12604
▁steer	-12605
▁strat	-12606
▁surre	-12607
▁toast	-12608
anguage	-12609
▁Econom	-12610
▁Kenyan	-12611
▁Sahara	-12612
▁Wouldn	-12613
▁Wright	-12614
▁anatom	-12615
▁dancer	-12616
▁dement	-12617
▁drinks	-12618
▁pigeon	-12619
▁pushes	-12620
▁reluct	-12621
▁respir	-12622
▁tender	-12623
▁upward	-12624
building	-12625
idepress	-12626
othermal	-12627
restrial	-12628
▁300,000	-12629
▁Abraham	-12630
▁Current	-12631
▁Growing	-12632
▁Looking	-12633
▁conspir	-12634
▁crowded	-12635
▁epiphan	-12636
▁flights	-12637
▁grammar	-12638
▁honored	-12639
▁narciss	-12640
▁needles	-12641
▁novelty	-12642
▁payment	-12643
▁persons	-12644
▁reforms	-12645
▁scripts	-12646
▁tactics	-12647
▁weighed	-12648
intuitive	-12649
roportion	-12650
▁adaptive	-12651
▁altruism	-12652
▁cheating	-12653
▁confined	-12654
▁contents	-12655
▁directed	-12656
▁displays	-12657
▁passport	-12658
▁planting	-12659
▁speeches	-12660
▁stumbled	-12661
▁suppress	-12662
▁synapses	-12663
▁unaccept	-12664
▁academics	-12665
▁breakdown	-12666
▁cigarette	-12667
▁prejudice	-12668
▁rejection	-12669
▁routinely	-12670
▁staircase	-12671
▁witnesses	-12672
▁Commission	-12673
▁Throughout	-12674
▁distracted	-12675
▁enthusiasm	-12676
▁performers	-12677
▁predicting	-12678
▁specialist	-12679
▁unemployed	-12680
▁accompanied	-12681
▁adolescence	-12682
▁centimeters	-12683
▁citizenship	-12684
▁coincidence	-12685
▁projections	-12686
▁susceptible	-12687
▁breakthroughs	-12688
▁investigating	-12689
▁cardiovascular	-12690
▁entrepreneurial	-12691
99	-12692
Af	-12693
Al	-12694
oz	-12695
ARS	-12696
awi	-12697
cup	-12698
ean	-12699
irs	-12700
mic	-12701
sis	-12702
wan	-12703
▁86	-12704
▁91	-12705
▁98	-12706
▁BM	-12707
▁Ev	-12708
Good	-12709
bees	-12710
coin	-12711
gian	-12712
home	-12713
lier	-12714
otal	-12715
usse	-12716
▁Moh	-12717
▁Oak	-12718
▁Rec	-12719
▁Tay	-12720
▁lem	-12721
▁pup	-12722
child	-12723
imony	-12724
jamin	-12725
oenix	-12726
▁Live	-12727
▁arth	-12728
▁buff	-12729
▁inqu	-12730
▁pean	-12731
▁reli	-12732
▁trib	-12733
▁warn	-12734
atical	-12735
ellers	-12736
estion	-12737
ilated	-12738
irable	-12739
ologic	-12740
riages	-12741
usalem	-12742
▁2017,	-12743
▁Goals	-12744
▁Nepal	-12745
▁Plato	-12746
▁Simon	-12747
▁Stasi	-12748
▁Treat	-12749
▁beast	-12750
▁blink	-12751
▁crust	-12752
▁glory	-12753
▁idiot	-12754
▁lined	-12755
▁perse	-12756
▁posts	-12757
▁races	-12758
▁sucks	-12759
▁tales	-12760
▁twent	-12761
▁uncon	-12762
▁union	-12763
▁verge	-12764
growing	-12765
inative	-12766
inators	-12767
▁Modern	-12768
▁Office	-12769
▁abused	-12770
▁betray	-12771
▁facult	-12772
▁guided	-12773
▁metals	-12774
▁multit	-12775
▁pessim	-12776
▁potato	-12777
▁relies	-12778
▁update	-12779
cientist	-12780
▁captain	-12781
▁cleaner	-12782
▁devoted	-12783
▁excuses	-12784
▁flooded	-12785
▁hallway	-12786
▁illiter	-12787
▁inflamm	-12788
▁notions	-12789
▁seroton	-12790
▁shaping	-12791
▁touches	-12792
▁vicious	-12793
▁wasting	-12794
▁worries	-12795
▁Mountain	-12796
▁crashing	-12797
▁employer	-12798
▁enslaved	-12799
▁highways	-12800
▁improves	-12801
▁inviting	-12802
▁passions	-12803
▁policing	-12804
▁redefine	-12805
▁scaffold	-12806
▁symbolic	-12807
▁Jerusalem	-12808
▁Secretary	-12809
▁contracts	-12810
▁criticism	-12811
▁historian	-12812
▁instincts	-12813
▁meanwhile	-12814
▁slaughter	-12815
▁stretched	-12816
▁automation	-12817
▁contagious	-12818
▁devastated	-12819
▁incomplete	-12820
▁antidepress	-12821
▁constrained	-12822
▁counterpart	-12823
▁simulations	-12824
▁transaction	-12825
▁transferred	-12826
▁conditioning	-12827
▁incarcerated	-12828
▁laboratories	-12829
▁testosterone	-12830
▁tremendously	-12831
▁disproportion	-12832
▁nanoparticles	-12833
,”	-12834
CO	-12835
boy	-12836
iqu	-12837
oca	-12838
ocy	-12839
ois	-12840
ols	-12841
▁BC	-12842
▁ic	-12843
anol	-12844
gage	-12845
high	-12846
hole	-12847
idel	-12848
vals	-12849
▁40-	-12850
▁Amy	-12851
▁End	-12852
▁Fal	-12853
▁Kim	-12854
▁Tit	-12855
▁adj	-12856
▁fee	-12857
▁kin	-12858
achel	-12859
arium	-12860
backs	-12861
ellar	-12862
erend	-12863
ifted	-12864
range	-12865
▁Germ	-12866
▁Hard	-12867
▁Khan	-12868
▁Nine	-12869
▁anom	-12870
▁emit	-12871
▁fade	-12872
▁font	-12873
▁germ	-12874
▁lane	-12875
▁nick	-12876
anting	-12877
apiens	-12878
holder	-12879
imated	-12880
inates	-12881
rogram	-12882
▁Along	-12883
▁Danny	-12884
▁Given	-12885
▁Guard	-12886
▁Hindu	-12887
▁Matth	-12888
▁Night	-12889
▁Stage	-12890
▁Truth	-12891
▁arrog	-12892
▁crank	-12893
▁draws	-12894
▁hairs	-12895
▁hosts	-12896
▁lasts	-12897
▁melan	-12898
▁noble	-12899
▁ozone	-12900
▁rides	-12901
▁rooft	-12902
▁trunk	-12903
▁yeast	-12904
agement	-12905
▁Galile	-12906
▁Person	-12907
▁burial	-12908
▁expose	-12909
▁floods	-12910
▁heroin	-12911
▁interd	-12912
▁miscon	-12913
▁pilots	-12914
▁precip	-12915
▁retrie	-12916
▁ripped	-12917
▁scaled	-12918
▁shells	-12919
▁slowed	-12920
▁thrust	-12921
▁toxins	-12922
▁triple	-12923
▁ultras	-12924
▁uncont	-12925
oriented	-12926
specific	-12927
▁150,000	-12928
▁Redwood	-12929
▁Special	-12930
▁altered	-12931
▁blockch	-12932
▁categor	-12933
▁escaped	-12934
▁expands	-12935
▁focuses	-12936
▁forcing	-12937
▁gallons	-12938
▁optimal	-12939
▁outdoor	-12940
▁partial	-12941
▁playful	-12942
▁protons	-12943
▁puberty	-12944
▁replied	-12945
▁tracked	-12946
Americans	-12947
izational	-12948
▁Benjamin	-12949
▁arriving	-12950
▁baseline	-12951
▁belonged	-12952
▁develops	-12953
▁duration	-12954
▁glorious	-12955
▁invasive	-12956
▁liberals	-12957
▁literary	-12958
▁medieval	-12959
▁operated	-12960
▁procrast	-12961
▁secretly	-12962
▁threaten	-12963
Beatboxing	-12964
▁Thousands	-12965
▁appealing	-12966
▁attacking	-12967
▁bacterium	-12968
▁checklist	-12969
▁cultivate	-12970
▁intricate	-12971
▁lifetimes	-12972
▁mosquitos	-12973
▁opponents	-12974
▁partially	-12975
▁preserved	-12976
▁repeating	-12977
▁serotonin	-12978
▁trillions	-12979
▁Democratic	-12980
▁explicitly	-12981
▁expressing	-12982
▁grassroots	-12983
▁unfamiliar	-12984
▁Information	-12985
▁bloodstream	-12986
▁countryside	-12987
▁neurological	-12988
▁Interestingly	-12989
▁manufacturers	-12990
abs	-12991
gar	-12992
gre	-12993
una	-12994
▁43	-12995
▁6.	-12996
▁AL	-12997
▁CR	-12998
▁Ky	-12999
▁eB	-13000
AIDS	-13001
alls	-13002
asha	-13003
assy	-13004
cale	-13005
dest	-13006
erey	-13007
ighs	-13008
mart	-13009
math	-13010
onio	-13011
plex	-13012
race	-13013
rics	-13014
umbs	-13015
▁14-	-13016
▁17,	-13017
▁Bot	-13018
▁Cir	-13019
▁Ess	-13020
▁Fil	-13021
▁Kos	-13022
▁Nam	-13023
▁PMS	-13024
▁cod	-13025
▁coh	-13026
▁cue	-13027
▁lou	-13028
▁obe	-13029
▁wig	-13030
aurus	-13031
eland	-13032
exist	-13033
icide	-13034
renal	-13035
rowth	-13036
stood	-13037
▁Band	-13038
▁Hold	-13039
▁Mall	-13040
▁Read	-13041
▁abol	-13042
▁eats	-13043
▁grim	-13044
▁guer	-13045
▁heck	-13046
▁herd	-13047
▁iPad	-13048
▁iPod	-13049
▁nour	-13050
▁slam	-13051
▁swam	-13052
▁wipe	-13053
aining	-13054
▁2001,	-13055
▁8,000	-13056
▁Dream	-13057
▁Early	-13058
▁Pause	-13059
▁Roose	-13060
▁Solar	-13061
▁appet	-13062
▁clich	-13063
▁cubic	-13064
▁ethic	-13065
▁frogs	-13066
▁fuzzy	-13067
▁mitig	-13068
▁poses	-13069
▁postc	-13070
▁reper	-13071
▁rival	-13072
▁stunt	-13073
▁witch	-13074
sterdam	-13075
▁Arabia	-13076
▁Golden	-13077
▁Ninety	-13078
▁embark	-13079
▁embryo	-13080
▁entity	-13081
▁feared	-13082
▁guests	-13083
▁heated	-13084
▁hunter	-13085
▁pollut	-13086
▁poured	-13087
▁snakes	-13088
▁titles	-13089
▁unseen	-13090
▁uterus	-13091
▁visits	-13092
clusions	-13093
▁Alexand	-13094
▁Iranian	-13095
▁airline	-13096
▁broadly	-13097
▁catalog	-13098
▁compact	-13099
▁complim	-13100
▁compute	-13101
▁frontal	-13102
▁glamour	-13103
▁heights	-13104
▁impulse	-13105
▁jewelry	-13106
▁laundry	-13107
▁mundane	-13108
▁outward	-13109
▁painter	-13110
▁placebo	-13111
▁upright	-13112
▁vitamin	-13113
ationally	-13114
▁Monterey	-13115
▁cylinder	-13116
▁damaging	-13117
▁degraded	-13118
▁dementia	-13119
▁displace	-13120
▁embodied	-13121
▁implicit	-13122
▁observer	-13123
▁pipeline	-13124
▁reacting	-13125
▁receives	-13126
▁sessions	-13127
▁sometime	-13128
▁suburban	-13129
▁tortured	-13130
▁uploaded	-13131
▁withdraw	-13132
▁Companies	-13133
▁Egyptians	-13134
▁Jefferson	-13135
▁Roosevelt	-13136
▁civilians	-13137
▁detecting	-13138
▁educators	-13139
▁excessive	-13140
▁explorers	-13141
▁indicates	-13142
▁prominent	-13143
▁protocell	-13144
▁synthesis	-13145
▁triangles	-13146
▁attraction	-13147
▁dependence	-13148
▁executives	-13149
▁pedestrian	-13150
▁perceptual	-13151
▁playground	-13152
▁renewables	-13153
▁repetitive	-13154
▁sensations	-13155
▁conferences	-13156
▁documenting	-13157
▁restrictions	-13158
▁complications	-13159
▁configuration	-13160
):	-13161
ER	-13162
ID	-13163
300	-13164
800	-13165
ems	-13166
jan	-13167
kel	-13168
lli	-13169
▁5,	-13170
▁AS	-13171
▁IV	-13172
▁Ku	-13173
▁Mu	-13174
▁RH	-13175
acre	-13176
ante	-13177
bral	-13178
cile	-13179
egal	-13180
egas	-13181
emed	-13182
feed	-13183
icky	-13184
iner	-13185
lend	-13186
urbs	-13187
zona	-13188
▁160	-13189
▁18-	-13190
▁Bor	-13191
▁Fox	-13192
▁Rel	-13193
▁Top	-13194
▁cyn	-13195
▁dye	-13196
▁gru	-13197
▁las	-13198
▁mun	-13199
▁piv	-13200
▁wax	-13201
allas	-13202
ffiti	-13203
geria	-13204
lfact	-13205
olera	-13206
phing	-13207
pples	-13208
ritis	-13209
▁Capt	-13210
▁Find	-13211
▁Gaza	-13212
▁Jobs	-13213
▁Mong	-13214
▁Sher	-13215
▁Slow	-13216
▁Stew	-13217
▁TEDx	-13218
▁aver	-13219
▁buck	-13220
▁cups	-13221
▁jury	-13222
▁nail	-13223
▁resh	-13224
▁rust	-13225
▁tide	-13226
▁todd	-13227
ocated	-13228
strong	-13229
▁Broad	-13230
▁Emily	-13231
▁Girls	-13232
▁Going	-13233
▁Large	-13234
▁Miami	-13235
▁Norwe	-13236
▁Often	-13237
▁Siber	-13238
▁chunk	-13239
▁clips	-13240
▁exams	-13241
▁firms	-13242
▁hills	-13243
▁irrig	-13244
▁peaks	-13245
▁pipes	-13246
▁scand	-13247
▁tenth	-13248
▁unequ	-13249
▁Tasman	-13250
▁affirm	-13251
▁arrows	-13252
▁asthma	-13253
▁behold	-13254
▁cathed	-13255
▁cooked	-13256
▁indoor	-13257
▁jacket	-13258
▁melody	-13259
▁orbits	-13260
▁plasma	-13261
▁radius	-13262
▁superv	-13263
▁tagged	-13264
▁treaty	-13265
pleasant	-13266
▁Arizona	-13267
▁Country	-13268
▁Environ	-13269
▁Machine	-13270
▁Natural	-13271
▁aligned	-13272
▁arrival	-13273
▁gaining	-13274
▁hurting	-13275
▁markers	-13276
▁relates	-13277
▁rockets	-13278
▁scholar	-13279
▁seventh	-13280
▁shepher	-13281
▁shuttle	-13282
▁spheres	-13283
inational	-13284
▁Russians	-13285
▁Williams	-13286
▁acoustic	-13287
▁bleeding	-13288
▁grounded	-13289
▁juvenile	-13290
▁overseas	-13291
▁petition	-13292
▁realizes	-13293
▁rotating	-13294
▁visceral	-13295
▁declining	-13296
▁digitally	-13297
▁educating	-13298
▁electoral	-13299
▁graduates	-13300
▁mushrooms	-13301
▁reporters	-13302
▁streaming	-13303
▁visionary	-13304
▁anesthesia	-13305
▁cigarettes	-13306
▁conducting	-13307
▁disgusting	-13308
▁eliminated	-13309
▁innovators	-13310
▁pesticides	-13311
▁wilderness	-13312
▁Philippines	-13313
▁corporation	-13314
▁eliminating	-13315
▁introducing	-13316
▁progression	-13317
▁psychiatric	-13318
▁specialists	-13319
▁requirements	-13320
▁unacceptable	-13321
▁collaborating	-13322
▁consideration	-13323
▁spontaneously	-13324
▁undergraduate	-13325
CT	-13326
Cs	-13327
To	-13328
▁0	-13329
bet	-13330
but	-13331
flu	-13332
nik	-13333
pol	-13334
pot	-13335
voc	-13336
xit	-13337
▁SA	-13338
▁Uk	-13339
▁ly	-13340
cuse	-13341
heit	-13342
held	-13343
ilib	-13344
plan	-13345
stop	-13346
tebr	-13347
▁Tar	-13348
▁rip	-13349
▁rod	-13350
ahren	-13351
azine	-13352
bands	-13353
borne	-13354
elect	-13355
gebra	-13356
gress	-13357
incet	-13358
opoly	-13359
ppers	-13360
ucked	-13361
▁Cher	-13362
▁Nord	-13363
▁Tues	-13364
▁dual	-13365
▁kits	-13366
▁piss	-13367
▁tags	-13368
▁taxi	-13369
▁void	-13370
change	-13371
energy	-13372
esteem	-13373
reatic	-13374
urance	-13375
▁Craig	-13376
▁Diego	-13377
▁Psych	-13378
▁Radio	-13379
▁Sever	-13380
▁Story	-13381
▁amput	-13382
▁bikes	-13383
▁burns	-13384
▁chalk	-13385
▁mirac	-13386
▁sanct	-13387
▁scare	-13388
▁swarm	-13389
▁unity	-13390
▁venom	-13391
Because	-13392
product	-13393
▁Kansas	-13394
▁League	-13395
▁Living	-13396
▁Marine	-13397
▁Sounds	-13398
▁antenn	-13399
▁cartil	-13400
▁chimps	-13401
▁costly	-13402
▁crafts	-13403
▁discou	-13404
▁flames	-13405
▁flawed	-13406
▁graphs	-13407
▁mosque	-13408
▁resort	-13409
appropri	-13410
▁400,000	-13411
▁Company	-13412
▁Galileo	-13413
▁Germans	-13414
▁Senegal	-13415
▁Station	-13416
▁Tuesday	-13417
▁Usually	-13418
▁bipolar	-13419
▁copying	-13420
▁crashes	-13421
▁deficit	-13422
▁deserts	-13423
▁dispers	-13424
▁divides	-13425
▁equator	-13426
▁iceberg	-13427
▁kidneys	-13428
▁literal	-13429
▁logging	-13430
▁microbi	-13431
▁prevail	-13432
▁sparked	-13433
▁wounded	-13434
▁Buddhist	-13435
▁adequate	-13436
▁amygdala	-13437
▁churches	-13438
▁commands	-13439
▁deterior	-13440
▁elevated	-13441
▁epiphany	-13442
▁indirect	-13443
▁invasion	-13444
▁monsters	-13445
▁notebook	-13446
▁operator	-13447
▁quarters	-13448
▁requests	-13449
▁resulted	-13450
▁revenues	-13451
▁rhetoric	-13452
▁rotation	-13453
▁temporal	-13454
▁workshop	-13455
▁Amsterdam	-13456
▁Hopefully	-13457
▁Southeast	-13458
▁aggregate	-13459
▁container	-13460
▁continuum	-13461
▁geometric	-13462
▁marriages	-13463
▁premature	-13464
▁processor	-13465
▁recruited	-13466
▁selective	-13467
▁spaceship	-13468
▁vibrating	-13469
▁Generation	-13470
▁articulate	-13471
▁censorship	-13472
▁compressed	-13473
▁concussion	-13474
▁deliberate	-13475
▁objectives	-13476
▁questioned	-13477
▁reflecting	-13478
▁repetition	-13479
▁translates	-13480
▁unpleasant	-13481
▁calculation	-13482
▁meaningless	-13483
▁motivations	-13484
▁recommended	-13485
▁revolutions	-13486
▁Constitution	-13487
▁contaminated	-13488
▁developments	-13489
▁standardized	-13490
▁comprehensive	-13491
▁determination	-13492
▁multinational	-13493
▁photosynthesis	-13494
▁neuroscientists	-13495
An	-13496
di	-13497
asa	-13498
cod	-13499
fts	-13500
ili	-13501
pse	-13502
▁38	-13503
▁47	-13504
▁64	-13505
▁Ba	-13506
▁JA	-13507
▁hi	-13508
cium	-13509
hill	-13510
inge	-13511
kers	-13512
leys	-13513
rose	-13514
rost	-13515
rove	-13516
veli	-13517
▁2.5	-13518
▁Coh	-13519
▁Dev	-13520
▁Ear	-13521
▁Emb	-13522
▁Equ	-13523
▁Hur	-13524
▁Ill	-13525
▁Isa	-13526
▁Jen	-13527
▁Lee	-13528
▁Max	-13529
▁Mir	-13530
▁Mot	-13531
▁Ori	-13532
▁Pet	-13533
▁Run	-13534
▁SDG	-13535
▁Syl	-13536
▁YNH	-13537
▁maj	-13538
▁unb	-13539
digit	-13540
story	-13541
style	-13542
▁Dave	-13543
▁Gall	-13544
▁Lady	-13545
▁Land	-13546
▁SARS	-13547
▁argu	-13548
▁bent	-13549
▁dome	-13550
▁eBay	-13551
▁horn	-13552
▁node	-13553
▁pier	-13554
▁sque	-13555
▁tilt	-13556
▁tire	-13557
Speaks	-13558
consum	-13559
igious	-13560
▁2010.	-13561
▁Beach	-13562
▁Libya	-13563
▁cured	-13564
▁doses	-13565
▁favel	-13566
▁innoc	-13567
▁merch	-13568
▁pragm	-13569
▁spike	-13570
▁swear	-13571
▁watts	-13572
balance	-13573
▁Better	-13574
▁Invest	-13575
▁Listen	-13576
▁Minist	-13577
▁cookie	-13578
▁folded	-13579
▁ruling	-13580
▁spouse	-13581
appiness	-13582
ilibrium	-13583
▁Digital	-13584
▁Getting	-13585
▁Montana	-13586
▁beaches	-13587
▁boiling	-13588
▁cholera	-13589
▁compost	-13590
▁derived	-13591
▁fingert	-13592
▁magnets	-13593
▁mastery	-13594
▁posters	-13595
▁veteran	-13596
ahrenheit	-13597
▁Medicine	-13598
▁arteries	-13599
▁bothered	-13600
▁cerebral	-13601
▁crystals	-13602
▁extremes	-13603
▁guerrill	-13604
▁infinity	-13605
▁jealousy	-13606
▁obtained	-13607
▁smartest	-13608
▁treasure	-13609
▁underway	-13610
▁Instagram	-13611
▁adversity	-13612
▁concluded	-13613
▁coworkers	-13614
▁employers	-13615
▁kilograms	-13616
▁metaphors	-13617
▁neocortex	-13618
▁providers	-13619
▁reconnect	-13620
▁simulated	-13621
▁summarize	-13622
▁collisions	-13623
▁complement	-13624
▁depressing	-13625
▁guidelines	-13626
▁overlooked	-13627
▁prescribed	-13628
▁prevalence	-13629
▁references	-13630
▁registered	-13631
▁supporters	-13632
▁transforms	-13633
▁conclusions	-13634
▁instability	-13635
▁preventable	-13636
▁spontaneous	-13637
▁acceleration	-13638
▁marginalized	-13639
▁nevertheless	-13640
▁prostitution	-13641
▁refrigerator	-13642
▁developmental	-13643
▁intentionally	-13644
▁representatives	-13645
SE	-13646
eor	-13647
erb	-13648
fig	-13649
idi	-13650
nie	-13651
sts	-13652
ugs	-13653
wid	-13654
▁41	-13655
▁PR	-13656
Drum	-13657
bery	-13658
copy	-13659
esty	-13660
lium	-13661
otto	-13662
requ	-13663
ymph	-13664
▁Hot	-13665
▁Les	-13666
▁bay	-13667
▁cum	-13668
▁jaw	-13669
▁zip	-13670
Point	-13671
bucks	-13672
cules	-13673
ocaly	-13674
rying	-13675
sight	-13676
wired	-13677
▁Beat	-13678
▁Cuba	-13679
▁Iron	-13680
▁Pete	-13681
▁Wild	-13682
▁angi	-13683
▁bass	-13684
▁bion	-13685
▁chee	-13686
▁dash	-13687
▁dull	-13688
▁goat	-13689
anship	-13690
▁Exper	-13691
▁Pitts	-13692
▁Prime	-13693
▁Quite	-13694
▁Tower	-13695
▁absor	-13696
▁bribe	-13697
▁dealt	-13698
▁dried	-13699
▁empir	-13700
▁fairy	-13701
▁fetus	-13702
▁fines	-13703
▁flame	-13704
▁flock	-13705
▁goats	-13706
▁loops	-13707
▁lover	-13708
▁reads	-13709
▁relev	-13710
▁relie	-13711
▁reply	-13712
▁theor	-13713
endment	-13714
isecond	-13715
million	-13716
raising	-13717
▁12,000	-13718
▁Bhutan	-13719
▁Dallas	-13720
▁Doctor	-13721
▁balcon	-13722
▁coding	-13723
▁elders	-13724
▁elites	-13725
▁gently	-13726
▁glance	-13727
▁guides	-13728
▁hollow	-13729
▁joyful	-13730
▁liveli	-13731
▁olfact	-13732
▁relent	-13733
▁stated	-13734
▁stitch	-13735
▁thesis	-13736
▁wished	-13737
▁Further	-13738
▁Hawking	-13739
▁Mexican	-13740
▁Service	-13741
▁amplify	-13742
▁calcium	-13743
▁coaches	-13744
▁cracked	-13745
▁extends	-13746
▁flipped	-13747
▁inspect	-13748
▁loyalty	-13749
▁mentors	-13750
▁mineral	-13751
▁nuanced	-13752
▁sapiens	-13753
▁scanned	-13754
ropolitan	-13755
▁Columbus	-13756
▁Hercules	-13757
▁Hundreds	-13758
▁Margaret	-13759
▁Ministry	-13760
▁Portugal	-13761
▁attended	-13762
▁certific	-13763
▁disposal	-13764
▁donation	-13765
▁journeys	-13766
▁marching	-13767
▁miracles	-13768
▁moisture	-13769
▁overload	-13770
▁producer	-13771
▁rainfall	-13772
▁rewarded	-13773
▁scalable	-13774
▁scarcity	-13775
▁severely	-13776
▁stripped	-13777
▁Europeans	-13778
▁Starbucks	-13779
▁attribute	-13780
▁eradicate	-13781
▁inventors	-13782
▁preferred	-13783
▁adventures	-13784
▁assessment	-13785
▁attempting	-13786
▁livelihood	-13787
▁pancreatic	-13788
▁parameters	-13789
▁abstraction	-13790
▁battlefield	-13791
▁exclusively	-13792
▁millisecond	-13793
▁settlements	-13794
▁similarities	-13795
▁transactions	-13796
▁presentations	-13797
▁statistically	-13798
▁underestimate	-13799
Bl	-13800
pm	-13801
wa	-13802
▁/	-13803
ogy	-13804
sea	-13805
ths	-13806
two	-13807
uns	-13808
vet	-13809
▁3-	-13810
▁CM	-13811
▁GS	-13812
▁Lo	-13813
▁Ow	-13814
▁PV	-13815
▁Py	-13816
▁SM	-13817
▁TM	-13818
abel	-13819
arat	-13820
etta	-13821
hear	-13822
isol	-13823
oler	-13824
uate	-13825
▁1.3	-13826
▁13,	-13827
▁EEG	-13828
▁Gam	-13829
▁LHC	-13830
▁Zip	-13831
▁ecl	-13832
▁gel	-13833
▁ion	-13834
▁por	-13835
▁rib	-13836
▁sar	-13837
Afric	-13838
achus	-13839
amily	-13840
ennes	-13841
gling	-13842
inker	-13843
shine	-13844
▁2009	-13845
▁Airb	-13846
▁Buff	-13847
▁Joel	-13848
▁Laur	-13849
▁Mult	-13850
▁Near	-13851
▁Rena	-13852
▁Wolf	-13853
▁blob	-13854
▁carn	-13855
▁fung	-13856
▁hygi	-13857
▁menu	-13858
▁myce	-13859
▁nerd	-13860
▁pine	-13861
▁rept	-13862
▁rows	-13863
▁skys	-13864
▁sums	-13865
▁unin	-13866
▁womb	-13867
abytes	-13868
atized	-13869
govern	-13870
irling	-13871
oulder	-13872
secure	-13873
ussani	-13874
▁Alpha	-13875
▁Cairo	-13876
▁Laden	-13877
▁Vegas	-13878
▁Whole	-13879
▁bands	-13880
▁bonus	-13881
▁centr	-13882
▁choir	-13883
▁drift	-13884
▁enfor	-13885
▁hobby	-13886
▁macro	-13887
▁overt	-13888
▁pixel	-13889
▁prest	-13890
▁rally	-13891
▁rearr	-13892
▁reuse	-13893
▁shuff	-13894
▁sting	-13895
▁tense	-13896
acities	-13897
aghetti	-13898
itorium	-13899
▁Barack	-13900
▁Friend	-13901
▁Norman	-13902
▁benign	-13903
▁bypass	-13904
▁cinema	-13905
▁coined	-13906
▁condem	-13907
▁depict	-13908
▁fluids	-13909
▁hotter	-13910
▁incons	-13911
▁listed	-13912
▁poetic	-13913
▁polite	-13914
▁repurp	-13915
▁wolves	-13916
▁Several	-13917
▁Stewart	-13918
▁adrenal	-13919
▁amateur	-13920
▁capsule	-13921
▁cleared	-13922
▁goddess	-13923
▁lifting	-13924
▁primate	-13925
▁ratings	-13926
▁refined	-13927
▁relaxed	-13928
▁seasons	-13929
▁suburbs	-13930
▁watches	-13931
effective	-13932
▁Colorado	-13933
▁Computer	-13934
▁Giussani	-13935
▁Magazine	-13936
▁alarming	-13937
▁borrowed	-13938
▁crystall	-13939
▁doubling	-13940
▁epilepsy	-13941
▁episodes	-13942
▁immersed	-13943
▁impaired	-13944
▁maneuver	-13945
▁mobilize	-13946
▁mycelium	-13947
▁persever	-13948
▁searched	-13949
▁suicidal	-13950
▁terminal	-13951
▁timeline	-13952
▁ambiguity	-13953
▁cartilage	-13954
▁distorted	-13955
▁extensive	-13956
▁implanted	-13957
▁interfere	-13958
▁logistics	-13959
▁multiplic	-13960
▁offensive	-13961
▁packaging	-13962
▁parasites	-13963
▁preschool	-13964
▁shrinking	-13965
▁withstand	-13966
▁wrestling	-13967
▁Alexandria	-13968
▁Depression	-13969
▁Fahrenheit	-13970
▁Michelange	-13971
▁PowerPoint	-13972
▁antibodies	-13973
▁fulfilling	-13974
▁hypotheses	-13975
▁neurotrans	-13976
▁translator	-13977
▁worthwhile	-13978
▁Renaissance	-13979
▁accelerated	-13980
▁complaining	-13981
▁departments	-13982
▁deprivation	-13983
▁descendants	-13984
▁distraction	-13985
▁intentional	-13986
▁respiratory	-13987
▁scholarship	-13988
▁suggestions	-13989
▁temporarily	-13990
▁manufactured	-13991
▁unimaginable	-13992
▁urbanization	-13993
▁personalities	-13994
▁mathematically	-13995
▁experimentation	-13996
FL	-13997
Fi	-13998
▁+	-13999
New	-14000
dad	-14001
exp	-14002
gue	-14003
lah	-14004
tha	-14005
uma	-14006
▁74	-14007
▁CN	-14008
▁GK	-14009
▁JS	-14010
▁SK	-14011
▁Ut	-14012
▁eu	-14013
asis	-14014
asso	-14015
etts	-14016
nels	-14017
orrh	-14018
week	-14019
ylon	-14020
▁50,	-14021
▁Adm	-14022
▁Dec	-14023
▁Heb	-14024
▁Joy	-14025
▁Muh	-14026
▁Neg	-14027
▁PET	-14028
▁Vis	-14029
▁cel	-14030
▁cof	-14031
▁ger	-14032
▁lex	-14033
▁mol	-14034
▁ray	-14035
▁wob	-14036
Great	-14037
adequ	-14038
aders	-14039
eterm	-14040
idity	-14041
lical	-14042
regon	-14043
stick	-14044
▁1800	-14045
▁Doug	-14046
▁Jama	-14047
▁Mama	-14048
▁Nazi	-14049
▁Neur	-14050
▁Test	-14051
▁bore	-14052
▁fuse	-14053
▁lamb	-14054
▁pity	-14055
▁ruin	-14056
achers	-14057
elsius	-14058
ppling	-14059
repres	-14060
ucking	-14061
ukemia	-14062
▁Build	-14063
▁Costa	-14064
▁Fried	-14065
▁Innov	-14066
▁Kosov	-14067
▁Moses	-14068
▁Sadly	-14069
▁claws	-14070
▁crown	-14071
▁crypt	-14072
▁icons	-14073
▁overf	-14074
▁prone	-14075
▁riots	-14076
▁sells	-14077
▁waist	-14078
atively	-14079
idelity	-14080
istance	-14081
lankton	-14082
ophobia	-14083
rection	-14084
sharing	-14085
▁Bridge	-14086
▁Change	-14087
▁Mathem	-14088
▁Oregon	-14089
▁Sylvia	-14090
▁Tennes	-14091
▁awards	-14092
▁cooler	-14093
▁forens	-14094
▁louder	-14095
▁persec	-14096
▁rabbit	-14097
▁rushed	-14098
▁strang	-14099
▁turtle	-14100
▁yields	-14101
educated	-14102
▁Doctors	-14103
▁Oakland	-14104
▁Snowden	-14105
▁applaud	-14106
▁cleaned	-14107
▁conform	-14108
▁faculty	-14109
▁feather	-14110
▁inadequ	-14111
▁janitor	-14112
▁linking	-14113
▁mindful	-14114
▁morally	-14115
▁shallow	-14116
▁signing	-14117
▁temples	-14118
▁turtles	-14119
▁untouch	-14120
achusetts	-14121
nutrition	-14122
▁Americas	-14123
▁Building	-14124
▁auditory	-14125
▁chapters	-14126
▁congress	-14127
▁flooding	-14128
▁founding	-14129
▁governed	-14130
▁insecure	-14131
▁pristine	-14132
▁suitcase	-14133
▁symphony	-14134
▁tackling	-14135
▁volcanic	-14136
unications	-14137
▁decentral	-14138
▁exclusion	-14139
▁fertility	-14140
▁inability	-14141
▁listeners	-14142
▁marvelous	-14143
▁mythology	-14144
▁necessity	-14145
▁orphanage	-14146
▁resonance	-14147
▁schooling	-14148
▁sequenced	-14149
▁spaghetti	-14150
▁stabilize	-14151
▁submitted	-14152
▁targeting	-14153
▁telomeres	-14154
▁therapeut	-14155
▁voluntary	-14156
▁Especially	-14157
▁beginnings	-14158
▁measurable	-14159
▁motorcycle	-14160
▁obligation	-14161
▁prosperous	-14162
▁reasonably	-14163
▁satisfying	-14164
▁separating	-14165
▁temptation	-14166
▁thankfully	-14167
▁ultrasound	-14168
▁accommodate	-14169
▁forgiveness	-14170
▁inhabitants	-14171
▁radioactive	-14172
▁storyteller	-14173
▁symmetrical	-14174
▁Christianity	-14175
▁Michelangelo	-14176
▁preservation	-14177
▁psychiatrist	-14178
▁regenerative	-14179
▁improvisation	-14180
▁reconstruction	-14181
▁rehabilitation	-14182
▁transformations	-14183
")	-14184
HA	-14185
fi	-14186
400	-14187
aka	-14188
alo	-14189
imm	-14190
ulg	-14191
▁53	-14192
▁54	-14193
▁Ec	-14194
▁IP	-14195
▁NI	-14196
Star	-14197
bury	-14198
comm	-14199
core	-14200
eron	-14201
neum	-14202
uper	-14203
wall	-14204
with	-14205
▁12.	-14206
▁Att	-14207
▁Fer	-14208
▁Lev	-14209
▁Nap	-14210
▁Sty	-14211
▁Syd	-14212
▁Tah	-14213
adder	-14214
arial	-14215
cials	-14216
great	-14217
isive	-14218
ocate	-14219
otent	-14220
third	-14221
unted	-14222
▁Cart	-14223
▁Elon	-14224
▁boil	-14225
▁dwar	-14226
▁orth	-14227
▁outf	-14228
▁owns	-14229
▁pave	-14230
▁writ	-14231
aments	-14232
atable	-14233
icular	-14234
igrade	-14235
ousing	-14236
rophys	-14237
▁Doesn	-14238
▁Flint	-14239
▁Irish	-14240
▁Kelly	-14241
▁Labor	-14242
▁Qaeda	-14243
▁Royal	-14244
▁Stock	-14245
▁autop	-14246
▁bioch	-14247
▁blows	-14248
▁crawl	-14249
▁erase	-14250
▁etern	-14251
▁fatty	-14252
▁hears	-14253
▁nails	-14254
▁nickn	-14255
▁petro	-14256
▁plaus	-14257
▁pools	-14258
▁rainy	-14259
▁recip	-14260
▁scrut	-14261
▁setup	-14262
▁shiny	-14263
▁slope	-14264
▁squid	-14265
▁stole	-14266
▁towel	-14267
▁veins	-14268
▁width	-14269
▁wreck	-14270
cretion	-14271
▁Eighty	-14272
▁Falcon	-14273
▁Warren	-14274
▁Yellow	-14275
▁banana	-14276
▁bloody	-14277
▁brainw	-14278
▁bucket	-14279
▁charts	-14280
▁hacked	-14281
▁impose	-14282
▁intend	-14283
▁pirate	-14284
▁sealed	-14285
▁slogan	-14286
▁sprawl	-14287
▁stakes	-14288
▁unexpl	-14289
▁wander	-14290
▁Celsius	-14291
▁Control	-14292
▁Federal	-14293
▁Patrick	-14294
▁Studies	-14295
▁behaves	-14296
▁catches	-14297
▁charism	-14298
▁execute	-14299
▁hunters	-14300
▁infants	-14301
▁lesbian	-14302
▁pressed	-14303
▁pricing	-14304
▁readily	-14305
▁relying	-14306
▁resting	-14307
▁revenge	-14308
▁strokes	-14309
▁upwards	-14310
efficient	-14311
ographics	-14312
▁Franklin	-14313
▁animated	-14314
▁captures	-14315
▁colleges	-14316
▁composer	-14317
▁graffiti	-14318
▁guessing	-14319
▁husbands	-14320
▁inspires	-14321
▁nonsense	-14322
▁periodic	-14323
▁pinpoint	-14324
▁reactors	-14325
▁resolved	-14326
▁sneakers	-14327
▁tolerate	-14328
resolution	-14329
▁Tennessee	-14330
▁Venezuela	-14331
▁addresses	-14332
▁arthritis	-14333
▁cockroach	-14334
▁fireflies	-14335
▁intrinsic	-14336
▁inventing	-14337
▁surrender	-14338
▁switching	-14339
▁testimony	-14340
▁troubling	-14341
▁workshops	-14342
▁astounding	-14343
▁attachment	-14344
▁blockchain	-14345
▁centimeter	-14346
▁explosions	-14347
▁indicators	-14348
▁introverts	-14349
▁officially	-14350
▁preserving	-14351
▁equilibrium	-14352
▁inexpensive	-14353
▁intuitively	-14354
▁wavelengths	-14355
▁achievements	-14356
▁biologically	-14357
▁commissioned	-14358
▁encyclopedia	-14359
▁interviewing	-14360
▁polarization	-14361
▁Massachusetts	-14362
▁establishment	-14363
Am	-14364
FO	-14365
PT	-14366
Pe	-14367
Un	-14368
aic	-14369
aya	-14370
ded	-14371
enz	-14372
hed	-14373
ulu	-14374
▁DR	-14375
▁GC	-14376
▁IT	-14377
▁LP	-14378
▁Ly	-14379
agle	-14380
arts	-14381
atin	-14382
hall	-14383
iary	-14384
odox	-14385
stan	-14386
star	-14387
▁Ass	-14388
▁Bah	-14389
▁Ban	-14390
▁Bru	-14391
▁Cre	-14392
▁Kle	-14393
▁Lew	-14394
▁gad	-14395
▁pap	-14396
▁rud	-14397
▁upl	-14398
ammad	-14399
cture	-14400
idays	-14401
ilson	-14402
ribes	-14403
watch	-14404
width	-14405
▁Dark	-14406
▁Fred	-14407
▁Kath	-14408
▁Lisa	-14409
▁Mans	-14410
▁Pier	-14411
▁Sixt	-14412
▁Town	-14413
▁aged	-14414
▁boot	-14415
▁bund	-14416
▁crab	-14417
▁extr	-14418
▁feas	-14419
▁gosh	-14420
▁grip	-14421
▁hind	-14422
▁incl	-14423
▁mast	-14424
▁mock	-14425
▁ping	-14426
▁rear	-14427
▁rode	-14428
▁stir	-14429
▁stub	-14430
▁util	-14431
▁whip	-14432
charge	-14433
giving	-14434
houses	-14435
istrib	-14436
ivated	-14437
mother	-14438
obiles	-14439
ourced	-14440
puters	-14441
resses	-14442
social	-14443
uclear	-14444
▁Freud	-14445
▁Model	-14446
▁Paulo	-14447
▁Point	-14448
▁cough	-14449
▁curse	-14450
▁drums	-14451
▁dwell	-14452
▁exile	-14453
▁fills	-14454
▁flush	-14455
▁lemon	-14456
▁parag	-14457
▁queer	-14458
▁shred	-14459
▁sunny	-14460
▁sword	-14461
▁vents	-14462
aterial	-14463
inceton	-14464
massive	-14465
passion	-14466
pically	-14467
solving	-14468
▁Buddha	-14469
▁Commun	-14470
▁Engine	-14471
▁Garden	-14472
▁Poland	-14473
▁Police	-14474
▁Sydney	-14475
▁Wonder	-14476
▁angels	-14477
▁colder	-14478
▁darker	-14479
▁fishes	-14480
▁judged	-14481
▁lasers	-14482
▁modify	-14483
▁oftent	-14484
▁poorer	-14485
▁redund	-14486
▁refers	-14487
▁replen	-14488
▁singer	-14489
▁strive	-14490
▁tennis	-14491
▁vastly	-14492
▁Believe	-14493
▁Bitcoin	-14494
▁Madison	-14495
▁Working	-14496
▁bananas	-14497
▁charter	-14498
▁collide	-14499
▁coupled	-14500
▁crosses	-14501
▁durable	-14502
▁elastic	-14503
▁encoded	-14504
▁epidemi	-14505
▁exhilar	-14506
▁fleeing	-14507
▁imposed	-14508
▁legitim	-14509
▁satisfy	-14510
▁skyscra	-14511
▁spotted	-14512
astically	-14513
ependence	-14514
ventional	-14515
▁Brothers	-14516
▁bankrupt	-14517
▁constell	-14518
▁contacts	-14519
▁declined	-14520
▁demanded	-14521
▁depended	-14522
▁destined	-14523
▁emergent	-14524
▁ensuring	-14525
▁flashing	-14526
▁gasoline	-14527
▁leukemia	-14528
▁predicts	-14529
▁princess	-14530
▁secondly	-14531
▁sensible	-14532
▁shortage	-14533
▁sickness	-14534
▁steering	-14535
▁sweeping	-14536
▁warriors	-14537
▁Norwegian	-14538
▁Princeton	-14539
▁adaptable	-14540
▁developer	-14541
▁diplomacy	-14542
▁discourse	-14543
▁dismissed	-14544
▁exquisite	-14545
▁filmmaker	-14546
▁indicator	-14547
▁ingenious	-14548
▁institute	-14549
▁intensely	-14550
▁superhero	-14551
▁suspected	-14552
appropriate	-14553
▁classmates	-14554
▁conspiracy	-14555
▁encounters	-14556
▁geographic	-14557
▁multiplied	-14558
▁oftentimes	-14559
▁positively	-14560
▁practition	-14561
▁pretending	-14562
▁rebuilding	-14563
▁reflective	-14564
▁starvation	-14565
▁substitute	-14566
▁adolescents	-14567
▁anticipated	-14568
▁determining	-14569
▁distinctive	-14570
▁immortality	-14571
▁manipulated	-14572
▁negotiating	-14573
▁rainforests	-14574
▁requirement	-14575
▁superpowers	-14576
▁arrangements	-14577
▁dictatorship	-14578
▁dictionaries	-14579
▁malnutrition	-14580
▁quantitative	-14581
▁corresponding	-14582
▁understandable	-14583
AA	-14584
Get	-14585
bee	-14586
ffe	-14587
fol	-14588
pit	-14589
▁'8	-14590
▁8,	-14591
▁RM	-14592
arms	-14593
atis	-14594
bell	-14595
flow	-14596
obos	-14597
quer	-14598
rets	-14599
rina	-14600
soon	-14601
umen	-14602
uten	-14603
wear	-14604
ylan	-14605
zuri	-14606
▁16-	-14607
▁Bad	-14608
▁Dal	-14609
▁Hun	-14610
▁Jam	-14611
▁Row	-14612
▁Tai	-14613
[...]
