<unk>	0
<s>	0
</s>	0
<pad>	0
то	-0
▁п	-1
▁в	-2
▁с	-3
▁н	-4
▁и	-5
но	-6
ст	-7
▁о	-8
ен	-9
ра	-10
▁м	-11
ко	-12
ро	-13
ли	-14
▁д	-15
▁по	-16
▁на	-17
ет	-18
го	-19
▁ч	-20
ть	-21
ни	-22
ка	-23
ре	-24
▁б	-25
ль	-26
ва	-27
те	-28
ри	-29
та	-30
ло	-31
ны	-32
ла	-33
▁э	-34
на	-35
▁не	-36
во	-37
за	-38
▁что	-39
ем	-40
да	-41
▁ко	-42
ся	-43
▁у	-44
ени	-45
ти	-46
ер	-47
ле	-48
ди	-49
ки	-50
▁это	-51
де	-52
ми	-53
▁ра	-54
▁про	-55
ру	-56
▁мо	-57
ви	-58
▁за	-59
▁ка	-60
мо	-61
▁то	-62
▁бы	-63
▁е	-64
ля	-65
▁я	-66
▁к	-67
ма	-68
▁со	-69
бо	-70
хо	-71
▁вы	-72
▁во	-73
не	-74
ры	-75
чи	-76
ча	-77
▁до	-78
ци	-79
до	-80
же	-81
▁мы	-82
▁при	-83
сь	-84
▁из	-85
▁от	-86
▁об	-87
▁В	-88
ей	-89
▁И	-90
ве	-91
лю	-92
по	-93
▁та	-94
жи	-95
ме	-96
▁вс	-97
▁Н	-98
сть	-99
▁а	-100
сто	-101
ду	-102
че	-103
сти	-104
ши	-105
ют	-106
▁з	-107
▁кото	-108
▁го	-109
ги	-110
ста	-111
▁как	-112
лу	-113
му	-114
▁г	-115
▁т	-116
▁те	-117
▁М	-118
со	-119
▁—	-120
▁П	-121
щи	-122
▁бо	-123
ну	-124
си	-125
мен	-126
льно	-127
жно	-128
ения	-129
▁О	-130
ше	-131
▁но	-132
гда	-133
ные	-134
▁С	-135
▁раз	-136
▁ва	-137
▁ре	-138
га	-139
▁Э	-140
ку	-141
па	-142
▁К	-143
ты	-144
ных	-145
вы	-146
▁пре	-147
ере	-148
бы	-149
▁лю	-150
▁«	-151
ско	-152
▁Я	-153
ение	-154
ня	-155
ень	-156
ту	-157
ной	-158
▁которы	-159
▁де	-160
ще	-161
вать	-162
▁ми	-163
▁все	-164
ств	-165
▁ф	-166
ется	-167
зо	-168
ного	-169
▁Т	-170
▁да	-171
ски	-172
▁для	-173
▁ни	-174
▁Это	-175
сли	-176
▁хо	-177
▁так	-178
▁са	-179
ство	-180
▁ме	-181
ный	-182
▁ис	-183
▁Д	-184
▁(	-185
ря	-186
▁ма	-187
са	-188
▁жи	-189
жа	-190
▁ве	-191
▁сво	-192
▁они	-193
ете	-194
ды	-195
▁А	-196
лько	-197
▁бу	-198
▁се	-199
ться	-200
каза	-201
▁ста	-202
▁ин	-203
▁ви	-204
би	-205
▁си	-206
мы	-207
▁дру	-208
▁Но	-209
▁зна	-210
зы	-211
ак	-212
▁ли	-213
вер	-214
▁По	-215
пи	-216
ша	-217
це	-218
▁чтобы	-219
▁боль	-220
вани	-221
сле	-222
лет	-223
▁ст	-224
▁под	-225
▁мож	-226
▁эти	-227
про	-228
▁же	-229
▁или	-230
▁рабо	-231
зи	-232
тому	-233
▁их	-234
▁Мы	-235
об	-236
тся	-237
▁когда	-238
ров	-239
▁воз	-240
ке	-241
▁мен	-242
ему	-243
чно	-244
▁бе	-245
пе	-246
▁пере	-247
мер	-248
ным	-249
▁нас	-250
▁рас	-251
вля	-252
ходи	-253
▁1	-254
▁он	-255
гу	-256
ная	-257
тель	-258
▁од	-259
лы	-260
▁па	-261
нима	-262
▁че	-263
▁Б	-264
тельно	-265
ющи	-266
▁меня	-267
▁если	-268
ор	-269
бе	-270
▁было	-271
зу	-272
чески	-273
гра	-274
ции	-275
▁пред	-276
енно	-277
▁дол	-278
▁есть	-279
ства	-280
▁вре	-281
▁На	-282
чень	-283
▁которые	-284
дела	-285
».	-286
▁его	-287
▁Е	-288
ву	-289
се	-290
▁ча	-291
ща	-292
жен	-293
дей	-294
зна	-295
су	-296
нов	-297
ят	-298
▁очень	-299
мех	-300
пра	-301
дет	-302
вет	-303
▁всё	-304
▁кон	-305
лове	-306
▁ро	-307
▁су	-308
ба	-309
стви	-310
▁пра	-311
Смех	-312
00	-313
ран	-314
кой	-315
▁жиз	-316
ние	-317
пу	-318
▁врем	-319
тов	-320
▁прои	-321
ются	-322
▁гово	-323
лись	-324
▁само	-325
▁лет	-326
зда	-327
ния	-328
▁сдела	-329
▁дела	-330
▁нам	-331
▁мне	-332
▁сто	-333
▁ду	-334
▁челове	-335
▁только	-336
▁Во	-337
▁ну	-338
зыва	-339
ную	-340
ём	-341
лось	-342
ное	-343
▁обра	-344
ром	-345
сту	-346
▁сло	-347
ска	-348
▁созда	-349
лем	-350
▁З	-351
▁-	-352
▁2	-353
▁каж	-354
логи	-355
▁был	-356
пер	-357
лее	-358
▁ком	-359
▁том	-360
ству	-361
ью	-362
▁испо	-363
ек	-364
мот	-365
щё	-366
▁Ко	-367
можно	-368
▁стра	-369
▁У	-370
▁людей	-371
лся	-372
дин	-373
ком	-374
▁ш	-375
▁полу	-376
▁работа	-377
ными	-378
▁чем	-379
▁потому	-380
▁быть	-381
сно	-382
▁сказа	-383
тив	-384
▁она	-385
▁помо	-386
ков	-387
ха	-388
▁может	-389
▁того	-390
ёт	-391
ца	-392
▁Ч	-393
пло	-394
▁больше	-395
▁дума	-396
▁исполь	-397
ствен	-398
▁ле	-399
рет	-400
дь	-401
стро	-402
▁просто	-403
ён	-404
фи	-405
..	-406
▁после	-407
лен	-408
том	-409
▁вам	-410
стоя	-411
он	-412
▁спо	-413
▁слу	-414
пы	-415
▁наш	-416
при	-417
▁им	-418
цен	-419
▁этого	-420
менты	-421
шь	-422
соб	-423
▁тех	-424
▁Р	-425
▁му	-426
чу	-427
▁пер	-428
▁Г	-429
ном	-430
▁этом	-431
бу	-432
шо	-433
▁Они	-434
▁нача	-435
бя	-436
зво	-437
сте	-438
▁ещё	-439
▁пла	-440
▁могу	-441
▁дет	-442
сы	-443
▁были	-444
▁пу	-445
пре	-446
ан	-447
▁время	-448
▁где	-449
▁ку	-450
дя	-451
▁её	-452
вя	-453
вания	-454
▁исто	-455
вали	-456
лась	-457
▁который	-458
ческо	-459
ность	-460
ция	-461
▁была	-462
▁Л	-463
▁говори	-464
▁люди	-465
▁таки	-466
▁други	-467
▁ди	-468
луч	-469
▁х	-470
▁более	-471
▁вас	-472
▁которо	-473
ления	-474
▁проб	-475
ении	-476
лли	-477
▁можно	-478
▁возможно	-479
нь	-480
вой	-481
▁инте	-482
▁оста	-483
жу	-484
дер	-485
ар	-486
дис	-487
▁буду	-488
▁много	-489
кры	-490
▁Он	-491
▁пи	-492
спе	-493
▁Так	-494
▁них	-495
плодис	-496
плодисменты	-497
рии	-498
час	-499
вые	-500
▁будет	-501
фор	-502
ейчас	-503
▁Если	-504
▁ты	-505
дите	-506
▁вот	-507
йте	-508
жда	-509
▁Вы	-510
▁даже	-511
▁фи	-512
▁свои	-513
▁этот	-514
Аплодисменты	-515
▁Не	-516
ших	-517
▁вер	-518
ности	-519
год	-520
▁вз	-521
▁сле	-522
жны	-523
нии	-524
кра	-525
десь	-526
▁нужно	-527
▁чу	-528
▁проблем	-529
жд	-530
▁вопро	-531
▁дей	-532
смот	-533
▁уже	-534
ений	-535
▁кто	-536
▁поч	-537
▁жизни	-538
▁себя	-539
▁Мо	-540
ально	-541
дели	-542
ван	-543
ление	-544
▁мог	-545
▁этой	-546
клю	-547
▁нет	-548
она	-549
▁жен	-550
▁мно	-551
рая	-552
торы	-553
▁"	-554
гля	-555
▁тем	-556
ней	-557
▁име	-558
▁це	-559
вить	-560
вых	-561
▁поня	-562
▁всего	-563
лей	-564
▁предста	-565
▁сист	-566
спо	-567
вание	-568
▁сделать	-569
аль	-570
▁луч	-571
нет	-572
вая	-573
сло	-574
▁Вот	-575
этому	-576
сколько	-577
▁сре	-578
ровать	-579
▁Да	-580
чита	-581
▁также	-582
▁милли	-583
следо	-584
мени	-585
▁иде	-586
▁можем	-587
▁объ	-588
▁смо	-589
ети	-590
▁пока	-591
нее	-592
ходит	-593
▁ру	-594
▁ор	-595
▁Что	-596
▁друго	-597
йти	-598
▁могут	-599
чина	-600
кт	-601
▁Как	-602
чь	-603
▁день	-604
▁действи	-605
обра	-606
дов	-607
цию	-608
▁хоро	-609
▁использо	-610
▁Х	-611
▁образо	-612
ению	-613
ника	-614
цы	-615
жду	-616
бра	-617
▁один	-618
▁би	-619
▁способ	-620
годня	-621
▁дан	-622
▁Когда	-623
▁сейчас	-624
ять	-625
▁суще	-626
▁здесь	-627
▁чи	-628
менно	-629
▁ско	-630
тя	-631
хи	-632
дума	-633
▁этих	-634
перь	-635
ден	-636
▁женщи	-637
нут	-638
руп	-639
вый	-640
▁Ка	-641
нологи	-642
кто	-643
чение	-644
паси	-645
▁всех	-646
▁проис	-647
тра	-648
▁ту	-649
▁случа	-650
▁кра	-651
вал	-652
пасибо	-653
▁свя	-654
▁нау	-655
▁пол	-656
▁орга	-657
▁которая	-658
стра	-659
▁самы	-660
ний	-661
вно	-662
емы	-663
▁То	-664
▁должны	-665
ге	-666
▁вос	-667
▁получи	-668
дно	-669
▁пе	-670
▁гла	-671
жения	-672
гла	-673
ющих	-674
кру	-675
▁моз	-676
▁3	-677
лом	-678
▁ответ	-679
щей	-680
ением	-681
▁хоте	-682
▁уви	-683
▁За	-684
сси	-685
»,	-686
▁самом	-687
ерез	-688
▁исследо	-689
▁прави	-690
ход	-691
вает	-692
▁явля	-693
▁чув	-694
▁горо	-695
▁кар	-696
▁вме	-697
тер	-698
бира	-699
форма	-700
ступ	-701
кти	-702
вед	-703
жение	-704
▁технологи	-705
▁сем	-706
ена	-707
▁понима	-708
которы	-709
▁–	-710
кое	-711
деть	-712
ющие	-713
▁обще	-714
вто	-715
...	-716
стью	-717
сов	-718
▁дви	-719
дый	-720
▁деле	-721
▁называ	-722
кан	-723
дел	-724
кие	-725
дом	-726
▁без	-727
ья	-728
рия	-729
▁Она	-730
▁гра	-731
▁себе	-732
▁эк	-733
▁многи	-734
▁между	-735
▁позво	-736
лаго	-737
▁Бо	-738
▁зада	-739
щу	-740
▁там	-741
▁послед	-742
сс	-743
▁показа	-744
так	-745
▁наши	-746
▁эта	-747
▁хочу	-748
▁эту	-749
▁жизнь	-750
▁голо	-751
▁через	-752
▁откры	-753
▁сов	-754
нечно	-755
зад	-756
мери	-757
▁фо	-758
стве	-759
вра	-760
▁счита	-761
▁эко	-762
ены	-763
▁назад	-764
вают	-765
пример	-766
▁мате	-767
▁пот	-768
сты	-769
▁реш	-770
▁Та	-771
пол	-772
▁года	-773
▁органи	-774
▁интере	-775
шу	-776
мент	-777
ственно	-778
▁опре	-779
нер	-780
рую	-781
бли	-782
▁отно	-783
▁Ф	-784
▁разви	-785
▁информа	-786
▁над	-787
тия	-788
▁ос	-789
льта	-790
▁поли	-791
▁использу	-792
▁подо	-793
кую	-794
▁году	-795
емо	-796
▁ки	-797
бой	-798
шие	-799
▁ц	-800
▁мире	-801
▁20	-802
▁можете	-803
стя	-804
щее	-805
▁поло	-806
юсь	-807
▁пы	-808
писа	-809
▁мои	-810
▁думаю	-811
▁сегодня	-812
▁следу	-813
ит	-814
▁одна	-815
шин	-816
лия	-817
нить	-818
его	-819
емся	-820
▁несколько	-821
▁пример	-822
▁человек	-823
шего	-824
▁Итак	-825
рав	-826
ник	-827
▁ла	-828
▁измени	-829
▁5	-830
рабо	-831
▁сер	-832
вле	-833
▁фор	-834
▁которых	-835
▁сказал	-836
▁Спасибо	-837
▁мир	-838
нови	-839
▁ба	-840
▁реши	-841
▁действительно	-842
▁♫	-843
тем	-844
▁значи	-845
чения	-846
грам	-847
кого	-848
лле	-849
▁делать	-850
ман	-851
тно	-852
стре	-853
зульта	-854
ких	-855
▁цен	-856
чество	-857
▁Те	-858
▁этим	-859
▁ри	-860
▁поя	-861
▁времени	-862
▁пло	-863
▁Со	-864
гово	-865
▁пар	-866
?»	-867
кла	-868
ёл	-869
кон	-870
дол	-871
▁расс	-872
ской	-873
▁шко	-874
нова	-875
ёр	-876
▁некоторы	-877
роят	-878
рен	-879
▁проце	-880
▁сторо	-881
▁два	-882
▁необ	-883
ческие	-884
блю	-885
дить	-886
▁обе	-887
▁тру	-888
номи	-889
▁результа	-890
тро	-891
вое	-892
▁каждый	-893
прав	-894
▁га	-895
ким	-896
ваться	-897
▁компа	-898
дит	-899
▁измен	-900
▁4	-901
▁19	-902
реть	-903
личи	-904
дар	-905
▁ней	-906
лё	-907
▁лучше	-908
лез	-909
▁проек	-910
▁пыта	-911
▁ша	-912
▁важно	-913
ета	-914
▁других	-915
▁уча	-916
▁три	-917
▁происходит	-918
▁фото	-919
ствует	-920
ружи	-921
▁нико	-922
что	-923
▁комп	-924
▁получа	-925
▁начина	-926
▁Од	-927
ющий	-928
▁человека	-929
▁осно	-930
кая	-931
ческих	-932
▁необходи	-933
▁всегда	-934
▁вопрос	-935
цев	-936
▁ры	-937
▁почему	-938
рой	-939
шей	-940
фек	-941
▁Поэтому	-942
▁ог	-943
чего	-944
яс	-945
▁учи	-946
▁уч	-947
▁теле	-948
графи	-949
▁детей	-950
ками	-951
▁Про	-952
▁благо	-953
вайте	-954
▁смот	-955
еть	-956
стру	-957
▁которой	-958
кту	-959
▁обо	-960
▁нашей	-961
ках	-962
▁помощ	-963
000	-964
▁обла	-965
шло	-966
еты	-967
▁именно	-968
вого	-969
▁спра	-970
щая	-971
▁энер	-972
стран	-973
▁уров	-974
▁своей	-975
▁груп	-976
ин	-977
▁Все	-978
лень	-979
пла	-980
▁Ин	-981
▁узна	-982
▁ци	-983
рить	-984
жет	-985
ним	-986
род	-987
▁10	-988
▁изу	-989
проси	-990
▁соб	-991
ходя	-992
▁авто	-993
▁буд	-994
▁никогда	-995
▁иг	-996
дим	-997
▁тре	-998
▁образом	-999
рь	-1000
▁сказать	-1001
▁посмот	-1002
▁нем	-1003
▁доста	-1004
гли	-1005
▁Ра	-1006
▁находи	-1007
▁могли	-1008
▁свою	-1009
рите	-1010
чки	-1011
лага	-1012
верх	-1013
▁продол	-1014
▁лишь	-1015
фе	-1016
▁вместе	-1017
вала	-1018
ене	-1019
▁совер	-1020
щего	-1021
чные	-1022
▁занима	-1023
цион	-1024
▁высо	-1025
ческой	-1026
нуть	-1027
▁При	-1028
ских	-1029
▁него	-1030
▁является	-1031
ключа	-1032
▁экономи	-1033
вест	-1034
▁обы	-1035
▁мой	-1036
шим	-1037
▁тра	-1038
▁такой	-1039
ред	-1040
дель	-1041
ская	-1042
▁дву	-1043
▁пос	-1044
▁муж	-1045
▁малень	-1046
▁которую	-1047
тить	-1048
ников	-1049
имо	-1050
▁систем	-1051
обще	-1052
чной	-1053
▁будут	-1054
▁Одна	-1055
шая	-1056
▁коли	-1057
▁огром	-1058
▁теперь	-1059
▁перед	-1060
рию	-1061
▁ска	-1062
ники	-1063
цо	-1064
чных	-1065
▁каждо	-1066
▁такие	-1067
▁фак	-1068
вести	-1069
▁моей	-1070
▁сред	-1071
▁тыся	-1072
▁сот	-1073
▁уда	-1074
▁тот	-1075
▁тогда	-1076
▁часть	-1077
▁которое	-1078
▁обна	-1079
став	-1080
сит	-1081
лект	-1082
▁всем	-1083
жна	-1084
вается	-1085
▁компью	-1086
телей	-1087
▁Хо	-1088
фри	-1089
стей	-1090
ффек	-1091
▁свет	-1092
▁произво	-1093
щем	-1094
▁говоря	-1095
▁програм	-1096
лов	-1097
ший	-1098
ставля	-1099
▁ге	-1100
▁прав	-1101
мина	-1102
жать	-1103
▁большо	-1104
▁внима	-1105
▁Ш	-1106
диви	-1107
кро	-1108
рован	-1109
ША	-1110
ского	-1111
▁друг	-1112
раз	-1113
мента	-1114
▁истории	-1115
▁США	-1116
кус	-1117
▁кро	-1118
сем	-1119
али	-1120
сом	-1121
цу	-1122
фо	-1123
чить	-1124
сса	-1125
льные	-1126
▁дости	-1127
▁полити	-1128
кий	-1129
▁поэтому	-1130
▁ти	-1131
▁одно	-1132
точно	-1133
еди	-1134
ческий	-1135
▁использовать	-1136
▁наших	-1137
▁наз	-1138
▁слова	-1139
▁хоти	-1140
▁уг	-1141
▁расска	-1142
▁внут	-1143
▁Мне	-1144
▁кни	-1145
▁здо	-1146
▁другой	-1147
теля	-1148
▁части	-1149
▁момент	-1150
▁например	-1151
рю	-1152
▁виде	-1153
▁энерги	-1154
ций	-1155
▁элект	-1156
▁мира	-1157
▁потом	-1158
▁кли	-1159
▁окру	-1160
▁пря	-1161
▁миллио	-1162
▁собира	-1163
▁живо	-1164
▁место	-1165
▁понять	-1166
нд	-1167
▁конечно	-1168
▁подума	-1169
мой	-1170
▁наде	-1171
ток	-1172
циона	-1173
▁знаю	-1174
льной	-1175
▁глу	-1176
▁таких	-1177
▁ничего	-1178
лыша	-1179
мати	-1180
три	-1181
ский	-1182
▁другие	-1183
▁похо	-1184
коло	-1185
ню	-1186
ётся	-1187
▁выгля	-1188
▁свой	-1189
▁долла	-1190
▁--	-1191
▁ло	-1192
▁любо	-1193
▁Ма	-1194
▁осо	-1195
▁отнош	-1196
воз	-1197
нем	-1198
▁Ва	-1199
▁игра	-1200
▁тоже	-1201
вым	-1202
▁соци	-1203
ствовать	-1204
сла	-1205
ях	-1206
ешь	-1207
▁случае	-1208
▁особ	-1209
▁пор	-1210
▁зву	-1211
▁проблема	-1212
▁хорошо	-1213
вод	-1214
▁вещи	-1215
▁произо	-1216
▁важ	-1217
▁приш	-1218
деля	-1219
▁затем	-1220
▁эффек	-1221
ностью	-1222
▁одной	-1223
бор	-1224
▁Для	-1225
▁год	-1226
дёт	-1227
▁ар	-1228
чный	-1229
жем	-1230
▁Се	-1231
▁людя	-1232
▁чего	-1233
ск	-1234
вую	-1235
▁немного	-1236
▁видите	-1237
нно	-1238
рави	-1239
мет	-1240
▁меся	-1241
▁матери	-1242
▁подоб	-1243
▁язы	-1244
▁защи	-1245
ческого	-1246
тели	-1247
▁выра	-1248
правля	-1249
▁нео	-1250
сколь	-1251
▁забо	-1252
▁успе	-1253
дать	-1254
туа	-1255
▁кла	-1256
▁уни	-1257
▁найти	-1258
ктив	-1259
▁поддер	-1260
▁000	-1261
▁моло	-1262
▁стать	-1263
ун	-1264
▁наблю	-1265
нять	-1266
▁часто	-1267
тие	-1268
рения	-1269
▁стал	-1270
▁знаем	-1271
▁ему	-1272
▁зем	-1273
▁сту	-1274
скую	-1275
▁рассказа	-1276
▁стро	-1277
▁заме	-1278
мя	-1279
ские	-1280
▁люби	-1281
ждения	-1282
поло	-1283
▁6	-1284
ством	-1285
▁места	-1286
▁маши	-1287
▁Теперь	-1288
▁снова	-1289
▁био	-1290
▁живот	-1291
▁кри	-1292
строй	-1293
▁реб	-1294
▁поль	-1295
▁оно	-1296
льных	-1297
▁ги	-1298
▁такое	-1299
▁работы	-1300
▁реально	-1301
чает	-1302
▁помощью	-1303
▁Ве	-1304
ить	-1305
▁T	-1306
▁вра	-1307
▁тво	-1308
нец	-1309
▁мень	-1310
ье	-1311
▁вне	-1312
зя	-1313
работа	-1314
▁извест	-1315
▁проблемы	-1316
ступа	-1317
▁Ни	-1318
бора	-1319
▁сли	-1320
щения	-1321
нах	-1322
чен	-1323
▁работу	-1324
▁обнаружи	-1325
дра	-1326
▁мас	-1327
▁колле	-1328
▁своих	-1329
жды	-1330
ствие	-1331
ющей	-1332
▁меди	-1333
▁мест	-1334
шком	-1335
▁тер	-1336
▁знаете	-1337
зе	-1338
▁тому	-1339
чему	-1340
слу	-1341
казыва	-1342
тки	-1343
льный	-1344
▁пов	-1345
▁дома	-1346
тор	-1347
▁создать	-1348
▁обу	-1349
льту	-1350
▁Эти	-1351
▁вза	-1352
чества	-1353
нали	-1354
▁доро	-1355
▁[	-1356
▁прекра	-1357
▁долларов	-1358
▁некоторые	-1359
▁самое	-1360
▁взгля	-1361
▁насе	-1362
▁сами	-1363
▁около	-1364
жить	-1365
ита	-1366
▁бли	-1367
▁возможность	-1368
нок	-1369
рим	-1370
▁сча	-1371
мерикан	-1372
▁почти	-1373
▁многие	-1374
▁большин	-1375
ствия	-1376
▁ан	-1377
▁настоя	-1378
ёз	-1379
▁интер	-1380
▁ж	-1381
▁необходимо	-1382
▁спе	-1383
▁До	-1384
боль	-1385
▁смер	-1386
▁стран	-1387
волю	-1388
▁сек	-1389
той	-1390
▁моя	-1391
▁значит	-1392
▁соверш	-1393
▁вол	-1394
▁позволя	-1395
▁кор	-1396
из	-1397
будь	-1398
роде	-1399
▁убе	-1400
▁связа	-1401
прави	-1402
▁спу	-1403
▁состоя	-1404
▁потре	-1405
▁смы	-1406
▁спа	-1407
нен	-1408
▁Зем	-1409
ьте	-1410
▁станови	-1411
▁надо	-1412
▁фотографи	-1413
пера	-1414
щих	-1415
жении	-1416
нию	-1417
гре	-1418
▁вла	-1419
▁музы	-1420
циен	-1421
▁вой	-1422
▁безо	-1423
▁вели	-1424
▁влия	-1425
▁оказа	-1426
▁ситуа	-1427
▁сложно	-1428
▁дере	-1429
▁клет	-1430
▁идея	-1431
▁отли	-1432
▁людям	-1433
▁сте	-1434
▁8	-1435
".	-1436
вом	-1437
▁физи	-1438
тами	-1439
▁две	-1440
▁миллиар	-1441
сё	-1442
рова	-1443
▁конце	-1444
▁Са	-1445
нами	-1446
▁двух	-1447
▁Потому	-1448
▁хи	-1449
▁озна	-1450
▁стре	-1451
ногда	-1452
▁недо	-1453
▁какой	-1454
▁написа	-1455
▁Боль	-1456
▁работать	-1457
▁Лю	-1458
▁мозга	-1459
пасно	-1460
▁слишком	-1461
▁причи	-1462
▁данные	-1463
▁искус	-1464
▁взаимо	-1465
▁помога	-1466
лан	-1467
▁дело	-1468
▁деся	-1469
пыта	-1470
▁количество	-1471
нибудь	-1472
▁ведь	-1473
▁должен	-1474
щие	-1475
▁особенно	-1476
щение	-1477
▁9	-1478
бро	-1479
рит	-1480
▁собствен	-1481
▁культу	-1482
даря	-1483
рё	-1484
▁учё	-1485
от	-1486
▁хотел	-1487
▁кажется	-1488
▁уве	-1489
▁миллионов	-1490
зай	-1491
▁Афри	-1492
▁спроси	-1493
▁Нам	-1494
▁интерес	-1495
▁представ	-1496
ском	-1497
ряд	-1498
▁ум	-1499
зации	-1500
▁изобра	-1501
▁согла	-1502
▁основ	-1503
ствуют	-1504
0-	-1505
▁200	-1506
ваем	-1507
▁прово	-1508
▁ше	-1509
рон	-1510
дии	-1511
▁кру	-1512
▁бра	-1513
▁своего	-1514
стой	-1515
▁таким	-1516
▁Сейчас	-1517
▁распро	-1518
вид	-1519
▁увер	-1520
▁стали	-1521
▁работает	-1522
▁говорит	-1523
▁течение	-1524
▁7	-1525
дой	-1526
▁слож	-1527
▁Ну	-1528
▁неве	-1529
▁увидеть	-1530
▁Воз	-1531
▁дово	-1532
▁быстро	-1533
▁болез	-1534
тельные	-1535
зне	-1536
▁прямо	-1537
чать	-1538
▁планет	-1539
▁От	-1540
рами	-1541
▁вид	-1542
▁постоя	-1543
▁пациен	-1544
ил	-1545
▁экспе	-1546
▁всему	-1547
▁робо	-1548
▁объяс	-1549
▁контро	-1550
▁Го	-1551
▁четы	-1552
пыт	-1553
▁друга	-1554
▁собой	-1555
▁Пер	-1556
▁весь	-1557
▁этому	-1558
▁технологии	-1559
▁видео	-1560
▁ради	-1561
льного	-1562
▁разли	-1563
▁Дж	-1564
жде	-1565
▁ху	-1566
▁оче	-1567
▁сти	-1568
зм	-1569
▁доступ	-1570
▁достаточно	-1571
▁проду	-1572
ут	-1573
▁поте	-1574
▁женщин	-1575
▁сол	-1576
▁постро	-1577
ёте	-1578
▁глав	-1579
▁коро	-1580
▁изменить	-1581
вили	-1582
▁усло	-1583
▁филь	-1584
ните	-1585
▁диа	-1586
▁зо	-1587
ваю	-1588
▁появи	-1589
щую	-1590
▁система	-1591
круг	-1592
▁удиви	-1593
▁дизай	-1594
мся	-1595
фер	-1596
▁прош	-1597
▁Однако	-1598
ванием	-1599
▁микро	-1600
▁говорить	-1601
ерт	-1602
ремен	-1603
▁уста	-1604
▁точно	-1605
▁города	-1606
▁коман	-1607
▁сме	-1608
▁представля	-1609
них	-1610
▁спосо	-1611
сили	-1612
жида	-1613
▁одного	-1614
кам	-1615
▁оке	-1616
▁многих	-1617
▁лег	-1618
либо	-1619
нения	-1620
▁миру	-1621
▁меньше	-1622
еха	-1623
▁свобо	-1624
цией	-1625
▁зави	-1626
▁Давайте	-1627
▁мозг	-1628
нача	-1629
щий	-1630
ваются	-1631
▁множе	-1632
▁практи	-1633
тах	-1634
▁чём	-1635
▁инстру	-1636
▁экспери	-1637
▁бед	-1638
▁вто	-1639
▁наше	-1640
▁принима	-1641
▁Почему	-1642
нан	-1643
▁хотя	-1644
кар	-1645
рий	-1646
▁ск	-1647
▁системы	-1648
роятно	-1649
▁закон	-1650
ез	-1651
▁котором	-1652
▁пои	-1653
ходят	-1654
▁семь	-1655
▁карти	-1656
▁простран	-1657
делён	-1658
▁совсем	-1659
▁попа	-1660
▁новые	-1661
мети	-1662
▁спи	-1663
▁внимание	-1664
▁вокруг	-1665
▁показыва	-1666
▁дети	-1667
ленно	-1668
▁Всё	-1669
▁скоро	-1670
▁впер	-1671
▁призна	-1672
дьми	-1673
▁нашего	-1674
хва	-1675
▁верну	-1676
▁неболь	-1677
него	-1678
пусти	-1679
▁людьми	-1680
▁имеет	-1681
▁ощу	-1682
▁возра	-1683
▁медици	-1684
▁друз	-1685
▁говорят	-1686
▁помочь	-1687
льное	-1688
▁ново	-1689
мов	-1690
вро	-1691
тят	-1692
▁ваш	-1693
▁встре	-1694
▁должно	-1695
▁осозна	-1696
▁правитель	-1697
▁оп	-1698
▁совершенно	-1699
▁наи	-1700
▁мене	-1701
▁мужчи	-1702
▁поко	-1703
руд	-1704
▁бес	-1705
▁чер	-1706
▁Есть	-1707
▁предо	-1708
им	-1709
нные	-1710
ваний	-1711
грани	-1712
▁тут	-1713
▁ю	-1714
▁кого	-1715
сут	-1716
шую	-1717
▁еще	-1718
ум	-1719
▁един	-1720
▁окружа	-1721
▁сы	-1722
вании	-1723
▁Этот	-1724
▁гото	-1725
▁фун	-1726
рёх	-1727
▁начали	-1728
▁сам	-1729
▁насто	-1730
▁существует	-1731
▁пара	-1732
▁самых	-1733
▁ей	-1734
▁довольно	-1735
▁исследования	-1736
▁страны	-1737
▁превра	-1738
льше	-1739
пита	-1740
▁решения	-1741
▁ужа	-1742
▁услови	-1743
▁история	-1744
▁15	-1745
гие	-1746
▁стру	-1747
▁глаза	-1748
рт	-1749
дви	-1750
дут	-1751
▁приходи	-1752
▁сни	-1753
рует	-1754
▁неё	-1755
▁родите	-1756
▁вами	-1757
▁разме	-1758
▁начала	-1759
▁против	-1760
▁Например	-1761
▁уби	-1762
▁процен	-1763
баты	-1764
гов	-1765
▁ним	-1766
▁отве	-1767
▁чувство	-1768
▁тран	-1769
▁сделали	-1770
нете	-1771
▁воды	-1772
▁двига	-1773
▁замеча	-1774
▁Ми	-1775
▁прин	-1776
ума	-1777
▁Эта	-1778
▁кос	-1779
▁зако	-1780
▁пом	-1781
▁американ	-1782
▁аб	-1783
▁стороны	-1784
нение	-1785
▁времен	-1786
▁хотим	-1787
зма	-1788
▁данных	-1789
▁разных	-1790
▁всю	-1791
ческая	-1792
▁бизне	-1793
судар	-1794
▁зда	-1795
ческое	-1796
▁видеть	-1797
▁продолжа	-1798
хра	-1799
▁пси	-1800
▁После	-1801
▁настолько	-1802
▁благодаря	-1803
▁жу	-1804
▁означает	-1805
▁жив	-1806
▁Амери	-1807
▁ули	-1808
▁жела	-1809
▁внутри	-1810
▁информации	-1811
чка	-1812
стов	-1813
▁историю	-1814
▁материа	-1815
▁первый	-1816
тере	-1817
▁которым	-1818
▁нрави	-1819
▁100	-1820
кси	-1821
▁видим	-1822
▁заня	-1823
▁слыша	-1824
шать	-1825
тории	-1826
пом	-1827
er	-1828
▁вдо	-1829
помина	-1830
▁цент	-1831
▁обеспе	-1832
▁предло	-1833
лоба	-1834
тиво	-1835
▁процесс	-1836
▁Па	-1837
твер	-1838
▁студен	-1839
▁получить	-1840
▁ши	-1841
▁C	-1842
▁ус	-1843
выми	-1844
ющее	-1845
▁нами	-1846
▁вроде	-1847
▁специ	-1848
▁сооб	-1849
▁сказала	-1850
▁делают	-1851
▁собра	-1852
разу	-1853
лин	-1854
▁оши	-1855
мыш	-1856
▁делает	-1857
▁возду	-1858
доб	-1859
рети	-1860
▁примерно	-1861
ница	-1862
▁воспри	-1863
▁чита	-1864
▁компании	-1865
лению	-1866
▁циф	-1867
▁мето	-1868
▁Пред	-1869
▁цвет	-1870
▁Здесь	-1871
▁социаль	-1872
▁всей	-1873
▁тя	-1874
▁случи	-1875
там	-1876
▁миро	-1877
▁ха	-1878
един	-1879
▁эффектив	-1880
▁насколько	-1881
пас	-1882
чёт	-1883
▁сла	-1884
мом	-1885
▁город	-1886
▁объек	-1887
▁живу	-1888
чат	-1889
▁ря	-1890
▁менее	-1891
▁Ж	-1892
▁30	-1893
▁рассказать	-1894
рей	-1895
▁показать	-1896
▁становится	-1897
▁гор	-1898
▁неу	-1899
рования	-1900
▁Сегодня	-1901
▁пове	-1902
▁взя	-1903
▁раст	-1904
▁изменения	-1905
рази	-1906
▁наблюда	-1907
▁долго	-1908
▁неза	-1909
▁стоит	-1910
тельный	-1911
ступи	-1912
▁ника	-1913
▁одну	-1914
▁здоров	-1915
▁моего	-1916
▁позволи	-1917
▁приро	-1918
тера	-1919
▁Ю	-1920
▁эмо	-1921
▁наша	-1922
вар	-1923
▁кре	-1924
▁своё	-1925
▁меч	-1926
▁заболе	-1927
▁Ви	-1928
хран	-1929
дру	-1930
▁научи	-1931
▁Из	-1932
ссо	-1933
▁цель	-1934
ссе	-1935
ьёз	-1936
лон	-1937
▁писа	-1938
рак	-1939
▁сама	-1940
▁G	-1941
шта	-1942
▁женщины	-1943
чная	-1944
▁Или	-1945
льным	-1946
▁энергии	-1947
▁нако	-1948
▁поме	-1949
ющим	-1950
▁универ	-1951
▁моих	-1952
▁прове	-1953
▁должна	-1954
▁государ	-1955
етесь	-1956
▁тебя	-1957
чного	-1958
▁S	-1959
▁дерев	-1960
▁ды	-1961
▁деньги	-1962
▁обычно	-1963
▁полностью	-1964
▁противо	-1965
▁срав	-1966
▁производ	-1967
▁стало	-1968
▁находится	-1969
▁современ	-1970
рее	-1971
▁Ц	-1972
▁прода	-1973
▁Нью	-1974
▁оди	-1975
▁которого	-1976
▁бук	-1977
лении	-1978
▁улуч	-1979
▁Ро	-1980
▁мере	-1981
▁приня	-1982
▁ее	-1983
▁никто	-1984
▁сим	-1985
▁большинство	-1986
▁поверх	-1987
фа	-1988
ющая	-1989
ленной	-1990
▁иногда	-1991
ясь	-1992
▁50	-1993
▁глоба	-1994
шить	-1995
▁Каж	-1996
▁изоб	-1997
еры	-1998
влека	-1999
руют	-2000
▁мет	-2001
▁Кита	-2002
▁мной	-2003
гна	-2004
шки	-2005
▁гру	-2006
раздо	-2007
▁ограни	-2008
▁ген	-2009
▁структу	-2010
▁ними	-2011
тельных	-2012
пли	-2013
шения	-2014
вались	-2015
▁переда	-2016
▁нор	-2017
йн	-2018
▁сколько	-2019
▁компьютер	-2020
▁Су	-2021
ED	-2022
▁Люди	-2023
▁тысяч	-2024
чет	-2025
▁опу	-2026
▁последние	-2027
▁возможности	-2028
on	-2029
ляр	-2030
▁содер	-2031
тен	-2032
▁направ	-2033
▁устрой	-2034
бер	-2035
цов	-2036
▁сможем	-2037
сур	-2038
ньше	-2039
▁океа	-2040
▁увеличи	-2041
шение	-2042
нием	-2043
▁лекар	-2044
▁сотруд	-2045
▁выпол	-2046
▁Си	-2047
жит	-2048
▁край	-2049
▁говорю	-2050
шен	-2051
▁Де	-2052
ницы	-2053
▁круп	-2054
▁финан	-2055
▁постоянно	-2056
▁серд	-2057
▁начать	-2058
▁относи	-2059
▁гораздо	-2060
симо	-2061
▁путе	-2062
ческую	-2063
стли	-2064
стри	-2065
▁запа	-2066
шли	-2067
▁самый	-2068
▁сообще	-2069
le	-2070
рио	-2071
▁каждого	-2072
▁раньше	-2073
▁пути	-2074
▁представить	-2075
▁201	-2076
▁повед	-2077
▁Нет	-2078
▁ито	-2079
▁своим	-2080
▁Мар	-2081
▁такого	-2082
▁определён	-2083
чай	-2084
скольку	-2085
▁стране	-2086
ям	-2087
▁идеи	-2088
▁приме	-2089
НК	-2090
▁Ре	-2091
лены	-2092
▁стол	-2093
чку	-2094
▁беспо	-2095
яза	-2096
▁жить	-2097
▁другом	-2098
▁безопасно	-2099
▁профе	-2100
▁четыре	-2101
▁вместо	-2102
▁Возможно	-2103
▁математи	-2104
▁тео	-2105
▁бро	-2106
йд	-2107
▁какие	-2108
▁помощи	-2109
▁ребён	-2110
▁равно	-2111
▁стала	-2112
сить	-2113
▁информацию	-2114
▁пода	-2115
ями	-2116
лый	-2117
▁будем	-2118
▁дево	-2119
▁включа	-2120
▁сильно	-2121
чув	-2122
▁зрения	-2123
чным	-2124
▁шта	-2125
стави	-2126
▁думать	-2127
рах	-2128
лети	-2129
▁находя	-2130
ственный	-2131
По	-2132
▁бога	-2133
ровали	-2134
▁случай	-2135
▁жа	-2136
▁фа	-2137
рос	-2138
▁иметь	-2139
честве	-2140
лемен	-2141
▁нашу	-2142
▁большой	-2143
нг	-2144
лых	-2145
▁TED	-2146
ждение	-2147
▁принци	-2148
▁Конечно	-2149
▁Бу	-2150
▁демо	-2151
▁примен	-2152
ган	-2153
▁мед	-2154
▁намного	-2155
▁называется	-2156
▁точки	-2157
ставить	-2158
▁выбра	-2159
▁начал	-2160
▁твор	-2161
мень	-2162
▁Чтобы	-2163
▁решение	-2164
▁A	-2165
няя	-2166
стоит	-2167
▁непо	-2168
ху	-2169
шка	-2170
▁гражда	-2171
▁множество	-2172
▁дня	-2173
▁сделал	-2174
oo	-2175
▁вопросы	-2176
нам	-2177
▁требу	-2178
▁клетки	-2179
▁масшта	-2180
▁систему	-2181
▁взаимодей	-2182
щему	-2183
▁глубо	-2184
гру	-2185
▁прекрас	-2186
▁серьёз	-2187
▁вообще	-2188
▁правда	-2189
▁мало	-2190
мых	-2191
рошо	-2192
▁погово	-2193
▁минут	-2194
лён	-2195
▁являются	-2196
▁тела	-2197
вших	-2198
▁дать	-2199
кс	-2200
леко	-2201
моби	-2202
▁туда	-2203
тии	-2204
▁пять	-2205
▁месте	-2206
лые	-2207
стно	-2208
▁работе	-2209
льная	-2210
пара	-2211
ятся	-2212
▁той	-2213
ктор	-2214
чную	-2215
смотря	-2216
▁замети	-2217
нных	-2218
▁хотят	-2219
чит	-2220
рение	-2221
▁дене	-2222
▁реак	-2223
▁среди	-2224
▁нравится	-2225
▁биологи	-2226
▁составля	-2227
пуска	-2228
бри	-2229
▁сцен	-2230
дем	-2231
нём	-2232
▁возвра	-2233
▁здоро	-2234
▁невоз	-2235
▁полови	-2236
▁повто	-2237
чек	-2238
солю	-2239
▁доба	-2240
▁лабора	-2241
▁путеше	-2242
ково	-2243
риан	-2244
▁собы	-2245
▁ресур	-2246
тельной	-2247
▁ожида	-2248
▁хотели	-2249
писы	-2250
▁рай	-2251
▁куда	-2252
▁проект	-2253
Йор	-2254
▁нечто	-2255
▁потеря	-2256
▁вся	-2257
▁предпо	-2258
кли	-2259
ющего	-2260
▁новый	-2261
вление	-2262
▁пользо	-2263
▁ал	-2264
кими	-2265
▁потреб	-2266
▁M	-2267
▁знать	-2268
▁Именно	-2269
▁уровень	-2270
дж	-2271
дают	-2272
▁путь	-2273
▁любой	-2274
▁плохо	-2275
▁управля	-2276
▁мыш	-2277
тельность	-2278
▁ау	-2279
▁Затем	-2280
кну	-2281
▁ДНК	-2282
▁спасибо	-2283
▁организа	-2284
▁существо	-2285
▁вдох	-2286
▁побе	-2287
▁лично	-2288
▁итоге	-2289
или	-2290
▁жур	-2291
рование	-2292
нки	-2293
▁отра	-2294
▁восста	-2295
▁комна	-2296
▁число	-2297
тельное	-2298
▁месяцев	-2299
▁поз	-2300
▁Таким	-2301
▁актив	-2302
▁вещей	-2303
дает	-2304
▁обсу	-2305
леку	-2306
▁тор	-2307
▁выглядит	-2308
▁источ	-2309
ген	-2310
рода	-2311
ческим	-2312
▁ак	-2313
▁дер	-2314
▁Можно	-2315
▁имеют	-2316
▁перио	-2317
▁Дру	-2318
зывать	-2319
▁недоста	-2320
▁произошло	-2321
▁спустя	-2322
жете	-2323
▁фер	-2324
▁архи	-2325
▁либо	-2326
▁секу	-2327
▁участ	-2328
▁говорили	-2329
юда	-2330
▁говорил	-2331
▁легко	-2332
▁обяза	-2333
▁странах	-2334
дили	-2335
▁могла	-2336
▁дальше	-2337
▁хотите	-2338
▁пару	-2339
▁заключа	-2340
льзя	-2341
фици	-2342
▁неда	-2343
дят	-2344
шее	-2345
▁делаем	-2346
▁животных	-2347
ному	-2348
▁считаю	-2349
▁другу	-2350
ску	-2351
▁выше	-2352
▁населения	-2353
▁приве	-2354
▁эволю	-2355
вари	-2356
▁видели	-2357
▁разре	-2358
чем	-2359
▁18	-2360
▁трёх	-2361
▁Зна	-2362
▁продук	-2363
▁счастли	-2364
вли	-2365
▁области	-2366
▁посмотреть	-2367
▁хими	-2368
кре	-2369
клады	-2370
▁протя	-2371
▁элемен	-2372
▁отношения	-2373
▁причина	-2374
чей	-2375
▁вст	-2376
образи	-2377
▁попро	-2378
▁выступ	-2379
▁сказали	-2380
▁прошло	-2381
ев	-2382
▁право	-2383
▁спраши	-2384
▁автомоби	-2385
▁ценно	-2386
▁нач	-2387
▁нашем	-2388
▁абсолю	-2389
▁бан	-2390
▁разру	-2391
▁узнать	-2392
▁связ	-2393
▁слово	-2394
лки	-2395
шла	-2396
▁разные	-2397
▁F	-2398
▁Мно	-2399
низ	-2400
мые	-2401
in	-2402
▁произ	-2403
воль	-2404
▁поку	-2405
▁доказа	-2406
чё	-2407
тельства	-2408
▁будто	-2409
пря	-2410
ставьте	-2411
▁12	-2412
▁поддержи	-2413
рам	-2414
▁Евро	-2415
▁кле	-2416
▁пой	-2417
тельности	-2418
бов	-2419
▁другим	-2420
▁появля	-2421
▁впервые	-2422
▁некоторых	-2423
стер	-2424
▁Его	-2425
▁чёр	-2426
хода	-2427
▁опера	-2428
▁наконец	-2429
гом	-2430
тых	-2431
лиги	-2432
▁меха	-2433
▁потря	-2434
▁разгово	-2435
▁медицин	-2436
тан	-2437
▁здра	-2438
рабаты	-2439
▁результате	-2440
▁кое	-2441
гут	-2442
▁Ан	-2443
▁будущее	-2444
▁новых	-2445
▁смогли	-2446
ским	-2447
▁демокра	-2448
ститу	-2449
▁взять	-2450
or	-2451
▁Кто	-2452
▁Тогда	-2453
▁роди	-2454
▁расши	-2455
▁друзья	-2456
▁мыс	-2457
матри	-2458
▁каса	-2459
ющихся	-2460
▁будущем	-2461
нев	-2462
▁уро	-2463
▁руки	-2464
▁навер	-2465
▁тро	-2466
▁нужны	-2467
▁часов	-2468
▁сигна	-2469
▁Некоторы	-2470
▁Бы	-2471
▁Га	-2472
▁пожа	-2473
▁университ	-2474
зов	-2475
▁интересно	-2476
▁иска	-2477
гло	-2478
тый	-2479
▁денег	-2480
лений	-2481
▁кора	-2482
▁модель	-2483
▁разно	-2484
▁функ	-2485
вления	-2486
▁степ	-2487
▁частью	-2488
нили	-2489
ённых	-2490
▁нейро	-2491
▁семьи	-2492
▁еди	-2493
мира	-2494
▁одном	-2495
▁тол	-2496
▁виру	-2497
мож	-2498
▁анали	-2499
мос	-2500
щь	-2501
тые	-2502
▁борь	-2503
альной	-2504
▁рядом	-2505
▁встреча	-2506
воо	-2507
тий	-2508
ответ	-2509
▁одним	-2510
ское	-2511
▁выяс	-2512
▁краси	-2513
тически	-2514
▁несколь	-2515
▁оказыва	-2516
фон	-2517
новить	-2518
▁трудно	-2519
▁электро	-2520
▁пита	-2521
▁другими	-2522
льном	-2523
▁давайте	-2524
▁молеку	-2525
лой	-2526
сона	-2527
▁виду	-2528
▁предпри	-2529
начала	-2530
▁хотела	-2531
▁созна	-2532
▁рассказыва	-2533
рев	-2534
▁Может	-2535
▁общества	-2536
енци	-2537
делить	-2538
▁изобрет	-2539
▁которыми	-2540
▁угро	-2541
лением	-2542
▁сохра	-2543
▁решить	-2544
тво	-2545
более	-2546
▁религи	-2547
ar	-2548
▁Вто	-2549
▁дли	-2550
▁нес	-2551
вало	-2552
▁вариан	-2553
ственное	-2554
гами	-2555
▁работают	-2556
▁Представьте	-2557
эн	-2558
▁объеди	-2559
▁тебе	-2560
шими	-2561
▁определя	-2562
▁тради	-2563
хе	-2564
▁пя	-2565
▁попу	-2566
▁мысли	-2567
▁сокра	-2568
▁связи	-2569
▁дней	-2570
▁Ли	-2571
жений	-2572
▁есте	-2573
▁скорее	-2574
▁Некоторые	-2575
▁Каждый	-2576
▁рав	-2577
▁угле	-2578
еня	-2579
ссии	-2580
жим	-2581
ключ	-2582
тельным	-2583
an	-2584
шёл	-2585
▁повы	-2586
▁мар	-2587
▁опыт	-2588
▁сразу	-2589
▁такая	-2590
сон	-2591
тесь	-2592
▁рода	-2593
▁клима	-2594
▁создания	-2595
▁тю	-2596
▁све	-2597
ключи	-2598
▁подро	-2599
тар	-2600
▁Раз	-2601
▁стар	-2602
стойчи	-2603
▁изуча	-2604
узы	-2605
▁знают	-2606
▁КА	-2607
▁кры	-2608
▁самые	-2609
▁нём	-2610
▁25	-2611
▁мета	-2612
ственные	-2613
▁развития	-2614
▁бак	-2615
▁знали	-2616
жей	-2617
▁выбор	-2618
▁просты	-2619
▁решили	-2620
▁N	-2621
▁распростран	-2622
Да	-2623
▁Их	-2624
."	-2625
рко	-2626
▁40	-2627
щать	-2628
▁компьюте	-2629
работ	-2630
стях	-2631
▁самым	-2632
▁люб	-2633
льную	-2634
▁права	-2635
▁психо	-2636
над	-2637
▁проте	-2638
ниц	-2639
▁шо	-2640
▁тысячи	-2641
ственной	-2642
▁невозможно	-2643
▁группа	-2644
▁пользу	-2645
▁стан	-2646
▁архите	-2647
▁большое	-2648
▁попроси	-2649
цио	-2650
ющими	-2651
ливо	-2652
▁позволяет	-2653
▁доби	-2654
▁прошлом	-2655
▁тело	-2656
▁разработа	-2657
▁распо	-2658
лок	-2659
▁неиз	-2660
цени	-2661
▁цели	-2662
▁Многие	-2663
▁чувству	-2664
▁нельзя	-2665
дия	-2666
рели	-2667
▁Хорошо	-2668
▁P	-2669
ющую	-2670
▁моё	-2671
дро	-2672
▁зале	-2673
▁привы	-2674
▁этими	-2675
▁задума	-2676
▁электри	-2677
▁кем	-2678
годно	-2679
щен	-2680
▁исче	-2681
▁мя	-2682
льте	-2683
▁полез	-2684
вшие	-2685
▁наиболее	-2686
▁поскольку	-2687
ником	-2688
▁процентов	-2689
нной	-2690
▁нена	-2691
▁худо	-2692
▁домой	-2693
▁бер	-2694
вался	-2695
▁знает	-2696
воохран	-2697
▁Ла	-2698
чное	-2699
▁молоды	-2700
▁миллиардов	-2701
ал	-2702
▁захо	-2703
▁Большо	-2704
▁десяти	-2705
стить	-2706
▁нару	-2707
▁неде	-2708
▁буква	-2709
▁видов	-2710
▁пришлось	-2711
▁распростра	-2712
емых	-2713
ждать	-2714
▁мор	-2715
▁клю	-2716
▁состоит	-2717
▁невероят	-2718
▁протяжении	-2719
куда	-2720
пере	-2721
тили	-2722
▁близ	-2723
▁умер	-2724
▁Один	-2725
сок	-2726
▁идёт	-2727
▁отправи	-2728
▁движения	-2729
пор	-2730
ологи	-2731
▁B	-2732
▁мою	-2733
▁веще	-2734
▁труд	-2735
▁решил	-2736
▁зая	-2737
▁проя	-2738
▁вызыва	-2739
▁осу	-2740
▁света	-2741
ема	-2742
▁модели	-2743
луй	-2744
▁Кри	-2745
▁соответ	-2746
нный	-2747
лему	-2748
▁харак	-2749
▁планеты	-2750
стом	-2751
чными	-2752
сед	-2753
емой	-2754
▁вещь	-2755
▁следует	-2756
▁создали	-2757
▁здравоохран	-2758
ой	-2759
хов	-2760
стати	-2761
▁купи	-2762
наче	-2763
▁кам	-2764
▁Ты	-2765
▁испы	-2766
▁I	-2767
док	-2768
▁норма	-2769
▁роль	-2770
рез	-2771
▁потенци	-2772
▁Меня	-2773
▁сети	-2774
▁умень	-2775
▁ат	-2776
▁публи	-2777
▁группы	-2778
▁войны	-2779
▁Ме	-2780
▁образ	-2781
жает	-2782
узыка	-2783
▁бере	-2784
▁интелле	-2785
▁проблему	-2786
▁анти	-2787
▁самой	-2788
▁револю	-2789
▁ужас	-2790
▁компания	-2791
▁бакте	-2792
▁понял	-2793
▁потряса	-2794
▁лё	-2795
▁годы	-2796
▁создавать	-2797
льчи	-2798
ческом	-2799
тельная	-2800
силия	-2801
щаться	-2802
▁школу	-2803
▁услыша	-2804
▁низ	-2805
ванию	-2806
▁абсолютно	-2807
▁воспо	-2808
▁солне	-2809
▁однажды	-2810
▁ваши	-2811
▁мину	-2812
▁пись	-2813
жил	-2814
▁сих	-2815
▁утвер	-2816
▁граждан	-2817
▁придума	-2818
чер	-2819
лена	-2820
мена	-2821
▁забы	-2822
▁представи	-2823
▁Даже	-2824
▁приво	-2825
▁Африке	-2826
пад	-2827
▁станет	-2828
лла	-2829
▁гу	-2830
▁вет	-2831
▁переста	-2832
▁прежде	-2833
▁пес	-2834
рот	-2835
▁Интер	-2836
ницу	-2837
▁качестве	-2838
▁Бе	-2839
▁Моя	-2840
▁дом	-2841
печат	-2842
▁контроли	-2843
!»	-2844
гно	-2845
лог	-2846
▁знал	-2847
▁станов	-2848
шает	-2849
▁шан	-2850
▁бизнес	-2851
▁полага	-2852
▁смысле	-2853
зить	-2854
щается	-2855
▁успеш	-2856
▁машины	-2857
▁уго	-2858
▁экс	-2859
первых	-2860
▁работ	-2861
ственных	-2862
няет	-2863
▁мощ	-2864
▁каза	-2865
▁широ	-2866
▁вашей	-2867
жной	-2868
▁ран	-2869
▁небольшо	-2870
виться	-2871
тировать	-2872
▁интернет	-2873
зиден	-2874
▁прид	-2875
тец	-2876
цами	-2877
▁пти	-2878
▁отлича	-2879
▁уровне	-2880
▁несмотря	-2881
▁крас	-2882
▁пози	-2883
сл	-2884
кта	-2885
ментов	-2886
▁своими	-2887
▁воду	-2888
▁ошиб	-2889
▁похоже	-2890
ряз	-2891
▁Лу	-2892
▁управ	-2893
стан	-2894
▁обнаружили	-2895
al	-2896
▁род	-2897
▁Ещё	-2898
нению	-2899
▁жерт	-2900
▁стоя	-2901
▁совме	-2902
▁говорим	-2903
▁названием	-2904
▁инжен	-2905
▁зе	-2906
жили	-2907
▁ску	-2908
стрее	-2909
мую	-2910
нит	-2911
▁Оно	-2912
▁слы	-2913
▁используя	-2914
щим	-2915
▁Об	-2916
▁удалось	-2917
лл	-2918
емые	-2919
ходить	-2920
▁женщина	-2921
▁даёт	-2922
▁речь	-2923
▁каким	-2924
▁строи	-2925
▁поддерж	-2926
▁результаты	-2927
▁Му	-2928
народ	-2929
▁сожа	-2930
▁фе	-2931
▁неф	-2932
лакти	-2933
▁сути	-2934
▁думаете	-2935
▁тон	-2936
▁чему	-2937
оз	-2938
ллю	-2939
▁школе	-2940
▁Ри	-2941
▁Мой	-2942
▁уровня	-2943
▁практически	-2944
▁Индии	-2945
▁смерти	-2946
ую	-2947
вший	-2948
▁бума	-2949
▁возника	-2950
▁хва	-2951
рыв	-2952
▁уж	-2953
▁уме	-2954
▁мальчи	-2955
нце	-2956
▁Там	-2957
▁всём	-2958
дова	-2959
▁реги	-2960
▁факт	-2961
рту	-2962
тации	-2963
0%	-2964
▁аль	-2965
▁пово	-2966
▁участи	-2967
▁технологий	-2968
лии	-2969
сами	-2970
▁любов	-2971
▁нужна	-2972
нил	-2973
▁описа	-2974
▁музыка	-2975
▁содержа	-2976
▁Дума	-2977
▁рабочи	-2978
▁результат	-2979
тора	-2980
▁самого	-2981
того	-2982
▁коло	-2983
вёр	-2984
▁иначе	-2985
▁заключается	-2986
▁Вме	-2987
▁века	-2988
▁типа	-2989
▁каждой	-2990
▁подели	-2991
▁измер	-2992
чис	-2993
▁част	-2994
никами	-2995
▁форма	-2996
рое	-2997
▁Кон	-2998
держи	-2999
▁нескольких	-3000
лями	-3001
руем	-3002
ственного	-3003
тре	-3004
▁ид	-3005
крет	-3006
▁поряд	-3007
▁заставля	-3008
▁сна	-3009
▁имею	-3010
▁планете	-3011
▁случилось	-3012
их	-3013
мое	-3014
ьми	-3015
▁выз	-3016
доволь	-3017
▁преступ	-3018
▁используют	-3019
ac	-3020
сят	-3021
жены	-3022
▁сила	-3023
▁закончи	-3024
ёд	-3025
▁Ди	-3026
гази	-3027
глий	-3028
▁хра	-3029
Музыка	-3030
альные	-3031
▁сотни	-3032
▁присут	-3033
?"	-3034
▁испыты	-3035
▁подвер	-3036
▁безопасности	-3037
▁быстрее	-3038
▁исследований	-3039
кло	-3040
▁движение	-3041
▁♪	-3042
чены	-3043
▁отда	-3044
▁помощь	-3045
▁другого	-3046
▁миллиона	-3047
йдёт	-3048
▁еже	-3049
енное	-3050
▁поро	-3051
▁генети	-3052
▁Пре	-3053
▁своём	-3054
▁связь	-3055
▁ребёнка	-3056
▁силы	-3057
ременно	-3058
▁испыта	-3059
▁внутрен	-3060
▁фотографии	-3061
рел	-3062
щает	-3063
тон	-3064
▁Ведь	-3065
▁конф	-3066
▁пора	-3067
▁второй	-3068
▁столько	-3069
▁образование	-3070
▁D	-3071
▁изо	-3072
▁хочет	-3073
▁невероятно	-3074
▁идею	-3075
▁далеко	-3076
▁иннова	-3077
титься	-3078
ваете	-3079
▁сталки	-3080
▁тка	-3081
навли	-3082
▁знако	-3083
▁ад	-3084
друг	-3085
▁уверен	-3086
▁концов	-3087
▁язык	-3088
▁подумал	-3089
дил	-3090
▁скры	-3091
▁клеток	-3092
видно	-3093
▁нашим	-3094
ос	-3095
▁сель	-3096
▁попыта	-3097
▁прибли	-3098
нка	-3099
▁игры	-3100
▁живут	-3101
▁смотреть	-3102
▁дея	-3103
▁моби	-3104
▁находятся	-3105
личие	-3106
ровал	-3107
▁водо	-3108
▁отец	-3109
▁знания	-3110
гой	-3111
▁рак	-3112
▁исследова	-3113
клад	-3114
▁взгляд	-3115
▁национа	-3116
▁сотрудни	-3117
▁закры	-3118
▁самая	-3119
▁организации	-3120
дая	-3121
▁выс	-3122
▁кур	-3123
▁вида	-3124
▁форму	-3125
▁местах	-3126
гать	-3127
▁графи	-3128
▁разум	-3129
▁экологи	-3130
▁професси	-3131
сах	-3132
тей	-3133
▁книги	-3134
▁похожи	-3135
мый	-3136
▁вероят	-3137
▁Вам	-3138
▁сет	-3139
▁тюрь	-3140
▁форми	-3141
▁покупа	-3142
▁прогре	-3143
▁большая	-3144
шись	-3145
▁другое	-3146
▁надеюсь	-3147
▁сверх	-3148
▁различных	-3149
стры	-3150
▁газ	-3151
готов	-3152
▁поговорить	-3153
▁эпи	-3154
йтесь	-3155
▁стати	-3156
▁магази	-3157
▁покажу	-3158
нул	-3159
шем	-3160
перату	-3161
▁стара	-3162
▁капита	-3163
стями	-3164
▁ауди	-3165
▁неко	-3166
▁нужда	-3167
▁значение	-3168
дко	-3169
▁реа	-3170
▁акти	-3171
▁инвести	-3172
▁общество	-3173
▁чет	-3174
▁план	-3175
▁семья	-3176
▁конкрет	-3177
ломет	-3178
▁предполо	-3179
▁11	-3180
at	-3181
▁всеми	-3182
▁отвеча	-3183
▁ап	-3184
▁вижу	-3185
▁атмос	-3186
жён	-3187
▁ситуации	-3188
мым	-3189
▁ими	-3190
▁площа	-3191
▁худож	-3192
▁пригла	-3193
ственным	-3194
▁существу	-3195
теги	-3196
циях	-3197
жением	-3198
▁способность	-3199
en	-3200
▁Ис	-3201
▁сюда	-3202
▁кризи	-3203
▁новое	-3204
▁возмож	-3205
тельного	-3206
▁деву	-3207
▁мечта	-3208
▁известно	-3209
▁исследование	-3210
▁опас	-3211
▁видел	-3212
▁непри	-3213
ческими	-3214
▁весьма	-3215
жай	-3216
кова	-3217
рени	-3218
▁предлага	-3219
▁сегодняш	-3220
",	-3221
тери	-3222
▁возник	-3223
▁подход	-3224
▁словами	-3225
▁думал	-3226
▁уничто	-3227
новременно	-3228
▁сможет	-3229
▁сом	-3230
▁кому	-3231
▁одина	-3232
▁человеком	-3233
▁страда	-3234
▁становятся	-3235
▁W	-3236
чении	-3237
телями	-3238
ющиеся	-3239
▁мужчин	-3240
альный	-3241
▁смысл	-3242
лка	-3243
думы	-3244
▁199	-3245
▁запи	-3246
▁мини	-3247
▁встрети	-3248
▁основном	-3249
оти	-3250
▁съ	-3251
▁геро	-3252
▁скажу	-3253
▁незави	-3254
▁опреде	-3255
▁мужчины	-3256
лях	-3257
рок	-3258
▁силу	-3259
▁начале	-3260
▁правила	-3261
вин	-3262
интере	-3263
▁цифро	-3264
чо	-3265
вшись	-3266
▁лицо	-3267
▁делали	-3268
▁пережи	-3269
▁увидите	-3270
вок	-3271
бере	-3272
▁внеш	-3273
▁устойчи	-3274
▁лёг	-3275
горит	-3276
▁Земли	-3277
▁слуша	-3278
тельство	-3279
▁выступа	-3280
▁температу	-3281
ic	-3282
ственная	-3283
▁правильно	-3284
оне	-3285
▁безу	-3286
▁сум	-3287
▁люблю	-3288
ведливо	-3289
▁Только	-3290
▁основе	-3291
иму	-3292
▁сторону	-3293
вёз	-3294
▁опти	-3295
валось	-3296
▁захва	-3297
▁необы	-3298
▁поста	-3299
▁семей	-3300
▁вероятно	-3301
тай	-3302
вобо	-3303
▁Сол	-3304
▁следующий	-3305
нес	-3306
▁допол	-3307
▁очере	-3308
▁хотелось	-3309
вит	-3310
шек	-3311
нное	-3312
▁верю	-3313
▁пяти	-3314
▁треть	-3315
▁вашего	-3316
▁пласти	-3317
ат	-3318
шед	-3319
телем	-3320
форми	-3321
▁посе	-3322
▁рост	-3323
валась	-3324
▁Также	-3325
▁оружи	-3326
▁переме	-3327
▁специали	-3328
▁поверхности	-3329
▁секун	-3330
▁мужчина	-3331
бом	-3332
▁рез	-3333
▁Вели	-3334
▁X	-3335
▁шту	-3336
▁вдруг	-3337
▁Просто	-3338
▁болезни	-3339
▁расскажу	-3340
нью	-3341
▁почув	-3342
▁посмотрим	-3343
▁состоянии	-3344
пан	-3345
лета	-3346
▁чаще	-3347
▁системе	-3348
нё	-3349
▁раза	-3350
▁позна	-3351
▁слышали	-3352
▁одновременно	-3353
новля	-3354
▁стратеги	-3355
▁Ле	-3356
▁Ско	-3357
▁моим	-3358
▁километ	-3359
рин	-3360
ствии	-3361
▁умира	-3362
все	-3363
▁холо	-3364
▁провер	-3365
▁недавно	-3366
▁упо	-3367
▁выжи	-3368
▁финансо	-3369
▁буквально	-3370
зяй	-3371
▁такую	-3372
▁шесть	-3373
▁климата	-3374
стую	-3375
▁ори	-3376
▁Земле	-3377
▁Посмот	-3378
▁приходится	-3379
es	-3380
рд	-3381
Что	-3382
вез	-3383
фрикан	-3384
▁школы	-3385
▁истори	-3386
▁продви	-3387
▁президен	-3388
▁используем	-3389
▁оде	-3390
▁помогает	-3391
▁понимать	-3392
ственность	-3393
меры	-3394
прос	-3395
▁кисло	-3396
▁задача	-3397
▁построить	-3398
▁воспринима	-3399
зии	-3400
щают	-3401
▁Благо	-3402
▁далее	-3403
▁прибы	-3404
▁конфли	-3405
▁момента	-3406
▁родители	-3407
тию	-3408
жешь	-3409
▁парт	-3410
▁сердце	-3411
▁включая	-3412
▁программы	-3413
▁большие	-3414
гани	-3415
▁транс	-3416
▁телефон	-3417
▁поведение	-3418
дки	-3419
▁супер	-3420
▁зависимо	-3421
▁получили	-3422
одо	-3423
▁поиска	-3424
▁Сле	-3425
▁избе	-3426
▁Думаю	-3427
▁механи	-3428
▁Большое	-3429
тым	-3430
тной	-3431
▁средства	-3432
▁нер	-3433
▁веща	-3434
▁игру	-3435
▁радо	-3436
▁терри	-3437
▁неправи	-3438
▁напомина	-3439
лая	-3440
тая	-3441
▁офи	-3442
▁испол	-3443
▁будете	-3444
▁Америке	-3445
▁мама	-3446
▁степени	-3447
▁пациентов	-3448
▁лаборатории	-3449
нице	-3450
▁Пере	-3451
▁ваше	-3452
▁Позво	-3453
▁здания	-3454
▁оцени	-3455
вета	-3456
▁дели	-3457
▁организ	-3458
▁работал	-3459
лосо	-3460
йт	-3461
торов	-3462
▁силь	-3463
▁соеди	-3464
▁навы	-3465
▁огромное	-3466
▁международ	-3467
▁чувства	-3468
▁способны	-3469
ваны	-3470
▁образования	-3471
дую	-3472
лым	-3473
настоя	-3474
▁имени	-3475
править	-3476
▁Иногда	-3477
▁такими	-3478
▁касается	-3479
▁начинают	-3480
▁нарко	-3481
▁воздей	-3482
▁центра	-3483
▁пространство	-3484
▁принять	-3485
гры	-3486
▁Сан	-3487
▁перемен	-3488
▁располо	-3489
▁чрез	-3490
▁готовы	-3491
▁действия	-3492
говари	-3493
▁нашли	-3494
пов	-3495
▁упа	-3496
ферен	-3497
▁городе	-3498
зировать	-3499
▁спросил	-3500
▁вернуться	-3501
▁промыш	-3502
Это	-3503
циони	-3504
▁выбира	-3505
▁метров	-3506
▁согласи	-3507
▁десятилети	-3508
▁ана	-3509
▁инф	-3510
▁учёные	-3511
▁подумать	-3512
▁сожалению	-3513
нести	-3514
▁власти	-3515
▁алгорит	-3516
▁L	-3517
▁плани	-3518
▁техни	-3519
▁период	-3520
▁поняли	-3521
мах	-3522
ноко	-3523
ёнок	-3524
▁тяже	-3525
способ	-3526
▁корот	-3527
▁восприя	-3528
▁временем	-3529
▁начинает	-3530
надле	-3531
▁оцен	-3532
онстри	-3533
деми	-3534
жают	-3535
▁руку	-3536
▁взрос	-3537
▁природы	-3538
▁условиях	-3539
хом	-3540
▁нужен	-3541
▁англий	-3542
▁высоко	-3543
▁опасно	-3544
▁смогут	-3545
▁получил	-3546
▁Ба	-3547
▁вста	-3548
▁паль	-3549
▁друзей	-3550
▁ответил	-3551
▁останови	-3552
▁рассматри	-3553
емый	-3554
тный	-3555
▁выи	-3556
▁лу	-3557
альных	-3558
▁впечат	-3559
жите	-3560
▁заг	-3561
▁син	-3562
▁исти	-3563
▁кроме	-3564
▁вперёд	-3565
▁обратно	-3566
▁персона	-3567
▁показывает	-3568
▁сен	-3569
▁общи	-3570
▁думают	-3571
интересо	-3572
▁принадле	-3573
▁рака	-3574
▁уника	-3575
▁центре	-3576
настоящему	-3577
На	-3578
▁вода	-3579
▁древ	-3580
▁Потом	-3581
▁новой	-3582
▁новую	-3583
▁влияние	-3584
▁поделиться	-3585
мас	-3586
цеп	-3587
рили	-3588
образ	-3589
▁среды	-3590
кции	-3591
▁Шта	-3592
▁какое	-3593
ального	-3594
▁поднима	-3595
ске	-3596
тные	-3597
▁мысль	-3598
▁пришли	-3599
▁остро	-3600
▁лечения	-3601
бля	-3602
▁16	-3603
лого	-3604
▁экра	-3605
видете	-3606
▁Очень	-3607
жё	-3608
▁выбро	-3609
▁процессе	-3610
it	-3611
зем	-3612
шку	-3613
▁ока	-3614
▁вече	-3615
▁дове	-3616
▁некото	-3617
▁ль	-3618
▁рам	-3619
полне	-3620
▁порази	-3621
▁крайней	-3622
▁статисти	-3623
▁традицион	-3624
▁существуют	-3625
▁преду	-3626
▁неделю	-3627
▁свобод	-3628
▁называем	-3629
▁окружающей	-3630
▁выбо	-3631
▁Север	-3632
▁правительство	-3633
ou	-3634
▁опы	-3635
ведения	-3636
▁первой	-3637
▁внимания	-3638
▁объяснить	-3639
менить	-3640
▁конку	-3641
▁непре	-3642
▁осуще	-3643
▁транспо	-3644
▁Интернет	-3645
жали	-3646
▁фон	-3647
▁отсут	-3648
▁Позвольте	-3649
▁H	-3650
тите	-3651
влечь	-3652
▁звук	-3653
▁14	-3654
▁боро	-3655
▁отде	-3656
щаются	-3657
▁страш	-3658
сор	-3659
▁Им	-3660
▁уди	-3661
▁инду	-3662
▁глуби	-3663
▁депре	-3664
▁недель	-3665
зор	-3666
жется	-3667
▁идей	-3668
▁видно	-3669
▁косми	-3670
▁начало	-3671
нему	-3672
сист	-3673
ходы	-3674
▁недостаточно	-3675
ждён	-3676
нная	-3677
▁ката	-3678
▁реша	-3679
ленные	-3680
▁препо	-3681
сер	-3682
▁Би	-3683
▁шаг	-3684
имуще	-3685
страи	-3686
Не	-3687
▁теря	-3688
ленных	-3689
▁индиви	-3690
▁культур	-3691
▁сообщества	-3692
▁точ	-3693
▁кажды	-3694
▁прило	-3695
▁таком	-3696
▁17	-3697
▁Че	-3698
▁дем	-3699
▁тек	-3700
▁выда	-3701
▁голову	-3702
ктора	-3703
▁слов	-3704
▁живём	-3705
▁компо	-3706
▁угодно	-3707
▁африкан	-3708
▁последствия	-3709
пят	-3710
ними	-3711
редо	-3712
▁гри	-3713
▁ото	-3714
▁лица	-3715
▁беско	-3716
▁стандар	-3717
▁организо	-3718
▁придётся	-3719
gle	-3720
зон	-3721
ила	-3722
нюю	-3723
рил	-3724
▁виды	-3725
руется	-3726
▁телефо	-3727
▁технология	-3728
тка	-3729
▁исчез	-3730
▁Африки	-3731
вил	-3732
чая	-3733
рачи	-3734
▁Вер	-3735
▁затра	-3736
▁покры	-3737
▁формы	-3738
▁рассмот	-3739
▁СМ	-3740
▁изба	-3741
▁достичь	-3742
▁отправля	-3743
▁привлека	-3744
om	-3745
▁ранее	-3746
▁учени	-3747
▁целью	-3748
▁поняла	-3749
▁процес	-3750
▁галакти	-3751
▁сначала	-3752
▁эмоциона	-3753
вёл	-3754
▁Ар	-3755
▁Суще	-3756
▁чуть	-3757
▁активи	-3758
▁здравоохранения	-3759
▁журна	-3760
▁одино	-3761
▁рекла	-3762
▁думаем	-3763
▁миллиарда	-3764
фере	-3765
▁сос	-3766
зация	-3767
▁лиде	-3768
▁архитекту	-3769
сю	-3770
▁ува	-3771
тория	-3772
▁увидел	-3773
▁Ку	-3774
▁играть	-3775
▁институ	-3776
▁расстоя	-3777
тек	-3778
▁имя	-3779
няется	-3780
▁любви	-3781
▁незна	-3782
енность	-3783
▁аппара	-3784
▁подтвер	-3785
▁маленькие	-3786
▁заинтересо	-3787
▁посмотрите	-3788
▁стиму	-3789
▁топли	-3790
шинство	-3791
▁счасть	-3792
▁энергию	-3793
рта	-3794
жные	-3795
мера	-3796
твра	-3797
ходов	-3798
▁воло	-3799
▁часа	-3800
луйста	-3801
▁земле	-3802
ян	-3803
мини	-3804
▁ожи	-3805
тных	-3806
▁бежен	-3807
▁вверх	-3808
▁подрост	-3809
▁сможете	-3810
▁лекарства	-3811
oogle	-3812
▁машин	-3813
▁прино	-3814
▁целом	-3815
▁каждом	-3816
▁поступа	-3817
таки	-3818
▁сви	-3819
▁воен	-3820
▁разо	-3821
▁восто	-3822
▁времена	-3823
▁примеру	-3824
▁свидете	-3825
▁считают	-3826
▁вопросом	-3827
▁стоимо	-3828
▁будущего	-3829
▁фан	-3830
▁окон	-3831
▁Вместо	-3832
▁написал	-3833
▁называют	-3834
▁преимуще	-3835
ленная	-3836
▁популяр	-3837
▁проекта	-3838
ис	-3839
тит	-3840
цем	-3841
▁цвета	-3842
▁миллионы	-3843
вай	-3844
▁сексу	-3845
▁любовь	-3846
▁преодо	-3847
▁здоровья	-3848
коле	-3849
соеди	-3850
▁осве	-3851
▁стреми	-3852
▁последний	-3853
▁смог	-3854
диться	-3855
▁стары	-3856
▁предела	-3857
▁конца	-3858
▁подня	-3859
▁зависит	-3860
▁работали	-3861
шему	-3862
▁опять	-3863
▁Google	-3864
▁R	-3865
▁Y	-3866
▁красо	-3867
▁напря	-3868
▁думали	-3869
бло	-3870
пии	-3871
▁13	-3872
доби	-3873
▁числа	-3874
▁другая	-3875
▁многое	-3876
ьер	-3877
канчи	-3878
▁первые	-3879
▁собираюсь	-3880
▁профессиона	-3881
лах	-3882
▁вообра	-3883
▁решений	-3884
▁500	-3885
▁доку	-3886
▁психи	-3887
▁выбора	-3888
▁Вселенной	-3889
▁правительства	-3890
цей	-3891
▁Аль	-3892
▁заниматься	-3893
дий	-3894
▁первую	-3895
▁индивиду	-3896
▁предотвра	-3897
▁эксперимент	-3898
страда	-3899
▁брать	-3900
▁жесто	-3901
▁перево	-3902
▁определить	-3903
▁Ха	-3904
служи	-3905
▁готов	-3906
▁обита	-3907
▁пересе	-3908
▁представление	-3909
ваясь	-3910
ереди	-3911
▁науки	-3912
▁информация	-3913
гах	-3914
зом	-3915
тил	-3916
▁зво	-3917
▁квар	-3918
▁детям	-3919
▁недели	-3920
▁человечества	-3921
нке	-3922
▁реали	-3923
▁симво	-3924
рят	-3925
▁общем	-3926
тельную	-3927
▁ребёнок	-3928
▁психологи	-3929
део	-3930
▁потра	-3931
▁искусства	-3932
зви	-3933
▁поле	-3934
▁сеть	-3935
рованы	-3936
▁Знаете	-3937
▁океана	-3938
▁Большинство	-3939
▁изображение	-3940
Мы	-3941
▁зара	-3942
▁рису	-3943
▁больших	-3944
▁наверное	-3945
▁возможностей	-3946
▁Кро	-3947
▁Китай	-3948
▁использовали	-3949
туи	-3950
гает	-3951
льными	-3952
▁усили	-3953
▁электрон	-3954
▁Под	-3955
▁выво	-3956
▁риск	-3957
▁фильм	-3958
▁вполне	-3959
▁здоровье	-3960
▁Ча	-3961
няют	-3962
▁голос	-3963
вут	-3964
пно	-3965
▁вниз	-3966
▁неви	-3967
▁прос	-3968
▁массо	-3969
▁журнали	-3970
лами	-3971
лять	-3972
читы	-3973
▁Нужно	-3974
▁поколения	-3975
▁разговари	-3976
Как	-3977
▁Её	-3978
пустить	-3979
▁обучения	-3980
вяза	-3981
дения	-3982
бовать	-3983
▁радио	-3984
▁откуда	-3985
▁беспоко	-3986
мби	-3987
▁игро	-3988
▁делаю	-3989
▁начинается	-3990
▁получается	-3991
▁представьте	-3992
▁60	-3993
лема	-3994
рори	-3995
суль	-3996
▁книгу	-3997
▁крити	-3998
▁установ	-3999
▁возраста	-4000
▁заболевания	-4001
▁Дже	-4002
▁ваша	-4003
▁позже	-4004
▁другую	-4005
▁добиться	-4006
ьм	-4007
▁Пи	-4008
▁гео	-4009
чением	-4010
▁добро	-4011
▁расти	-4012
▁ненави	-4013
▁очередь	-4014
▁казалось	-4015
▁проблемой	-4016
степ	-4017
▁Пока	-4018
▁печа	-4019
эт	-4020
нос	-4021
чик	-4022
меня	-4023
▁СМИ	-4024
▁пам	-4025
▁звёз	-4026
▁ясно	-4027
▁верси	-4028
▁двумя	-4029
▁достиг	-4030
▁понимаю	-4031
▁приводит	-4032
,5	-4033
ИЧ	-4034
бре	-4035
мая	-4036
ссив	-4037
▁бло	-4038
▁спро	-4039
▁какая	-4040
▁возрасте	-4041
▁помню	-4042
▁экспер	-4043
▁удоволь	-4044
▁последова	-4045
▁предпринима	-4046
нца	-4047
▁ВИЧ	-4048
▁визу	-4049
▁пусты	-4050
▁причин	-4051
▁команда	-4052
▁Соедин	-4053
▁основа	-4054
▁парень	-4055
▁заставить	-4056
▁земли	-4057
▁сопро	-4058
▁работаем	-4059
▁разработ	-4060
реди	-4061
▁тём	-4062
▁зелё	-4063
▁отдель	-4064
▁конферен	-4065
вос	-4066
▁реаги	-4067
▁работаю	-4068
▁обществе	-4069
лад	-4070
рур	-4071
дится	-4072
▁поги	-4073
▁пото	-4074
▁китай	-4075
обо	-4076
▁опубли	-4077
▁отказа	-4078
▁различи	-4079
▁сосредо	-4080
вей	-4081
▁яр	-4082
сыла	-4083
▁уче	-4084
▁регу	-4085
ственности	-4086
▁услу	-4087
▁секрет	-4088
тин	-4089
▁ква	-4090
ляции	-4091
▁хуже	-4092
▁большую	-4093
▁увидели	-4094
▁пона	-4095
▁спут	-4096
▁знала	-4097
▁состояние	-4098
▁студентов	-4099
гер	-4100
▁ключе	-4101
▁различные	-4102
альное	-4103
▁вести	-4104
▁выну	-4105
новения	-4106
▁эффект	-4107
чета	-4108
нного	-4109
▁хвата	-4110
▁безопас	-4111
▁простой	-4112
▁пытаемся	-4113
лайн	-4114
▁идти	-4115
▁судь	-4116
▁влияет	-4117
▁Кали	-4118
▁неуда	-4119
▁Первый	-4120
▁теории	-4121
тельными	-4122
▁пользова	-4123
▁ситуация	-4124
▁принимать	-4125
▁количества	-4126
▁предполага	-4127
▁реальности	-4128
▁изображения	-4129
%.	-4130
лит	-4131
вычай	-4132
ждает	-4133
▁Хотя	-4134
▁уско	-4135
▁преобра	-4136
▁ситуацию	-4137
▁прекрасно	-4138
эй	-4139
вов	-4140
▁будь	-4141
▁детьми	-4142
▁филосо	-4143
▁реальность	-4144
▁аку	-4145
▁бабу	-4146
▁космо	-4147
▁условия	-4148
▁провести	-4149
▁продолжать	-4150
гая	-4151
лам	-4152
▁распре	-4153
▁ут	-4154
▁верно	-4155
▁инфра	-4156
▁пойти	-4157
зирован	-4158
▁компаний	-4159
▁развитие	-4160
тим	-4161
▁поки	-4162
▁тяжё	-4163
▁ядер	-4164
▁ваших	-4165
▁нового	-4166
▁первое	-4167
▁повторя	-4168
▁родителей	-4169
пуск	-4170
чению	-4171
▁кров	-4172
читать	-4173
▁клиен	-4174
▁роста	-4175
▁передви	-4176
▁двигаться	-4177
▁оказалось	-4178
дами	-4179
▁логи	-4180
▁остаётся	-4181
▁разнообрази	-4182
▁производства	-4183
жный	-4184
жных	-4185
стая	-4186
телям	-4187
▁дизайн	-4188
▁Пу	-4189
▁Фран	-4190
▁обез	-4191
▁заканчи	-4192
▁констру	-4193
дё	-4194
тива	-4195
▁разу	-4196
▁руко	-4197
▁соба	-4198
▁завер	-4199
▁цивили	-4200
▁использования	-4201
▁зап	-4202
▁вспом	-4203
ствовали	-4204
▁большей	-4205
▁глубоко	-4206
▁небольшой	-4207
▁поез	-4208
▁голове	-4209
▁насили	-4210
▁размыш	-4211
▁которому	-4212
ссия	-4213
▁зер	-4214
▁жили	-4215
▁посвя	-4216
▁Посмотрите	-4217
дали	-4218
структу	-4219
▁искать	-4220
▁каждую	-4221
▁маленький	-4222
▁устройство	-4223
▁дво	-4224
▁беспла	-4225
▁первых	-4226
▁события	-4227
джа	-4228
пти	-4229
▁вез	-4230
▁иллю	-4231
▁важное	-4232
▁Май	-4233
▁Рас	-4234
▁моём	-4235
▁нерв	-4236
▁запол	-4237
дина	-4238
ковые	-4239
▁Джон	-4240
▁вело	-4241
▁трав	-4242
▁приоб	-4243
▁прото	-4244
▁положи	-4245
▁изучать	-4246
▁удивительно	-4247
Вы	-4248
ору	-4249
пто	-4250
тём	-4251
рица	-4252
сюду	-4253
▁суб	-4254
▁тай	-4255
▁расту	-4256
▁программ	-4257
▁процесса	-4258
▁позволить	-4259
▁объя	-4260
▁това	-4261
жал	-4262
чили	-4263
▁увели	-4264
▁ближай	-4265
▁Калифор	-4266
▁случаев	-4267
▁распозна	-4268
▁понимаете	-4269
▁фактически	-4270
▁зависимости	-4271
▁198	-4272
▁боя	-4273
▁най	-4274
ковых	-4275
▁перво	-4276
▁данный	-4277
▁получают	-4278
▁большим	-4279
▁главное	-4280
▁столкну	-4281
▁очевидно	-4282
▁подобные	-4283
▁экономики	-4284
▁километров	-4285
▁устройства	-4286
▁значительно	-4287
Ко	-4288
▁ок	-4289
▁Джо	-4290
▁суть	-4291
▁делал	-4292
▁непро	-4293
▁приеха	-4294
▁сделала	-4295
▁террори	-4296
re	-4297
оте	-4298
рас	-4299
▁зу	-4300
гому	-4301
▁утра	-4302
▁чуде	-4303
▁месяца	-4304
▁чрезвычай	-4305
нули	-4306
▁Наша	-4307
▁Проб	-4308
▁роли	-4309
▁писать	-4310
▁счастью	-4311
▁независимо	-4312
▁Ру	-4313
возь	-4314
шите	-4315
циями	-4316
▁спор	-4317
▁лидер	-4318
▁загряз	-4319
▁появляется	-4320
ненно	-4321
▁Второй	-4322
▁правило	-4323
▁препода	-4324
▁понимание	-4325
▁л	-4326
чью	-4327
лить	-4328
▁удоб	-4329
▁давно	-4330
▁повер	-4331
▁финанси	-4332
▁человеку	-4333
фы	-4334
дже	-4335
▁пон	-4336
▁любы	-4337
▁сним	-4338
▁центр	-4339
▁крайне	-4340
▁Америки	-4341
▁здорово	-4342
▁развива	-4343
▁создание	-4344
▁:	-4345
пля	-4346
▁Лон	-4347
вторы	-4348
▁лета	-4349
▁счёт	-4350
▁погру	-4351
▁самих	-4352
▁успеха	-4353
▁сосредото	-4354
пой	-4355
ющем	-4356
▁Кар	-4357
▁дни	-4358
▁длин	-4359
▁поза	-4360
нуться	-4361
▁языке	-4362
▁оптими	-4363
▁пришёл	-4364
▁оставля	-4365
▁нано	-4366
▁хозяй	-4367
▁поступи	-4368
▁атмосфер	-4369
Ви	-4370
чется	-4371
▁глаз	-4372
▁поможет	-4373
▁понятия	-4374
▁мора	-4375
▁жизнью	-4376
▁социальных	-4377
Ка	-4378
кци	-4379
чном	-4380
▁цве	-4381
▁семье	-4382
▁форме	-4383
другому	-4384
▁сердца	-4385
▁страна	-4386
▁учиться	-4387
▁способности	-4388
▁поэ	-4389
▁аспе	-4390
▁фунда	-4391
▁купить	-4392
▁прогно	-4393
нным	-4394
ново	-4395
онах	-4396
▁Крис	-4397
▁мать	-4398
▁Никто	-4399
▁путём	-4400
▁разобра	-4401
няка	-4402
▁эпо	-4403
▁голов	-4404
▁трени	-4405
▁насеко	-4406
▁новости	-4407
сил	-4408
сро	-4409
тое	-4410
коми	-4411
отно	-4412
▁живёт	-4413
▁решила	-4414
▁порядке	-4415
▁участие	-4416
юще	-4417
▁полно	-4418
▁выращи	-4419
▁онлайн	-4420
▁раскры	-4421
▁желание	-4422
▁неожида	-4423
▁природе	-4424
▁четырёх	-4425
▁воспомина	-4426
чность	-4427
▁трети	-4428
▁здание	-4429
▁каждая	-4430
▁машину	-4431
казывается	-4432
руя	-4433
нике	-4434
▁дра	-4435
▁теми	-4436
▁чере	-4437
▁крови	-4438
▁страх	-4439
▁Однажды	-4440
▁привести	-4441
тех	-4442
▁собрать	-4443
▁вопросов	-4444
▁растения	-4445
ace	-4446
дея	-4447
мно	-4448
раб	-4449
жима	-4450
тыми	-4451
жению	-4452
▁кана	-4453
▁происходи	-4454
▁человеческого	-4455
гант	-4456
рудо	-4457
▁чёт	-4458
▁домаш	-4459
▁думала	-4460
▁мнение	-4461
▁создаёт	-4462
▁присоеди	-4463
▁важны	-4464
▁устро	-4465
▁первая	-4466
▁применя	-4467
▁справедливо	-4468
▁Ти	-4469
▁сх	-4470
мыми	-4471
нила	-4472
тием	-4473
ваемся	-4474
▁Через	-4475
▁столь	-4476
▁читать	-4477
дах	-4478
▁зло	-4479
▁коле	-4480
▁Более	-4481
▁Кроме	-4482
▁вакци	-4483
мин	-4484
▁шанс	-4485
▁изменение	-4486
▁относительно	-4487
▁пространства	-4488
50	-4489
скими	-4490
▁Было	-4491
▁Восто	-4492
▁можешь	-4493
▁перспе	-4494
▁искусство	-4495
лек	-4496
▁Тем	-4497
Йорке	-4498
▁конец	-4499
▁любом	-4500
▁рынок	-4501
▁совет	-4502
▁создают	-4503
▁поколение	-4504
▁программу	-4505
зер	-4506
делы	-4507
▁звез	-4508
▁нему	-4509
альная	-4510
ередине	-4511
▁хорошие	-4512
▁великоле	-4513
▁культуры	-4514
▁обеспечи	-4515
▁научиться	-4516
ro	-4517
▁бю	-4518
втра	-4519
▁плохи	-4520
▁фанта	-4521
▁создал	-4522
▁способа	-4523
▁животные	-4524
▁доб	-4525
▁пле	-4526
нений	-4527
▁снима	-4528
▁музыку	-4529
▁первым	-4530
▁первого	-4531
▁качества	-4532
▁программа	-4533
▁руково	-4534
▁эволюции	-4535
вен	-4536
торию	-4537
▁ежед	-4538
блиоте	-4539
▁прият	-4540
▁Пом	-4541
терна	-4542
▁поводу	-4543
▁воздуха	-4544
кле	-4545
нят	-4546
фро	-4547
льзо	-4548
нику	-4549
▁вопло	-4550
▁называю	-4551
▁представляет	-4552
леть	-4553
▁вес	-4554
▁новая	-4555
▁лучший	-4556
▁Мак	-4557
емого	-4558
▁кино	-4559
▁небе	-4560
▁добра	-4561
▁будучи	-4562
▁ресурсы	-4563
▁единственный	-4564
ир	-4565
▁чь	-4566
▁добы	-4567
▁препят	-4568
▁узнали	-4569
▁вопроса	-4570
▁инструменты	-4571
лло	-4572
▁км	-4573
щими	-4574
щении	-4575
▁доме	-4576
▁убий	-4577
▁следо	-4578
▁образу	-4579
водят	-4580
▁запу	-4581
▁могло	-4582
▁опухо	-4583
▁повре	-4584
▁машина	-4585
▁мировой	-4586
▁меняется	-4587
▁показали	-4588
▁управлять	-4589
ствий	-4590
▁коми	-4591
▁море	-4592
руются	-4593
▁водой	-4594
▁Европе	-4595
▁повсюду	-4596
▁способы	-4597
▁ощущение	-4598
▁выступления	-4599
жки	-4600
зра	-4601
вшего	-4602
вятся	-4603
летво	-4604
▁тему	-4605
оборот	-4606
▁макси	-4607
▁попыт	-4608
▁городов	-4609
▁отношение	-4610
▁получится	-4611
▁эксперимента	-4612
).	-4613
he	-4614
▁ны	-4615
сипе	-4616
▁гре	-4617
▁фра	-4618
▁океан	-4619
▁случаях	-4620
Ну	-4621
мок	-4622
енера	-4623
▁види	-4624
▁служ	-4625
▁конти	-4626
довлетво	-4627
▁справля	-4628
▁считать	-4629
дка	-4630
еми	-4631
мар	-4632
▁справа	-4633
▁подобных	-4634
▁Ста	-4635
▁выя	-4636
▁веке	-4637
новение	-4638
▁улучшить	-4639
▁обязательно	-4640
гото	-4641
▁Чем	-4642
ждают	-4643
▁кусо	-4644
▁сосе	-4645
▁инжене	-4646
▁эмоции	-4647
емь	-4648
рета	-4649
▁фут	-4650
тании	-4651
▁хоть	-4652
▁линии	-4653
▁настро	-4654
▁дополни	-4655
бря	-4656
били	-4657
▁Где	-4658
▁голу	-4659
▁слева	-4660
▁учиты	-4661
▁заключ	-4662
▁квадра	-4663
▁телеви	-4664
▁примеров	-4665
циа	-4666
▁вашу	-4667
▁плат	-4668
▁короб	-4669
▁намер	-4670
▁описы	-4671
▁контек	-4672
▁освобо	-4673
▁говорила	-4674
▁самостоя	-4675
▁наблюдать	-4676
цам	-4677
▁Гар	-4678
▁сил	-4679
ровки	-4680
▁восхи	-4681
▁размер	-4682
▁насилия	-4683
▁связаны	-4684
▁появилась	-4685
доро	-4686
лыми	-4687
▁Бер	-4688
▁ада	-4689
▁горя	-4690
▁имеем	-4691
▁руках	-4692
▁улице	-4693
▁словно	-4694
▁застави	-4695
▁провели	-4696
▁произойдёт	-4697
пора	-4698
фика	-4699
▁кампа	-4700
▁шести	-4701
▁основан	-4702
▁подобное	-4703
два	-4704
стин	-4705
▁газа	-4706
▁ночь	-4707
▁среде	-4708
▁хирур	-4709
льности	-4710
▁записа	-4711
▁спасти	-4712
▁сторон	-4713
▁исключи	-4714
▁роботов	-4715
▁материал	-4716
▁способом	-4717
▁выглядеть	-4718
▁Оказывается	-4719
et	-4720
дила	-4721
▁иско	-4722
ствием	-4723
▁сквозь	-4724
▁конечном	-4725
▁чувствовать	-4726
▁инфраструкту	-4727
шеб	-4728
▁Наши	-4729
▁девя	-4730
▁прожи	-4731
▁концеп	-4732
▁лучших	-4733
▁усилия	-4734
▁происходя	-4735
▁использует	-4736
лег	-4737
мяти	-4738
мость	-4739
вторых	-4740
тивные	-4741
▁трево	-4742
▁насчёт	-4743
▁помогают	-4744
▁смотрите	-4745
▁возникает	-4746
Нет	-4747
спи	-4748
рией	-4749
сказа	-4750
▁ноги	-4751
▁стен	-4752
жается	-4753
▁довер	-4754
▁класс	-4755
▁Проблема	-4756
▁велосипе	-4757
▁вещества	-4758
Йорк	-4759
тное	-4760
▁имму	-4761
чности	-4762
▁сцена	-4763
▁пришла	-4764
▁препара	-4765
▁E	-4766
дам	-4767
шел	-4768
▁шу	-4769
ковы	-4770
нную	-4771
тура	-4772
▁Мои	-4773
нокожи	-4774
▁Следу	-4775
▁запад	-4776
енности	-4777
▁власть	-4778
▁самолё	-4779
лое	-4780
реза	-4781
цвета	-4782
▁торго	-4783
▁болезнь	-4784
▁понимаем	-4785
▁показывают	-4786
ейс	-4787
жат	-4788
тика	-4789
▁хро	-4790
▁спас	-4791
жаться	-4792
▁запла	-4793
▁какую	-4794
▁голоса	-4795
▁звучит	-4796
▁посред	-4797
▁соедин	-4798
американ	-4799
▁сработа	-4800
▁фундамента	-4801
гни	-4802
дию	-4803
▁197	-4804
▁Гер	-4805
стами	-4806
чиная	-4807
▁выро	-4808
▁Китае	-4809
▁Лондо	-4810
▁своему	-4811
▁секунд	-4812
▁список	-4813
▁проявля	-4814
▁улы	-4815
▁найд	-4816
▁повез	-4817
▁памяти	-4818
▁настоящее	-4819
гети	-4820
няли	-4821
▁бар	-4822
▁гено	-4823
▁зовут	-4824
▁указа	-4825
▁взаимос	-4826
▁комнате	-4827
▁понрави	-4828
▁потреби	-4829
▁стороне	-4830
▁изобрета	-4831
▁остальные	-4832
▁следующее	-4833
▁контролировать	-4834
▁Дэ	-4835
▁охо	-4836
▁везде	-4837
▁кроше	-4838
▁моему	-4839
▁учёных	-4840
▁дизайна	-4841
▁способов	-4842
is	-4843
пей	-4844
енщи	-4845
язви	-4846
следу	-4847
▁комму	-4848
▁среду	-4849
▁сфере	-4850
▁воздух	-4851
▁природ	-4852
▁команды	-4853
▁сильнее	-4854
▁вызывает	-4855
▁обеспечить	-4856
фу	-4857
▁300	-4858
▁зад	-4859
зован	-4860
нёмся	-4861
▁совмест	-4862
лев	-4863
чён	-4864
печа	-4865
▁дали	-4866
▁дире	-4867
▁леса	-4868
▁изменя	-4869
▁очевид	-4870
▁границы	-4871
▁ресурсов	-4872
рик	-4873
вете	-4874
рика	-4875
чики	-4876
▁час	-4877
брать	-4878
▁золо	-4879
▁оказывается	-4880
чие	-4881
вели	-4882
енти	-4883
▁зача	-4884
▁преу	-4885
▁вынужд	-4886
▁наркоти	-4887
▁оборудо	-4888
▁вдохновля	-4889
▁тан	-4890
грать	-4891
▁дают	-4892
▁ребя	-4893
▁рисо	-4894
▁астро	-4895
▁библиоте	-4896
▁продолжи	-4897
▁Благодаря	-4898
▁социальные	-4899
▁направлении	-4900
▁24	-4901
тельны	-4902
ключить	-4903
ель	-4904
▁Ав	-4905
▁Тут	-4906
▁ряд	-4907
▁двер	-4908
▁опыта	-4909
▁религиоз	-4910
▁рождения	-4911
▁появились	-4912
am	-4913
▁21	-4914
▁рыба	-4915
▁напол	-4916
▁пропа	-4917
▁футбо	-4918
▁целый	-4919
▁Послед	-4920
▁лечение	-4921
▁молодых	-4922
▁противополо	-4923
лую	-4924
▁предм	-4925
▁основы	-4926
▁память	-4927
▁секунду	-4928
▁требует	-4929
▁согласно	-4930
▁изменений	-4931
зен	-4932
лёт	-4933
цах	-4934
▁копи	-4935
▁пожи	-4936
▁концен	-4937
▁пройти	-4938
▁работала	-4939
▁разрабаты	-4940
енси	-4941
▁пун	-4942
▁веду	-4943
альным	-4944
▁масштаб	-4945
▁понадоби	-4946
▁ответственность	-4947
тать	-4948
▁юри	-4949
▁саха	-4950
ниться	-4951
▁динами	-4952
▁строить	-4953
▁восстанов	-4954
▁управления	-4955
жо	-4956
шке	-4957
гают	-4958
хожу	-4959
▁каком	-4960
▁сложные	-4961
▁обучение	-4962
▁опублико	-4963
▁задуматься	-4964
ook	-4965
▁эн	-4966
енные	-4967
никам	-4968
▁зага	-4969
ждений	-4970
ленный	-4971
▁задачи	-4972
▁городах	-4973
▁никаких	-4974
▁отличие	-4975
▁планета	-4976
▁выяснить	-4977
▁ответить	-4978
▁профессо	-4979
▁размером	-4980
▁фотография	-4981
плы	-4982
тности	-4983
▁досто	-4984
▁погло	-4985
▁кстати	-4986
▁партнё	-4987
▁Сначала	-4988
▁направля	-4989
▁приходит	-4990
▁программи	-4991
▁пользоваться	-4992
шают	-4993
жнему	-4994
няются	-4995
▁месяц	-4996
▁скажем	-4997
▁хороший	-4998
▁пытались	-4999
▁скоростью	-5000
▁составляет	-5001
▁вероятность	-5002
вяз	-5003
пки	-5004
эро	-5005
жели	-5006
лиять	-5007
▁Дело	-5008
▁идут	-5009
▁волну	-5010
▁мозге	-5011
▁отрица	-5012
▁ходить	-5013
▁экосист	-5014
гам	-5015
чны	-5016
▁Ту	-5017
онов	-5018
рыва	-5019
кобри	-5020
▁кожи	-5021
тность	-5022
▁людях	-5023
▁узнал	-5024
▁выделя	-5025
▁получилось	-5026
▁заболеваний	-5027
бая	-5028
нку	-5029
▁мг	-5030
▁кост	-5031
▁вирту	-5032
▁вирус	-5033
▁ошибо	-5034
▁обрабо	-5035
▁качество	-5036
▁удовлетво	-5037
▁использование	-5038
жая	-5039
оло	-5040
▁реко	-5041
▁тера	-5042
▁миром	-5043
▁номер	-5044
▁серде	-5045
▁однако	-5046
▁жителей	-5047
▁континен	-5048
▁получаем	-5049
▁последнее	-5050
гности	-5051
▁инфек	-5052
▁назна	-5053
▁обнару	-5054
▁интересу	-5055
▁скорость	-5056
▁Великобри	-5057
▁наверняка	-5058
кл	-5059
▁Обы	-5060
▁пят	-5061
Видео	-5062
▁броса	-5063
▁видят	-5064
▁ресто	-5065
▁бороться	-5066
▁политики	-5067
▁прошлого	-5068
▁инструмент	-5069
▁выступление	-5070
▁ез	-5071
жена	-5072
тего	-5073
▁метод	-5074
▁поеха	-5075
▁обрати	-5076
▁альтерна	-5077
▁огромные	-5078
мыс	-5079
▁Ки	-5080
▁ато	-5081
▁лес	-5082
▁взяли	-5083
▁выйти	-5084
▁посети	-5085
зре	-5086
мон	-5087
▁гро	-5088
▁дав	-5089
▁внед	-5090
▁отвер	-5091
▁дизайне	-5092
▁пытаясь	-5093
▁наоборот	-5094
▁настоящий	-5095
гии	-5096
▁оба	-5097
мости	-5098
▁Всем	-5099
нейших	-5100
▁ближе	-5101
▁уязви	-5102
▁гигант	-5103
▁постеп	-5104
▁эпидеми	-5105
▁автомати	-5106
▁говорите	-5107
▁маленьких	-5108
▁196	-5109
▁бри	-5110
тация	-5111
▁ниже	-5112
Почему	-5113
▁насле	-5114
▁отсле	-5115
▁рецеп	-5116
▁общего	-5117
▁считаем	-5118
▁зарабаты	-5119
▁сохранить	-5120
лья	-5121
рела	-5122
▁рыб	-5123
▁сущ	-5124
▁столк	-5125
▁языка	-5126
▁законо	-5127
▁защиты	-5128
▁обозна	-5129
▁действий	-5130
▁вселенной	-5131
▁положение	-5132
ванто	-5133
▁заво	-5134
▁став	-5135
▁вашем	-5136
▁выход	-5137
ствовал	-5138
▁завтра	-5139
▁каждое	-5140
▁оконча	-5141
роваться	-5142
▁деревья	-5143
▁начинаем	-5144
▁пытаются	-5145
▁Несколько	-5146
▁чрезвычайно	-5147
▁дро	-5148
▁воде	-5149
▁нерав	-5150
▁лучшее	-5151
▁провед	-5152
▁последних	-5153
сим	-5154
▁Ком	-5155
▁ино	-5156
▁сты	-5157
▁пище	-5158
▁наука	-5159
▁склон	-5160
▁смерть	-5161
▁причины	-5162
▁пытается	-5163
▁ИИ	-5164
▁учеб	-5165
▁карту	-5166
▁послу	-5167
▁сосед	-5168
▁индуст	-5169
▁катего	-5170
▁страну	-5171
▁Существует	-5172
зой	-5173
рие	-5174
запно	-5175
шается	-5176
▁увидим	-5177
▁показал	-5178
▁перспекти	-5179
▁познакоми	-5180
Ты	-5181
тур	-5182
▁еду	-5183
▁отца	-5184
▁штат	-5185
▁требо	-5186
▁волшеб	-5187
▁нашими	-5188
▁спокой	-5189
▁захваты	-5190
▁сделаем	-5191
▁чувствую	-5192
▁отношении	-5193
мс	-5194
мии	-5195
мана	-5196
сток	-5197
част	-5198
жность	-5199
▁утром	-5200
▁Видите	-5201
▁требуется	-5202
нди	-5203
люби	-5204
рого	-5205
▁мел	-5206
▁тен	-5207
ждали	-5208
▁Челове	-5209
▁видела	-5210
▁методы	-5211
▁спросить	-5212
▁существа	-5213
▁государства	-5214
дио	-5215
лям	-5216
book	-5217
▁мол	-5218
▁пры	-5219
▁круг	-5220
▁смогу	-5221
▁решать	-5222
▁сигнал	-5223
▁руковод	-5224
▁поведения	-5225
▁пространстве	-5226
▁уз	-5227
нями	-5228
▁бом	-5229
ровала	-5230
▁Такие	-5231
▁любого	-5232
▁вариант	-5233
▁появился	-5234
▁процвета	-5235
▁структуры	-5236
▁компьютеры	-5237
жь	-5238
кому	-5239
▁гипо	-5240
▁маля	-5241
▁рыбы	-5242
▁свое	-5243
▁Южной	-5244
▁холод	-5245
▁Первое	-5246
▁разница	-5247
▁справиться	-5248
▁действовать	-5249
лав	-5250
▁Чи	-5251
енных	-5252
мерно	-5253
▁плане	-5254
▁теория	-5255
▁бизнеса	-5256
▁взглянуть	-5257
цом	-5258
гран	-5259
жено	-5260
изво	-5261
сюда	-5262
▁сда	-5263
▁верх	-5264
▁кофе	-5265
▁замед	-5266
▁набор	-5267
▁особо	-5268
▁солда	-5269
▁Первая	-5270
▁класса	-5271
▁невиди	-5272
работать	-5273
▁энергия	-5274
▁компонен	-5275
▁огромный	-5276
▁преврати	-5277
вью	-5278
вшей	-5279
▁цер	-5280
▁заго	-5281
▁разговор	-5282
▁университета	-5283
▁представления	-5284
мум	-5285
▁зака	-5286
▁мурав	-5287
▁свето	-5288
▁причиной	-5289
▁характер	-5290
▁достижения	-5291
За	-5292
ктов	-5293
ноза	-5294
▁доли	-5295
▁дыха	-5296
▁изда	-5297
▁крат	-5298
▁опро	-5299
▁Земля	-5300
▁сложнее	-5301
▁получать	-5302
▁обнаружил	-5303
▁заставляет	-5304
чке	-5305
▁Face	-5306
▁плем	-5307
ющийся	-5308
▁обраща	-5309
▁делаете	-5310
▁знамени	-5311
▁корпора	-5312
▁энергети	-5313
▁материалы	-5314
▁большинства	-5315
▁Ст	-5316
новь	-5317
ьмём	-5318
▁дис	-5319
ковой	-5320
▁взял	-5321
▁режи	-5322
▁Женщи	-5323
▁каких	-5324
▁успех	-5325
▁бывает	-5326
▁голосо	-5327
▁класси	-5328
▁повлия	-5329
▁избежать	-5330
ch	-5331
бую	-5332
дца	-5333
▁еды	-5334
▁ума	-5335
▁числе	-5336
▁лучшие	-5337
▁одному	-5338
▁остальных	-5339
▁позволяют	-5340
▁путешествие	-5341
уго	-5342
▁80	-5343
▁Вз	-5344
▁законы	-5345
вре	-5346
ённые	-5347
▁любят	-5348
▁хочется	-5349
▁выглядят	-5350
▁медленно	-5351
▁подумала	-5352
▁понимают	-5353
▁охра	-5354
вающие	-5355
▁звёзд	-5356
▁соглас	-5357
▁рабочих	-5358
▁Facebook	-5359
▁подумали	-5360
▁Аф	-5361
Если	-5362
дера	-5363
чают	-5364
шинг	-5365
▁заба	-5366
▁подс	-5367
нилось	-5368
▁невер	-5369
▁мусуль	-5370
▁конкурен	-5371
▁поддерживать	-5372
бера	-5373
емое	-5374
стям	-5375
сыпа	-5376
▁объё	-5377
▁утро	-5378
▁верши	-5379
▁задумы	-5380
▁ужасно	-5381
▁выбрать	-5382
▁продукт	-5383
▁пытался	-5384
▁размера	-5385
▁открытия	-5386
▁аудитории	-5387
▁организма	-5388
▁происходят	-5389
▁территории	-5390
ter	-5391
▁сю	-5392
чена	-5393
▁Ира	-5394
ешься	-5395
▁Согла	-5396
▁лежит	-5397
▁Подума	-5398
ственном	-5399
▁событий	-5400
▁сострада	-5401
▁спросила	-5402
▁противоре	-5403
сред	-5404
▁пау	-5405
▁бата	-5406
▁вовсе	-5407
прежнему	-5408
▁сравнению	-5409
▁пожалуйста	-5410
▁i	-5411
вана	-5412
пуль	-5413
▁книг	-5414
меется	-5415
▁талан	-5416
▁важный	-5417
▁дороги	-5418
рованных	-5419
▁каждому	-5420
▁друзьями	-5421
▁неизвест	-5422
▁попробовать	-5423
▁используется	-5424
тона	-5425
▁Пар	-5426
▁Япо	-5427
▁плю	-5428
чиков	-5429
▁вско	-5430
▁восемь	-5431
▁сравни	-5432
▁отлично	-5433
▁подходя	-5434
▁беженцев	-5435
Мо	-5436
▁ще	-5437
куси	-5438
▁одни	-5439
▁опла	-5440
▁ночью	-5441
▁важнее	-5442
▁знаний	-5443
▁пытаюсь	-5444
▁заметить	-5445
▁подготов	-5446
▁коллектив	-5447
▁технологию	-5448
▁разобраться	-5449
жала	-5450
мого	-5451
денти	-5452
▁группе	-5453
▁полицей	-5454
▁хорошая	-5455
▁контроля	-5456
▁понимания	-5457
▁пределами	-5458
кты	-5459
▁Фи	-5460
части	-5461
▁диск	-5462
▁моря	-5463
▁посла	-5464
▁бедных	-5465
▁группу	-5466
▁контра	-5467
▁письмо	-5468
▁область	-5469
▁привело	-5470
оны	-5471
чали	-5472
▁...	-5473
нется	-5474
честву	-5475
▁Ответ	-5476
▁науке	-5477
▁парни	-5478
пустили	-5479
▁мнению	-5480
▁тяжело	-5481
▁картину	-5482
▁сделано	-5483
▁масштаба	-5484
▁компьютера	-5485
▁Й	-5486
ждая	-5487
пись	-5488
▁Сто	-5489
тором	-5490
▁Джор	-5491
▁сосу	-5492
тивных	-5493
▁зерка	-5494
▁разби	-5495
▁телеско	-5496
▁Поскольку	-5497
▁поверхность	-5498
▁бесе	-5499
▁даль	-5500
ностей	-5501
▁робот	-5502
▁север	-5503
▁спект	-5504
▁получила	-5505
▁ценности	-5506
эр	-5507
▁иск	-5508
вающих	-5509
▁вновь	-5510
▁кванто	-5511
▁робота	-5512
▁девочек	-5513
▁сигналы	-5514
▁зачастую	-5515
▁никакого	-5516
▁оказался	-5517
▁расстрой	-5518
▁преобразо	-5519
▁предоставля	-5520
рои	-5521
екси	-5522
чено	-5523
благо	-5524
скому	-5525
▁свер	-5526
▁впере	-5527
▁ткани	-5528
▁инвали	-5529
▁глазами	-5530
▁связано	-5531
▁Цен	-5532
ченные	-5533
▁грави	-5534
▁звуки	-5535
▁легче	-5536
▁данном	-5537
▁жизнен	-5538
▁серьёзно	-5539
▁совершен	-5540
нях	-5541
ляет	-5542
споко	-5543
▁нега	-5544
▁стаби	-5545
▁минуту	-5546
▁радика	-5547
ключения	-5548
▁хватает	-5549
▁продукты	-5550
▁потенциал	-5551
мимо	-5552
▁бор	-5553
▁дочь	-5554
▁землю	-5555
▁Кстати	-5556
▁борьбе	-5557
▁ответа	-5558
▁начиная	-5559
▁получает	-5560
▁приходят	-5561
el	-5562
▁вну	-5563
▁съе	-5564
▁шоу	-5565
▁кораб	-5566
▁важные	-5567
▁углеки	-5568
▁десятки	-5569
▁любопыт	-5570
▁открыто	-5571
▁повезло	-5572
▁приблизи	-5573
▁демонстри	-5574
▁американцев	-5575
гип	-5576
мене	-5577
числи	-5578
▁насла	-5579
▁Афгани	-5580
▁Вашинг	-5581
▁экране	-5582
▁помните	-5583
▁пациента	-5584
▁диагности	-5585
дку	-5586
нией	-5587
план	-5588
▁Запад	-5589
▁имели	-5590
▁сформи	-5591
рировать	-5592
▁самостоятельно	-5593
▁чт	-5594
вшим	-5595
▁приз	-5596
▁новым	-5597
▁сцене	-5598
▁Несмотря	-5599
▁молекулы	-5600
▁организм	-5601
▁предсказа	-5602
учи	-5603
мысли	-5604
▁небо	-5605
кономи	-5606
▁момен	-5607
▁дольше	-5608
▁обезья	-5609
▁неравен	-5610
▁открыть	-5611
▁проходит	-5612
риа	-5613
▁Ман	-5614
▁кад	-5615
дение	-5616
вшихся	-5617
▁интуи	-5618
▁стату	-5619
ключение	-5620
▁Северной	-5621
▁защитить	-5622
▁сообщество	-5623
ндже	-5624
▁дал	-5625
лично	-5626
▁семи	-5627
▁ство	-5628
▁риско	-5629
▁измери	-5630
▁кризис	-5631
▁повсед	-5632
▁трилли	-5633
ственную	-5634
▁миллион	-5635
▁среднем	-5636
▁учителя	-5637
▁вернулся	-5638
▁интервью	-5639
▁рассказал	-5640
▁деятельности	-5641
▁человеческой	-5642
ёв	-5643
кор	-5644
▁Гу	-5645
сьми	-5646
▁400	-5647
льник	-5648
▁Полу	-5649
▁наро	-5650
▁учре	-5651
▁волны	-5652
▁преды	-5653
▁симпто	-5654
▁Исследо	-5655
▁вернуть	-5656
▁проходи	-5657
▁название	-5658
▁скорости	-5659
▁остановить	-5660
▁социальной	-5661
▁Ло	-5662
▁мл	-5663
жным	-5664
▁загля	-5665
▁встрет	-5666
▁доктор	-5667
▁подроб	-5668
▁растёт	-5669
▁узнала	-5670
▁источник	-5671
▁проводить	-5672
▁приходилось	-5673
▁собственные	-5674
ъек	-5675
▁Бог	-5676
▁ниж	-5677
▁чле	-5678
▁имел	-5679
▁пищи	-5680
альную	-5681
▁внутрь	-5682
▁играют	-5683
▁исчеза	-5684
▁рамках	-5685
▁сочета	-5686
▁четвер	-5687
▁фантасти	-5688
▁демократи	-5689
▁производи	-5690
▁обнаружить	-5691
виа	-5692
чешь	-5693
щихся	-5694
▁обви	-5695
▁нашёл	-5696
деление	-5697
▁вскоре	-5698
▁записы	-5699
▁музыки	-5700
▁назвать	-5701
▁возвраща	-5702
▁осталось	-5703
▁ощущения	-5704
▁революции	-5705
▁гиб	-5706
▁малы	-5707
▁фигу	-5708
льность	-5709
работки	-5710
▁задать	-5711
▁добавля	-5712
▁характери	-5713
лку	-5714
▁Пе	-5715
йдет	-5716
шили	-5717
▁Сло	-5718
▁очи	-5719
чений	-5720
▁надё	-5721
▁отчая	-5722
▁проще	-5723
▁самоу	-5724
▁стрем	-5725
ционные	-5726
▁воспро	-5727
▁ответы	-5728
лировать	-5729
▁моменты	-5730
▁собственной	-5731
▁представляют	-5732
кви	-5733
обе	-5734
под	-5735
вшая	-5736
▁вло	-5737
▁ног	-5738
▁вкус	-5739
▁углу	-5740
▁граду	-5741
▁автобу	-5742
▁дорого	-5743
▁станут	-5744
▁повседнев	-5745
неш	-5746
ьез	-5747
рисо	-5748
слуша	-5749
совер	-5750
▁Джей	-5751
▁дога	-5752
▁вклад	-5753
▁вырос	-5754
▁ребен	-5755
▁чудес	-5756
▁десять	-5757
▁иденти	-5758
▁бактерии	-5759
▁катастро	-5760
▁мышления	-5761
▁интеллекту	-5762
▁исследовать	-5763
].	-5764
жин	-5765
вила	-5766
▁лам	-5767
▁сро	-5768
серва	-5769
▁ассо	-5770
▁вред	-5771
▁нефти	-5772
ционной	-5773
ческому	-5774
▁важным	-5775
▁попасть	-5776
▁просмот	-5777
▁странно	-5778
▁микроско	-5779
▁осуществ	-5780
▁элементы	-5781
▁оказаться	-5782
▁конференции	-5783
▁происходило	-5784
▁промышленно	-5785
▁Мэ	-5786
пада	-5787
▁аэро	-5788
▁буты	-5789
▁мимо	-5790
▁спаса	-5791
▁Обычно	-5792
▁провёл	-5793
▁сохран	-5794
▁беремен	-5795
▁историй	-5796
▁средств	-5797
▁произвед	-5798
▁продуктов	-5799
▁информацией	-5800
▁акт	-5801
▁ске	-5802
▁сын	-5803
тного	-5804
▁паро	-5805
ждении	-5806
риться	-5807
▁Прави	-5808
▁гаран	-5809
▁районе	-5810
▁изучения	-5811
▁родствен	-5812
▁демократии	-5813
▁взаимодействия	-5814
ed	-5815
туры	-5816
фона	-5817
▁веб	-5818
▁дат	-5819
▁лиш	-5820
▁сня	-5821
созна	-5822
▁боли	-5823
▁зачем	-5824
▁зрите	-5825
▁мечты	-5826
▁тепло	-5827
▁верить	-5828
▁достой	-5829
▁знаешь	-5830
▁прийти	-5831
▁сообщи	-5832
▁разделя	-5833
зву	-5834
сел	-5835
ёрт	-5836
дыха	-5837
рные	-5838
пления	-5839
▁нашему	-5840
▁слушать	-5841
▁упомина	-5842
▁оставить	-5843
▁половина	-5844
▁растений	-5845
▁интернете	-5846
▁останавли	-5847
▁постепенно	-5848
▁Великобритании	-5849
▁ого	-5850
логии	-5851
▁речи	-5852
тивной	-5853
▁движу	-5854
▁обстоя	-5855
▁объект	-5856
▁великолеп	-5857
▁свидетель	-5858
▁c	-5859
тую	-5860
ниях	-5861
▁поса	-5862
▁жидко	-5863
▁ферме	-5864
▁бумаги	-5865
▁страха	-5866
▁реакция	-5867
▁долгосро	-5868
▁значения	-5869
▁Подумайте	-5870
▁лекарство	-5871
▁следующем	-5872
смех	-5873
▁Бан	-5874
▁кно	-5875
▁2000	-5876
▁побо	-5877
▁пого	-5878
вшиеся	-5879
▁богат	-5880
▁карты	-5881
▁редко	-5882
▁упомя	-5883
▁постав	-5884
▁проверить	-5885
▁структуру	-5886
ub	-5887
▁Ска	-5888
биоти	-5889
▁гори	-5890
▁неме	-5891
▁след	-5892
▁госпо	-5893
▁новость	-5894
▁свободу	-5895
▁появляются	-5896
as	-5897
▁реда	-5898
▁разве	-5899
▁играет	-5900
▁превос	-5901
▁прошлое	-5902
▁создаём	-5903
▁частицы	-5904
▁благодар	-5905
▁написать	-5906
▁отличается	-5907
▁большинстве	-5908
▁особенности	-5909
ОН	-5910
▁ВВ	-5911
чера	-5912
тацию	-5913
▁Идея	-5914
▁укра	-5915
▁важна	-5916
▁труда	-5917
▁какого	-5918
▁смысла	-5919
хождения	-5920
▁неприят	-5921
▁принцип	-5922
▁восприятие	-5923
змом	-5924
нула	-5925
▁Бри	-5926
▁Уни	-5927
▁Фак	-5928
▁поо	-5929
▁вовле	-5930
▁никак	-5931
▁риска	-5932
▁семью	-5933
▁импуль	-5934
▁коммер	-5935
▁отмети	-5936
▁привле	-5937
▁население	-5938
▁применить	-5939
▁яй	-5940
▁Наш	-5941
▁Неда	-5942
▁ведёт	-5943
▁годов	-5944
ционных	-5945
▁Австра	-5946
▁ошибки	-5947
▁ребята	-5948
▁третий	-5949
▁детстве	-5950
▁общения	-5951
▁предыду	-5952
▁разными	-5953
▁половиной	-5954
чим	-5955
бран	-5956
льны	-5957
▁тип	-5958
дятся	-5959
▁охва	-5960
▁сайт	-5961
▁Герма	-5962
▁важных	-5963
▁Национа	-5964
▁поисках	-5965
▁нейронов	-5966
▁неправильно	-5967
▁университете	-5968
ol	-5969
▁„	-5970
кин	-5971
пар	-5972
рем	-5973
ссу	-5974
мить	-5975
долго	-5976
▁Кана	-5977
▁аути	-5978
▁типи	-5979
▁фран	-5980
▁Брази	-5981
▁карто	-5982
▁роман	-5983
▁цифры	-5984
▁возгла	-5985
▁передо	-5986
▁поступ	-5987
▁запуска	-5988
▁последу	-5989
▁увидела	-5990
▁благотво	-5991
▁началось	-5992
▁общаться	-5993
▁случайно	-5994
▁студенты	-5995
▁материалов	-5996
▁сегодняшний	-5997
▁исследователь	-5998
кос	-5999
циям	-6000
▁Лос	-6001
▁ООН	-6002
▁бле	-6003
▁сма	-6004
конец	-6005
▁угол	-6006
жности	-6007
▁замет	-6008
▁силой	-6009
▁девочка	-6010
▁передать	-6011
▁попросили	-6012
зд	-6013
мпи	-6014
пон	-6015
чало	-6016
▁худ	-6017
▁Рабо	-6018
▁весе	-6019
▁поля	-6020
▁вызов	-6021
▁борьбы	-6022
▁назвали	-6023
▁большого	-6024
▁компанию	-6025
▁лекарств	-6026
▁непосред	-6027
▁предупре	-6028
▁ребёнком	-6029
▁ценность	-6030
До	-6031
зия	-6032
вами	-6033
▁Без	-6034
щений	-6035
▁желе	-6036
▁муль	-6037
▁птиц	-6038
▁Други	-6039
▁объекты	-6040
▁отслежи	-6041
▁дизайнер	-6042
▁замечательно	-6043
ера	-6044
гина	-6045
носи	-6046
чкой	-6047
▁туа	-6048
▁аген	-6049
▁твёр	-6050
ющейся	-6051
▁Китая	-6052
▁сумас	-6053
▁классе	-6054
▁многим	-6055
▁честно	-6056
▁убедить	-6057
▁ответила	-6058
▁стоимость	-6059
▁бесконечно	-6060
шно	-6061
жная	-6062
меру	-6063
стся	-6064
▁код	-6065
▁сра	-6066
никах	-6067
▁пале	-6068
▁ходе	-6069
▁вычис	-6070
ровании	-6071
▁диноза	-6072
▁счастье	-6073
▁безопасность	-6074
Ма	-6075
сив	-6076
гнит	-6077
жела	-6078
чами	-6079
▁Бра	-6080
▁дож	-6081
▁мер	-6082
▁музе	-6083
▁суде	-6084
тивный	-6085
▁книга	-6086
▁плака	-6087
▁детали	-6088
▁предпоч	-6089
▁свободы	-6090
▁указыва	-6091
▁подходит	-6092
▁середине	-6093
▁сознание	-6094
▁транспорт	-6095
▁попытаться	-6096
0,	-6097
мор	-6098
▁рук	-6099
невно	-6100
▁попы	-6101
▁прио	-6102
▁идеей	-6103
▁фильма	-6104
рованные	-6105
▁причине	-6106
▁реальном	-6107
▁сообщения	-6108
▁увеличить	-6109
кер	-6110
▁аре	-6111
▁лед	-6112
▁сфо	-6113
▁сидя	-6114
▁проекти	-6115
▁уверены	-6116
▁находимся	-6117
▁проблемами	-6118
5%	-6119
ap	-6120
пен	-6121
▁1,	-6122
пить	-6123
тная	-6124
тяги	-6125
▁фир	-6126
▁хло	-6127
▁горы	-6128
▁орби	-6129
▁чест	-6130
▁концу	-6131
▁недав	-6132
▁платфор	-6133
▁простые	-6134
▁услышать	-6135
»?	-6136
ion	-6137
▁Ги	-6138
емая	-6139
кров	-6140
лете	-6141
низу	-6142
ницей	-6143
панзе	-6144
▁маги	-6145
▁видит	-6146
▁близко	-6147
▁рассказ	-6148
▁биологии	-6149
▁маленькой	-6150
▁посредством	-6151
дие	-6152
▁ца	-6153
▁зар	-6154
▁Нико	-6155
▁едва	-6156
▁игно	-6157
▁кома	-6158
няться	-6159
▁ждать	-6160
▁местных	-6161
▁контроль	-6162
.»	-6163
люб	-6164
раи	-6165
тиви	-6166
щены	-6167
ёмся	-6168
кость	-6169
стили	-6170
▁пойм	-6171
▁самим	-6172
▁полной	-6173
▁состав	-6174
▁физики	-6175
▁возраст	-6176
▁отношению	-6177
▁построили	-6178
▁чернокожи	-6179
ету	-6180
сятся	-6181
▁вспы	-6182
▁Мекси	-6183
▁загру	-6184
▁мастер	-6185
▁прозра	-6186
▁заметил	-6187
▁предмет	-6188
▁личности	-6189
▁установи	-6190
▁необходимости	-6191
Про	-6192
пле	-6193
цуз	-6194
полу	-6195
▁Дей	-6196
▁суд	-6197
дания	-6198
жного	-6199
ристи	-6200
▁гены	-6201
▁имми	-6202
▁пузы	-6203
▁увле	-6204
▁вещах	-6205
▁темно	-6206
▁оружие	-6207
▁старше	-6208
▁смотрят	-6209
▁эксперимен	-6210
Хо	-6211
йо	-6212
ёшь	-6213
▁жд	-6214
жную	-6215
▁фено	-6216
▁обеща	-6217
▁сотен	-6218
▁задачу	-6219
▁заново	-6220
▁зарпла	-6221
▁неизбе	-6222
ствовала	-6223
▁большее	-6224
▁горизон	-6225
▁работой	-6226
▁болезней	-6227
▁воспользо	-6228
▁отношений	-6229
льп	-6230
риф	-6231
тали	-6232
тила	-6233
слого	-6234
▁Гово	-6235
▁евро	-6236
▁грузо	-6237
ждается	-6238
▁Универ	-6239
▁литера	-6240
▁меняет	-6241
▁тенден	-6242
▁величай	-6243
▁доступа	-6244
▁рациона	-6245
▁добавить	-6246
▁оказались	-6247
ew	-6248
чок	-6249
▁СП	-6250
зацию	-6251
▁трех	-6252
▁задач	-6253
▁честь	-6254
▁Вообще	-6255
▁годами	-6256
▁дохода	-6257
▁океане	-6258
▁предна	-6259
▁слышал	-6260
▁другому	-6261
▁внезапно	-6262
▁механизм	-6263
▁операции	-6264
▁спросили	-6265
▁президент	-6266
▁интересное	-6267
▁результатов	-6268
ряс	-6269
льзу	-6270
тным	-6271
▁оза	-6272
▁чудо	-6273
словно	-6274
▁приви	-6275
▁знаком	-6276
▁насилие	-6277
▁питания	-6278
▁расширя	-6279
▁действие	-6280
▁ограничи	-6281
слей	-6282
▁Ему	-6283
▁Спу	-6284
▁заро	-6285
▁нака	-6286
▁клини	-6287
▁комби	-6288
▁особы	-6289
▁офици	-6290
▁каждым	-6291
▁смотрю	-6292
▁Наконец	-6293
▁Сколько	-6294
▁перееха	-6295
▁примени	-6296
▁природа	-6297
демонстри	-6298
▁избавиться	-6299
фов	-6300
▁ава	-6301
нными	-6302
▁Стив	-6303
▁любим	-6304
▁награ	-6305
ступить	-6306
▁выигра	-6307
▁коллеги	-6308
▁понятно	-6309
▁давление	-6310
▁нормально	-6311
▁университет	-6312
▁производство	-6313
сило	-6314
▁сне	-6315
говор	-6316
▁душе	-6317
▁мело	-6318
▁севе	-6319
▁урок	-6320
▁наста	-6321
▁Вопрос	-6322
▁анализ	-6323
▁каждые	-6324
▁письма	-6325
▁серьез	-6326
▁помнить	-6327
▁смотрит	-6328
▁измерения	-6329
),	-6330
чил	-6331
ьев	-6332
дные	-6333
люсь	-6334
мены	-6335
▁Дол	-6336
▁Три	-6337
▁опо	-6338
▁шка	-6339
нутри	-6340
▁гром	-6341
▁тест	-6342
▁груди	-6343
ствующих	-6344
▁изучить	-6345
▁простых	-6346
▁степень	-6347
▁определи	-6348
▁маленькая	-6349
▁осуществи	-6350
▁Калифорнии	-6351
▁изменилось	-6352
юз	-6353
пок	-6354
нулся	-6355
▁Наде	-6356
▁отме	-6357
ленную	-6358
▁Англи	-6359
▁запро	-6360
▁кровь	-6361
▁лагер	-6362
▁навыки	-6363
▁начнём	-6364
▁достоин	-6365
▁комнату	-6366
▁позволит	-6367
▁свойства	-6368
▁чувствуют	-6369
▁собственного	-6370
ri	-6371
шё	-6372
▁Сер	-6373
▁нее	-6374
▁Един	-6375
ванных	-6376
▁сочув	-6377
▁экспо	-6378
▁понятие	-6379
▁женщинам	-6380
▁благотвори	-6381
сам	-6382
▁iP	-6383
▁пож	-6384
иться	-6385
логов	-6386
плохо	-6387
▁обма	-6388
▁Между	-6389
▁посыла	-6390
▁тюрьме	-6391
▁вычисли	-6392
▁случается	-6393
▁преодолеть	-6394
▁количеством	-6395
▁продемонстри	-6396
Бо	-6397
жка	-6398
стр	-6399
▁жё	-6400
рила	-6401
▁Дар	-6402
▁Обра	-6403
▁ночи	-6404
▁улицы	-6405
дителей	-6406
▁изнача	-6407
▁частиц	-6408
лекопита	-6409
совершен	-6410
▁причинам	-6411
▁развивающихся	-6412
бий	-6413
пку	-6414
щаем	-6415
▁Мон	-6416
нении	-6417
яться	-6418
▁гряз	-6419
▁идее	-6420
▁отка	-6421
ченных	-6422
▁Много	-6423
▁книге	-6424
▁масса	-6425
▁коммуника	-6426
▁O	-6427
тную	-6428
▁тести	-6429
▁Интере	-6430
▁Понима	-6431
▁комфор	-6432
▁минуты	-6433
▁скульп	-6434
▁различия	-6435
▁специально	-6436
▁рассказывать	-6437
▁ищу	-6438
▁мяг	-6439
▁пое	-6440
▁рит	-6441
сторо	-6442
▁выго	-6443
▁пишу	-6444
▁тема	-6445
рована	-6446
▁балан	-6447
▁доход	-6448
▁абстра	-6449
▁вклады	-6450
▁широко	-6451
▁воздухе	-6452
▁максима	-6453
▁удастся	-6454
▁способен	-6455
▁собираемся	-6456
щер	-6457
▁Ге	-6458
▁зай	-6459
тивно	-6460
кторов	-6461
провод	-6462
▁дверь	-6463
▁подру	-6464
▁пошли	-6465
▁убеди	-6466
▁сверху	-6467
▁определ	-6468
▁родился	-6469
▁уверена	-6470
▁случится	-6471
us	-6472
зоб	-6473
▁Джу	-6474
кости	-6475
публи	-6476
▁доче	-6477
▁полё	-6478
▁теку	-6479
станов	-6480
▁смогла	-6481
▁планету	-6482
▁потребу	-6483
▁проблеме	-6484
▁фотографию	-6485
▁Ор	-6486
▁20-	-6487
▁Два	-6488
▁Оба	-6489
▁урав	-6490
▁канди	-6491
▁профи	-6492
▁равен	-6493
▁синте	-6494
▁точку	-6495
▁Прежде	-6496
▁быстры	-6497
▁машине	-6498
▁презен	-6499
▁пришло	-6500
▁стадии	-6501
▁торгов	-6502
▁разбира	-6503
▁религии	-6504
▁топлива	-6505
▁основных	-6506
▁проектов	-6507
▁занимаются	-6508
ad	-6509
▁яв	-6510
бить	-6511
шкой	-6512
▁Муж	-6513
▁бит	-6514
▁зам	-6515
▁игр	-6516
береж	-6517
енный	-6518
▁Испо	-6519
ктором	-6520
▁самую	-6521
▁стены	-6522
▁метафо	-6523
▁спроек	-6524
ственными	-6525
▁разработали	-6526
30	-6527
ллы	-6528
▁сай	-6529
шении	-6530
▁Буду	-6531
▁кори	-6532
▁напом	-6533
▁ничто	-6534
▁менять	-6535
▁заслужи	-6536
▁кандида	-6537
▁крупней	-6538
▁механиз	-6539
▁бедности	-6540
▁млекопита	-6541
▁сообщение	-6542
▁предложение	-6543
лер	-6544
▁уль	-6545
▁Глав	-6546
▁скон	-6547
▁Перед	-6548
▁выска	-6549
▁линия	-6550
▁немно	-6551
▁прине	-6552
▁корруп	-6553
▁открытие	-6554
▁создании	-6555
▁относится	-6556
▁производить	-6557
ing	-6558
пси	-6559
рных	-6560
▁зоны	-6561
▁сфер	-6562
графии	-6563
против	-6564
щением	-6565
▁выстав	-6566
▁Помните	-6567
▁минимум	-6568
▁столети	-6569
▁подверга	-6570
▁признать	-6571
▁занимаюсь	-6572
▁наблюдаем	-6573
▁поддержки	-6574
▁напоминает	-6575
▁организаций	-6576
бур	-6577
▁адап	-6578
▁карь	-6579
▁война	-6580
▁Другие	-6581
шимпанзе	-6582
▁системой	-6583
▁депрессии	-6584
▁придумать	-6585
▁автомобиль	-6586
▁определяет	-6587
▁показаться	-6588
▁исследовании	-6589
ссию	-6590
▁Оче	-6591
▁ано	-6592
▁зало	-6593
▁сентя	-6594
▁целей	-6595
▁перене	-6596
▁данными	-6597
▁заметили	-6598
▁шимпанзе	-6599
▁добраться	-6600
▁продуктив	-6601
▁сложности	-6602
▁функциони	-6603
▁наблюдения	-6604
▁продолжает	-6605
гри	-6606
тни	-6607
▁фу	-6608
▁Хоро	-6609
дители	-6610
нджеле	-6611
▁врачи	-6612
▁духов	-6613
▁нынеш	-6614
▁востор	-6615
▁оружия	-6616
▁головой	-6617
▁отвечает	-6618
▁Университ	-6619
тт	-6620
▁U	-6621
вее	-6622
йнш	-6623
▁Хи	-6624
прия	-6625
ходе	-6626
▁150	-6627
▁195	-6628
▁Нас	-6629
▁Тай	-6630
▁игре	-6631
▁вашим	-6632
▁оправ	-6633
▁штата	-6634
▁выходит	-6635
▁считали	-6636
▁следующие	-6637
▁использовал	-6638
▁собственный	-6639
▁исключительно	-6640
▁22	-6641
поли	-6642
▁жил	-6643
вость	-6644
▁жена	-6645
▁пищу	-6646
ванные	-6647
льному	-6648
пление	-6649
▁тропи	-6650
▁парали	-6651
▁воспита	-6652
▁высокой	-6653
▁научить	-6654
▁Согласно	-6655
▁смотрели	-6656
▁атмосферу	-6657
▁позвольте	-6658
▁предназна	-6659
ксу	-6660
чий	-6661
шет	-6662
▁Ат	-6663
▁Ше	-6664
лина	-6665
▁нра	-6666
▁хищ	-6667
▁Азии	-6668
▁Ниге	-6669
▁бесс	-6670
▁поощ	-6671
▁упро	-6672
тельств	-6673
▁Штатах	-6674
▁записи	-6675
▁любимых	-6676
▁никакой	-6677
▁проверя	-6678
▁проекты	-6679
▁процент	-6680
▁рабочие	-6681
▁связыва	-6682
▁взрослых	-6683
▁участников	-6684
▁Соединённых	-6685
ань	-6686
▁Пол	-6687
▁Прав	-6688
▁лест	-6689
▁рука	-6690
▁секс	-6691
▁вечер	-6692
▁любое	-6693
▁парня	-6694
▁точка	-6695
▁головы	-6696
▁думает	-6697
▁отличи	-6698
▁разоча	-6699
▁надежды	-6700
▁учитель	-6701
▁огромная	-6702
▁поверить	-6703
▁сумасшед	-6704
▁оставаться	-6705
дал	-6706
ило	-6707
вина	-6708
▁кух	-6709
▁нема	-6710
всегда	-6711
▁мозгу	-6712
▁потер	-6713
▁данным	-6714
▁частей	-6715
▁Недавно	-6716
▁побереж	-6717
▁вспомина	-6718
▁углерода	-6719
▁антибиоти	-6720
▁возможным	-6721
▁поставить	-6722
▁предотвратить	-6723
▁35	-6724
▁70	-6725
кцию	-6726
кнуть	-6727
ляция	-6728
▁Эйнш	-6729
▁гран	-6730
▁кило	-6731
чается	-6732
▁прими	-6733
▁рынке	-6734
▁свете	-6735
▁Вторая	-6736
▁глазах	-6737
▁избира	-6738
▁карьер	-6739
▁молодё	-6740
▁назвал	-6741
▁отобра	-6742
▁Другими	-6743
▁команду	-6744
▁сложных	-6745
▁делиться	-6746
▁консерва	-6747
▁местности	-6748
-1	-6749
гей	-6750
чал	-6751
дный	-6752
▁хле	-6753
▁хол	-6754
▁зали	-6755
▁реки	-6756
летний	-6757
▁Среди	-6758
▁воору	-6759
▁годах	-6760
▁прошу	-6761
▁картина	-6762
▁продела	-6763
▁бактерий	-6764
▁помогать	-6765
▁закончить	-6766
▁“	-6767
вки	-6768
фера	-6769
▁дел	-6770
▁часы	-6771
▁Землю	-6772
▁внизу	-6773
▁групп	-6774
▁живых	-6775
▁нефть	-6776
▁Значит	-6777
▁соотно	-6778
▁молодые	-6779
▁остаются	-6780
▁среднего	-6781
▁ежедневно	-6782
▁состояния	-6783
▁предложить	-6784
▁человеческих	-6785
дных	-6786
▁опи	-6787
▁рад	-6788
вляет	-6789
енном	-6790
▁агре	-6791
▁слай	-6792
▁всеоб	-6793
▁народ	-6794
▁приго	-6795
▁диагно	-6796
▁разруши	-6797
▁занимает	-6798
▁прогресс	-6799
▁удовольствие	-6800
емым	-6801
▁Чар	-6802
нётся	-6803
циско	-6804
▁заму	-6805
▁полю	-6806
▁порт	-6807
▁удив	-6808
спубли	-6809
▁генов	-6810
▁гормо	-6811
▁задей	-6812
▁отвра	-6813
▁слабо	-6814
▁какими	-6815
▁кварти	-6816
▁процеду	-6817
▁доказать	-6818
▁культура	-6819
▁универса	-6820
▁поддержку	-6821
▁установить	-6822
▁восстановить	-6823
il	-6824
Но	-6825
зей	-6826
чам	-6827
жное	-6828
▁Бил	-6829
▁гне	-6830
▁дешё	-6831
▁посо	-6832
▁вмеша	-6833
▁похож	-6834
ционный	-6835
▁гипоте	-6836
▁график	-6837
▁правил	-6838
▁хочешь	-6839
▁перейти	-6840
▁примеры	-6841
▁приняли	-6842
▁хорошее	-6843
▁оказалась	-6844
▁показатели	-6845
▁спрашивают	-6846
▁фотографий	-6847
гка	-6848
питы	-6849
▁уто	-6850
рядок	-6851
▁диску	-6852
▁важная	-6853
▁влияют	-6854
▁группой	-6855
▁картины	-6856
▁помогли	-6857
▁призыва	-6858
▁прочита	-6859
▁реакции	-6860
▁сторона	-6861
▁поговорим	-6862
%,	-6863
рэ	-6864
тру	-6865
хла	-6866
тивы	-6867
▁ВВП	-6868
▁зри	-6869
▁Исто	-6870
▁грип	-6871
▁выпуск	-6872
▁неспра	-6873
▁правду	-6874
▁прошли	-6875
▁оценить	-6876
▁реакцию	-6877
▁счастья	-6878
▁процессы	-6879
▁частности	-6880
▁экономика	-6881
▁экономике	-6882
▁разнообраз	-6883
▁чувствовал	-6884
▁воспоминания	-6885
лий	-6886
фей	-6887
▁You	-6888
▁Тех	-6889
тится	-6890
▁гума	-6891
▁засе	-6892
▁мёрт	-6893
▁приё	-6894
▁Самое	-6895
▁герои	-6896
▁общей	-6897
▁пенси	-6898
▁факты	-6899
ленного	-6900
▁Всемир	-6901
▁солнце	-6902
▁девочки	-6903
▁климати	-6904
▁пределы	-6905
▁смотрим	-6906
▁чувстви	-6907
технологи	-6908
▁большего	-6909
ab	-6910
бь	-6911
бби	-6912
нера	-6913
▁тща	-6914
ваюсь	-6915
▁Одно	-6916
▁Андер	-6917
▁рассу	-6918
▁четвёр	-6919
▁движется	-6920
▁перемены	-6921
▁электричество	-6922
th	-6923
лекс	-6924
туда	-6925
▁шум	-6926
▁базо	-6927
▁взро	-6928
▁запре	-6929
▁остав	-6930
▁первом	-6931
▁размно	-6932
▁экстре	-6933
▁подозре	-6934
▁рестора	-6935
▁слышать	-6936
▁культуре	-6937
▁привыкли	-6938
▁сознания	-6939
▁Афганиста	-6940
▁отношениях	-6941
▁противостоя	-6942
▁разнообразие	-6943
▁характеристи	-6944
дной	-6945
твор	-6946
▁Учё	-6947
▁уте	-6948
▁афро	-6949
▁напи	-6950
▁оско	-6951
▁вдоль	-6952
▁двери	-6953
▁костю	-6954
▁превы	-6955
▁прогу	-6956
▁фабри	-6957
▁чисто	-6958
деления	-6959
▁Спустя	-6960
▁британ	-6961
▁прототи	-6962
▁деревьев	-6963
▁перегово	-6964
▁предпочита	-6965
▁компьютеров	-6966
▁человечество	-6967
джи	-6968
дке	-6969
мать	-6970
утся	-6971
важно	-6972
▁араб	-6973
▁деше	-6974
▁войне	-6975
▁дороге	-6976
▁дорогу	-6977
▁звезды	-6978
▁мотива	-6979
▁органы	-6980
альность	-6981
▁музыкан	-6982
▁считает	-6983
▁передвига	-6984
▁направления	-6985
чти	-6986
щик	-6987
▁90	-6988
▁XX	-6989
▁Уо	-6990
зами	-6991
▁деду	-6992
▁носи	-6993
▁пробе	-6994
▁пробу	-6995
▁выжить	-6996
▁кварта	-6997
▁политике	-6998
▁попросил	-6999
▁посмотрел	-7000
▁экономику	-7001
▁Ос	-7002
▁ию	-7003
▁сэ	-7004
▁сан	-7005
Йорка	-7006
стров	-7007
талки	-7008
щиеся	-7009
▁неле	-7010
▁уйти	-7011
нулась	-7012
ющимся	-7013
▁Правда	-7014
▁давать	-7015
▁неделе	-7016
▁выпуска	-7017
▁страшно	-7018
▁привлечь	-7019
▁женщинами	-7020
▁инновации	-7021
▁работников	-7022
▁эффективно	-7023
▁участвовать	-7024
зиа	-7025
фио	-7026
▁эм	-7027
петь	-7028
пять	-7029
▁Сов	-7030
▁жёл	-7031
▁шах	-7032
ертво	-7033
ходом	-7034
▁одоб	-7035
▁сове	-7036
ленным	-7037
разуме	-7038
читься	-7039
▁Такое	-7040
▁делом	-7041
▁мудро	-7042
▁нашла	-7043
▁поток	-7044
Анджеле	-7045
▁раздра	-7046
▁склады	-7047
▁попробу	-7048
▁Очевидно	-7049
▁ответили	-7050
▁понимает	-7051
▁миллиарды	-7052
▁математики	-7053
дли	-7054
тли	-7055
худ	-7056
сков	-7057
эффек	-7058
▁объём	-7059
▁пусть	-7060
▁разво	-7061
▁Можете	-7062
▁времён	-7063
▁слегка	-7064
▁инженер	-7065
▁навсегда	-7066
▁хорошего	-7067
▁небольшие	-7068
▁подразуме	-7069
▁получения	-7070
▁превратить	-7071
▁единственная	-7072
pp	-7073
мию	-7074
▁45	-7075
рный	-7076
утбу	-7077
▁194	-7078
▁СПИ	-7079
▁ата	-7080
▁иду	-7081
гнуть	-7082
держа	-7083
▁дета	-7084
▁школ	-7085
▁Разве	-7086
▁запом	-7087
▁рынка	-7088
▁слышу	-7089
▁исключ	-7090
▁регули	-7091
▁членов	-7092
▁описать	-7093
▁органов	-7094
▁проекте	-7095
▁телевид	-7096
▁функции	-7097
▁собирать	-7098
дивительно	-7099
▁вариантов	-7100
▁Фактически	-7101
▁организация	-7102
зни	-7103
треб	-7104
▁Нор	-7105
▁гля	-7106
метри	-7107
рести	-7108
▁Рича	-7109
ставил	-7110
▁учены	-7111
▁постара	-7112
▁мирового	-7113
▁предметы	-7114
▁предприя	-7115
▁активность	-7116
▁десятилетия	-7117
▁инструмента	-7118
ow	-7119
ёй	-7120
▁K	-7121
ube	-7122
ити	-7123
пью	-7124
сия	-7125
▁ву	-7126
мане	-7127
тети	-7128
▁век	-7129
▁пля	-7130
▁атом	-7131
▁форм	-7132
▁стена	-7133
▁важную	-7134
▁генера	-7135
▁жители	-7136
▁роботы	-7137
▁увлека	-7138
▁фильмы	-7139
▁природу	-7140
▁вдохнови	-7141
▁историей	-7142
▁передачи	-7143
▁распространения	-7144
гал	-7145
тку	-7146
шаф	-7147
праж	-7148
щена	-7149
▁ред	-7150
▁Пожа	-7151
▁Стра	-7152
▁души	-7153
▁каби	-7154
▁одер	-7155
▁подъ	-7156
▁спон	-7157
сторон	-7158
▁ведут	-7159
▁подчи	-7160
▁ископа	-7161
▁главный	-7162
▁медицины	-7163
▁насекомых	-7164
▁принимают	-7165
▁находиться	-7166
▁деятельность	-7167
▁единственное	-7168
▁инструментов	-7169
20	-7170
ir	-7171
При	-7172
бже	-7173
след	-7174
▁клу	-7175
▁меры	-7176
▁важен	-7177
▁мнения	-7178
▁священ	-7179
▁объедин	-7180
▁предска	-7181
▁существ	-7182
▁интеллекта	-7183
▁ограничения	-7184
▁политических	-7185
id	-7186
нин	-7187
Фран	-7188
душе	-7189
йдём	-7190
мами	-7191
▁вво	-7192
гляды	-7193
▁жёст	-7194
▁цени	-7195
▁автор	-7196
▁пошёл	-7197
▁прида	-7198
ставили	-7199
▁Англии	-7200
▁гумани	-7201
▁поздно	-7202
▁скажет	-7203
▁удержи	-7204
▁бесконе	-7205
▁выбрали	-7206
▁научных	-7207
▁подгото	-7208
▁умирают	-7209
▁нравятся	-7210
▁объектов	-7211
▁учителей	-7212
вах	-7213
гих	-7214
лено	-7215
рной	-7216
▁Дан	-7217
слуши	-7218
стные	-7219
▁врач	-7220
▁зная	-7221
▁каме	-7222
▁улыб	-7223
▁гости	-7224
▁исход	-7225
▁токси	-7226
▁коллег	-7227
▁снимок	-7228
ствующие	-7229
▁веществ	-7230
▁достигли	-7231
▁появится	-7232
▁головного	-7233
▁интеллект	-7234
▁некоторое	-7235
▁прекрасный	-7236
▁23	-7237
хоже	-7238
чков	-7239
вости	-7240
ндшаф	-7241
щаясь	-7242
▁отре	-7243
▁слой	-7244
▁сына	-7245
жаются	-7246
римина	-7247
▁владе	-7248
▁вчера	-7249
▁уделя	-7250
▁чисты	-7251
▁Гарвар	-7252
▁нарисо	-7253
▁облада	-7254
▁полный	-7255
▁вечером	-7256
▁вернёмся	-7257
▁капитали	-7258
▁мусульман	-7259
▁ограничен	-7260
▁располага	-7261
▁занимается	-7262
im	-7263
́ль	-7264
чёл	-7265
боли	-7266
нном	-7267
хожи	-7268
▁Бли	-7269
▁Роб	-7270
емлем	-7271
▁труб	-7272
альном	-7273
литься	-7274
▁интен	-7275
▁мгнов	-7276
▁слабы	-7277
▁этапе	-7278
▁неопре	-7279
▁вырабаты	-7280
▁выполнять	-7281
▁останется	-7282
▁появилось	-7283
▁V	-7284
вим	-7285
пах	-7286
хая	-7287
▁гар	-7288
▁раб	-7289
влять	-7290
пании	-7291
дитель	-7292
менять	-7293
▁воссо	-7294
▁Конгре	-7295
▁никому	-7296
▁перено	-7297
▁аналоги	-7298
▁желания	-7299
▁лидеров	-7300
▁интересо	-7301
▁коммента	-7302
▁чувствовала	-7303
жаю	-7304
жку	-7305
мит	-7306
чом	-7307
вока	-7308
▁90%	-7309
▁ини	-7310
▁пик	-7311
▁Впер	-7312
▁адре	-7313
▁аргу	-7314
▁засу	-7315
▁мани	-7316
▁марш	-7317
▁офис	-7318
▁укре	-7319
▁Зачем	-7320
▁карта	-7321
▁обуча	-7322
▁погиб	-7323
▁поиск	-7324
▁риску	-7325
▁среда	-7326
▁девять	-7327
▁камеры	-7328
▁подска	-7329
рованный	-7330
▁Кажется	-7331
▁грузови	-7332
▁градусов	-7333
▁опасности	-7334
▁предстоит	-7335
▁следующих	-7336
▁структура	-7337
▁считается	-7338
▁определение	-7339
▁сотрудников	-7340
▁доказательства	-7341
зию	-7342
мия	-7343
щали	-7344
▁вру	-7345
▁ура	-7346
шений	-7347
▁клас	-7348
▁цита	-7349
вающий	-7350
ровано	-7351
▁Индия	-7352
▁возро	-7353
▁любит	-7354
▁стере	-7355
▁тобой	-7356
▁местом	-7357
▁народа	-7358
▁привед	-7359
▁усилий	-7360
▁хорошим	-7361
▁явление	-7362
▁обладает	-7363
▁обладают	-7364
▁концентра	-7365
▁необходимые	-7366
тке	-7367
дарю	-7368
кция	-7369
таль	-7370
шься	-7371
стоят	-7372
▁лоша	-7373
▁напо	-7374
▁пане	-7375
▁побу	-7376
▁трен	-7377
▁цена	-7378
ватель	-7379
вольно	-7380
ходили	-7381
▁карте	-7382
▁облег	-7383
▁ошиба	-7384
▁приём	-7385
▁Африка	-7386
▁Больше	-7387
▁космос	-7388
▁оттуда	-7389
▁поменя	-7390
смотреть	-7391
▁ландшаф	-7392
▁больницы	-7393
▁масштабе	-7394
▁написала	-7395
▁эксперименты	-7396
▁существования	-7397
От	-7398
тье	-7399
чём	-7400
пило	-7401
весто	-7402
ретья	-7403
щиков	-7404
▁Бога	-7405
▁Оказа	-7406
▁дипло	-7407
▁комбина	-7408
▁магазин	-7409
▁научной	-7410
▁измерить	-7411
▁культуру	-7412
▁телевизо	-7413
▁телефона	-7414
▁молекуляр	-7415
▁одинаково	-7416
▁поместить	-7417
▁обратиться	-7418
▁используются	-7419
блу	-7420
льт	-7421
▁Луч	-7422
▁вку	-7423
новой	-7424
шению	-7425
ковать	-7426
ландии	-7427
▁Такой	-7428
▁подви	-7429
▁рамки	-7430
▁траге	-7431
разному	-7432
▁восьми	-7433
▁скажут	-7434
министра	-7435
▁Надеюсь	-7436
▁вертика	-7437
▁успешно	-7438
▁называть	-7439
▁основной	-7440
▁приносит	-7441
▁подобного	-7442
▁прогресса	-7443
▁отсутствие	-7444
▁взаимодействие	-7445
os	-7446
ot	-7447
one	-7448
вла	-7449
ейт	-7450
▁Зву	-7451
▁дре	-7452
▁меж	-7453
▁имея	-7454
▁курс	-7455
шением	-7456
▁белых	-7457
▁домов	-7458
▁конта	-7459
▁любую	-7460
▁смарт	-7461
▁стоят	-7462
▁захоте	-7463
▁отсюда	-7464
хождение	-7465
▁выбрасы	-7466
▁радость	-7467
▁смотрел	-7468
▁углерод	-7469
▁изменили	-7470
▁пожертво	-7471
▁размышля	-7472
▁использую	-7473
▁убедиться	-7474
▁потрясающе	-7475
▁рассказала	-7476
▁естественно	-7477
▁справедливости	-7478
кля	-7479
▁St	-7480
▁Нач	-7481
▁еда	-7482
ходим	-7483
▁Дети	-7484
ходите	-7485
▁кости	-7486
▁судеб	-7487
▁Другой	-7488
▁многом	-7489
▁муравь	-7490
▁проник	-7491
▁стволо	-7492
▁европей	-7493
▁надежда	-7494
▁надежду	-7495
▁полиции	-7496
▁склонны	-7497
▁собрали	-7498
▁француз	-7499
▁женщиной	-7500
▁обитания	-7501
▁восприятия	-7502
▁произведения	-7503
▁обстоятельства	-7504
дан	-7505
оба	-7506
▁НА	-7507
гали	-7508
класс	-7509
чками	-7510
▁Хочу	-7511
▁брен	-7512
▁млад	-7513
▁пост	-7514
▁тонн	-7515
▁Около	-7516
▁геном	-7517
▁звука	-7518
▁оборо	-7519
▁Учёные	-7520
▁Японии	-7521
▁ноутбу	-7522
▁исследу	-7523
▁команде	-7524
▁платить	-7525
Франциско	-7526
▁кислорода	-7527
▁получаете	-7528
▁собственных	-7529
Го	-7530
ели	-7531
реи	-7532
веду	-7533
дание	-7534
ладен	-7535
▁сдви	-7536
▁Важно	-7537
▁Почти	-7538
▁индий	-7539
▁метро	-7540
▁рассе	-7541
▁вопросу	-7542
▁занятия	-7543
▁неплохо	-7544
▁рекомен	-7545
▁сложный	-7546
▁принципы	-7547
▁произойти	-7548
▁уменьшить	-7549
▁изначально	-7550
▁предложения	-7551
▁почувствовать	-7552
Tube	-7553
клон	-7554
▁Вас	-7555
▁Смот	-7556
▁Твит	-7557
▁япон	-7558
нились	-7559
сульта	-7560
▁лицом	-7561
▁общее	-7562
▁снизи	-7563
▁табли	-7564
▁отправ	-7565
▁YouTube	-7566
▁динозав	-7567
▁периода	-7568
▁сложная	-7569
▁соверша	-7570
▁напрямую	-7571
▁ожидания	-7572
▁содержит	-7573
▁сущности	-7574
▁исправить	-7575
▁уверенность	-7576
чна	-7577
шит	-7578
▁Зе	-7579
обла	-7580
ревно	-7581
▁далё	-7582
▁двой	-7583
▁каче	-7584
▁сбор	-7585
▁вышла	-7586
▁медиа	-7587
▁мусор	-7588
▁наверх	-7589
▁плохие	-7590
▁местные	-7591
▁осознал	-7592
▁порядка	-7593
▁простое	-7594
▁Германии	-7595
▁заняться	-7596
▁независи	-7597
▁основные	-7598
▁проектом	-7599
▁создавая	-7600
▁утвержда	-7601
▁занимался	-7602
▁следующей	-7603
],	-7604
шил	-7605
▁600	-7606
▁еха	-7607
▁эго	-7608
левой	-7609
ющему	-7610
▁брат	-7611
▁креп	-7612
▁пола	-7613
вшийся	-7614
▁спорт	-7615
▁сыгра	-7616
▁глубже	-7617
▁зданий	-7618
▁наказа	-7619
▁оценки	-7620
▁растут	-7621
▁главным	-7622
▁доктора	-7623
▁секунды	-7624
▁животное	-7625
▁иностран	-7626
▁бесплатно	-7627
▁научились	-7628
▁элементов	-7629
▁отличаются	-7630
”.	-7631
▁Эй	-7632
▁вд	-7633
льфи	-7634
рядо	-7635
▁Бен	-7636
▁зат	-7637
▁пак	-7638
анали	-7639
▁Оста	-7640
▁пала	-7641
▁имена	-7642
▁крово	-7643
▁стихи	-7644
▁Второе	-7645
▁либера	-7646
▁лучшим	-7647
▁наличи	-7648
▁никого	-7649
▁призем	-7650
▁развле	-7651
▁сидеть	-7652
▁кризиса	-7653
▁полагаю	-7654
▁потребо	-7655
▁получите	-7656
▁применения	-7657
IS	-7658
нув	-7659
пру	-7660
летки	-7661
емости	-7662
кадеми	-7663
ологии	-7664
роприя	-7665
▁волон	-7666
▁жизне	-7667
▁эпоху	-7668
▁вируса	-7669
▁воздуш	-7670
▁дерево	-7671
▁камеру	-7672
▁подвод	-7673
▁аппарат	-7674
▁дальней	-7675
▁обслужи	-7676
▁помогут	-7677
▁Андерсон	-7678
▁повлиять	-7679
▁трудности	-7680
▁убеждения	-7681
▁занимаемся	-7682
▁направление	-7683
ент	-7684
▁Ке	-7685
руете	-7686
▁Сред	-7687
▁побы	-7688
▁смех	-7689
▁цепо	-7690
кового	-7691
▁возоб	-7692
▁отста	-7693
▁патен	-7694
▁раком	-7695
▁сложи	-7696
▁смело	-7697
тографи	-7698
▁особен	-7699
▁осторо	-7700
▁энерго	-7701
▁встречи	-7702
▁вызвать	-7703
▁доверие	-7704
▁примере	-7705
▁простая	-7706
▁запомина	-7707
▁продоволь	-7708
▁революция	-7709
▁рассмотреть	-7710
▁политические	-7711
▁человеческий	-7712
ус	-7713
рхи	-7714
гене	-7715
▁Кор	-7716
▁жду	-7717
▁рано	-7718
▁спря	-7719
▁ябло	-7720
▁войну	-7721
▁каково	-7722
▁молодо	-7723
▁простым	-7724
▁заработа	-7725
▁родилась	-7726
▁Австралии	-7727
▁Интересно	-7728
▁медицинской	-7729
▁собственную	-7730
▁воспользоваться	-7731
кри	-7732
нял	-7733
кает	-7734
нков	-7735
туре	-7736
▁зве	-7737
▁2008	-7738
▁даст	-7739
▁нова	-7740
▁когни	-7741
▁неком	-7742
▁резер	-7743
▁вторая	-7744
▁точнее	-7745
▁эмоций	-7746
▁знакомы	-7747
▁обычных	-7748
▁находить	-7749
▁осознать	-7750
▁процента	-7751
▁маленькую	-7752
▁следующего	-7753
▁изображений	-7754
▁понадобится	-7755
цин	-7756
▁27	-7757
▁ав	-7758
лога	-7759
рять	-7760
▁Бар	-7761
▁шут	-7762
▁Егип	-7763
▁мусо	-7764
▁темы	-7765
ленное	-7766
▁Кении	-7767
▁Вместе	-7768
▁младен	-7769
▁оригина	-7770
▁примера	-7771
▁мероприя	-7772
▁мышление	-7773
▁Благодарю	-7774
▁вынуждены	-7775
▁отправить	-7776
▁солнечной	-7777
▁стратегии	-7778
мут	-7779
▁ам	-7780
▁яс	-7781
слов	-7782
▁Кан	-7783
▁Моё	-7784
▁Пла	-7785
▁оча	-7786
щению	-7787
▁Пари	-7788
планет	-7789
рением	-7790
тельна	-7791
▁блоки	-7792
▁пошла	-7793
▁приез	-7794
ступает	-7795
▁помимо	-7796
▁проста	-7797
▁стоять	-7798
▁сделает	-7799
▁событие	-7800
▁наслажда	-7801
▁огромной	-7802
▁половины	-7803
▁преодоле	-7804
▁следовать	-7805
▁источников	-7806
ay	-7807
пия	-7808
▁сп	-7809
груз	-7810
сила	-7811
▁Бру	-7812
▁Уже	-7813
▁млн	-7814
▁оби	-7815
▁Марс	-7816
▁невы	-7817
▁удар	-7818
тивное	-7819
▁Подоб	-7820
▁запах	-7821
▁моими	-7822
▁сцену	-7823
▁выигры	-7824
▁гендер	-7825
▁делала	-7826
▁образе	-7827
▁позади	-7828
▁похожа	-7829
▁приспо	-7830
▁изменит	-7831
▁имеется	-7832
▁провела	-7833
▁снизить	-7834
▁содержи	-7835
▁ежегодно	-7836
▁цифровой	-7837
▁индустрии	-7838
▁дискримина	-7839
▁разработки	-7840
▁существование	-7841
рти	-7842
▁воо	-7843
▁душу	-7844
▁обща	-7845
▁скло	-7846
▁обоих	-7847
▁Каждая	-7848
▁врачей	-7849
▁нежели	-7850
▁ошибок	-7851
▁предме	-7852
▁чувств	-7853
▁инвесто	-7854
▁создала	-7855
▁примером	-7856
▁подумайте	-7857
▁разговоры	-7858
▁расположен	-7859
▁воздействие	-7860
▁реальностью	-7861
▁Жи	-7862
вшее	-7863
емую	-7864
жила	-7865
порт	-7866
туру	-7867
▁Ген	-7868
▁бои	-7869
лекса	-7870
▁Чика	-7871
▁пато	-7872
▁расо	-7873
зовать	-7874
▁Всего	-7875
▁вышел	-7876
▁грани	-7877
▁трудо	-7878
▁устра	-7879
▁доверя	-7880
▁детства	-7881
▁женщину	-7882
▁прибыль	-7883
▁написано	-7884
▁незнаком	-7885
▁появления	-7886
▁предложил	-7887
▁сократить	-7888
▁американских	-7889
ec	-7890
рс	-7891
био	-7892
▁Ал	-7893
изнь	-7894
пами	-7895
ремя	-7896
тики	-7897
▁80-	-7898
ляцию	-7899
раста	-7900
▁зато	-7901
▁разда	-7902
▁сомне	-7903
ционная	-7904
▁Ничего	-7905
▁Расска	-7906
▁Центра	-7907
▁магнит	-7908
▁открыл	-7909
▁диаграм	-7910
▁порядок	-7911
▁проводи	-7912
▁феномен	-7913
▁выразить	-7914
▁галактики	-7915
▁контексте	-7916
▁способами	-7917
▁творчество	-7918
▁углекислого	-7919
▁Чу	-7920
мите	-7921
▁Вся	-7922
▁Мир	-7923
▁рен	-7924
▁трю	-7925
▁хво	-7926
▁Коро	-7927
▁запо	-7928
▁ступ	-7929
▁Атлан	-7930
▁Навер	-7931
▁верят	-7932
▁крова	-7933
▁мышцы	-7934
▁писал	-7935
▁Европы	-7936
▁основу	-7937
▁статью	-7938
▁Впервые	-7939
▁задание	-7940
▁молодой	-7941
▁переход	-7942
▁получим	-7943
▁преуспе	-7944
▁элемент	-7945
▁абстракт	-7946
▁больнице	-7947
▁образова	-7948
▁политика	-7949
▁возникают	-7950
▁устанавли	-7951
▁технологиями	-7952
тр	-7953
Зна	-7954
рно	-7955
тина	-7956
▁оли	-7957
нулись	-7958
ордина	-7959
▁делая	-7960
▁демон	-7961
▁летом	-7962
▁спать	-7963
альными	-7964
▁руками	-7965
▁справи	-7966
▁подписа	-7967
▁Примерно	-7968
▁обратить	-7969
▁развитию	-7970
▁средство	-7971
▁Оказалось	-7972
▁настоящие	-7973
▁организме	-7974
▁обеспечение	-7975
▁современной	-7976
▁современных	-7977
▁рассматривать	-7978
▁увеличивается	-7979
▁J	-7980
дох	-7981
▁Ду	-7982
жном	-7983
тков	-7984
▁Голо	-7985
▁днём	-7986
грамми	-7987
▁Созда	-7988
▁медве	-7989
▁проме	-7990
▁птицы	-7991
▁упраж	-7992
▁школа	-7993
▁жизней	-7994
▁инициа	-7995
▁самому	-7996
ровались	-7997
▁мальчик	-7998
▁морской	-7999
▁ориенти	-8000
▁беспокой	-8001
▁миллиард	-8002
▁надеемся	-8003
▁попадает	-8004
▁проводим	-8005
▁частично	-8006
▁интернета	-8007
▁наблюдали	-8008
▁придумали	-8009
▁собирается	-8010
▁собираются	-8011
▁автомобилей	-8012
oc	-8013
льд	-8014
нав	-8015
бами	-8016
ляют	-8017
стки	-8018
▁Джа	-8019
▁Тот	-8020
▁нищ	-8021
▁плы	-8022
▁сбо	-8023
▁Колу	-8024
▁гени	-8025
▁неот	-8026
▁Взгля	-8027
▁Какие	-8028
▁белые	-8029
▁встро	-8030
▁имела	-8031
▁рукой	-8032
▁экран	-8033
▁величи	-8034
▁измеря	-8035
▁туалет	-8036
▁Нигерии	-8037
▁Отлично	-8038
▁молекул	-8039
▁наличие	-8040
▁воссозда	-8041
▁сентября	-8042
▁возможных	-8043
▁обнаружила	-8044
Ра	-8045
вку	-8046
ену	-8047
зже	-8048
син	-8049
▁Ей	-8050
атра	-8051
семе	-8052
сите	-8053
чёте	-8054
▁80%	-8055
▁Лин	-8056
▁бла	-8057
лливу	-8058
тимет	-8059
▁позд	-8060
▁держа	-8061
▁откло	-8062
▁штате	-8063
▁сделаю	-8064
▁Франции	-8065
▁задачей	-8066
▁открыли	-8067
▁самолёт	-8068
▁соревно	-8069
▁уровнем	-8070
▁практике	-8071
▁вернулись	-8072
▁коллегами	-8073
▁материала	-8074
▁множества	-8075
▁связанные	-8076
▁неожиданно	-8077
▁составляют	-8078
▁исключением	-8079
un	-8080
фф	-8081
щён	-8082
вому	-8083
жига	-8084
жными	-8085
ровой	-8086
▁2015	-8087
▁мило	-8088
▁моде	-8089
▁моем	-8090
▁мыши	-8091
ложить	-8092
▁Джона	-8093
▁комик	-8094
▁дочери	-8095
▁защиту	-8096
▁минима	-8097
▁влияния	-8098
▁живущих	-8099
▁научные	-8100
▁ожидать	-8101
▁Бразилии	-8102
▁организмы	-8103
▁английском	-8104
▁чувствуете	-8105
▁развиваться	-8106
▁социального	-8107
▁единственным	-8108
▁преимущества	-8109
▁использовании	-8110
луа	-8111
▁яи	-8112
сной	-8113
▁Пра	-8114
▁бое	-8115
брасы	-8116
▁Надо	-8117
▁акку	-8118
▁пары	-8119
▁пыль	-8120
▁танце	-8121
▁вымира	-8122
▁потери	-8123
▁сложной	-8124
▁килограм	-8125
▁пациенты	-8126
▁политику	-8127
▁потеряли	-8128
▁страдают	-8129
▁общественных	-8130
▁существовать	-8131
▁пользователей	-8132
▁экспериментов	-8133
писи	-8134
рина	-8135
влено	-8136
емини	-8137
▁аспи	-8138
▁доля	-8139
▁заря	-8140
▁идет	-8141
▁кише	-8142
▁пинг	-8143
▁адвока	-8144
▁любить	-8145
▁переос	-8146
▁выросла	-8147
▁подобно	-8148
▁товаров	-8149
▁алгоритм	-8150
▁кислород	-8151
▁настоящая	-8152
▁восстанавли	-8153
ана	-8154
гий	-8155
дев	-8156
кет	-8157
▁99	-8158
ллов	-8159
ведли	-8160
право	-8161
прият	-8162
ровую	-8163
тятся	-8164
▁мона	-8165
состоя	-8166
ствуем	-8167
▁важной	-8168
▁интерп	-8169
▁нахожу	-8170
▁самыми	-8171
▁сообща	-8172
▁услуги	-8173
▁христи	-8174
▁Лондоне	-8175
▁сделаны	-8176
▁стресса	-8177
▁выбирать	-8178
▁началась	-8179
▁окажется	-8180
▁Вселенная	-8181
▁благополу	-8182
▁документа	-8183
▁совместно	-8184
▁устройств	-8185
▁необходимы	-8186
▁собственно	-8187
▁впечатление	-8188
▁температуры	-8189
▁преимущество	-8190
▁человеческие	-8191
▁несправедливо	-8192
▁непосредственно	-8193
тё	-8194
эм	-8195
Вот	-8196
ходу	-8197
▁New	-8198
▁шёл	-8199
ехать	-8200
▁выру	-8201
▁жало	-8202
центри	-8203
▁Солне	-8204
▁верим	-8205
▁корре	-8206
▁сидит	-8207
▁скани	-8208
▁убить	-8209
▁долгое	-8210
▁идеями	-8211
▁термин	-8212
▁школах	-8213
▁высоким	-8214
▁колледж	-8215
▁публика	-8216
▁районах	-8217
▁интенсив	-8218
▁придержи	-8219
▁спроекти	-8220
▁телефоны	-8221
▁окружающую	-8222
▁поддержать	-8223
▁расстоянии	-8224
▁внимательно	-8225
▁потребления	-8226
▁современные	-8227
ma	-8228
▁р	-8229
бель	-8230
няем	-8231
▁Дет	-8232
▁оку	-8233
▁фла	-8234
▁чьи	-8235
жания	-8236
лятся	-8237
сексу	-8238
скоре	-8239
стите	-8240
хозяй	-8241
▁2010	-8242
▁фраг	-8243
стерои	-8244
▁Вскоре	-8245
▁Солнце	-8246
▁спуска	-8247
▁останов	-8248
▁площади	-8249
▁позиции	-8250
▁привяза	-8251
▁проника	-8252
▁медицине	-8253
▁принятия	-8254
▁спросите	-8255
▁стереоти	-8256
▁поколений	-8257
▁применять	-8258
▁взаимоотно	-8259
▁заботиться	-8260
▁занимались	-8261
▁развивается	-8262
II	-8263
ани	-8264
▁ПМ	-8265
ковый	-8266
праши	-8267
▁изна	-8268
▁синд	-8269
▁Ладно	-8270
▁бо́ль	-8271
▁ужаса	-8272
▁водоро	-8273
▁теорию	-8274
▁повсеме	-8275
▁фильмов	-8276
ствования	-8277
▁огромным	-8278
▁согласны	-8279
▁сопротив	-8280
▁путешествия	-8281
▁распространён	-8282
чика	-8283
▁оса	-8284
нится	-8285
рного	-8286
▁Необ	-8287
▁бара	-8288
▁втор	-8289
▁выпа	-8290
▁коль	-8291
▁спло	-8292
▁невро	-8293
▁новом	-8294
▁правы	-8295
тивного	-8296
▁Африку	-8297
▁искрен	-8298
▁ультра	-8299
сомненно	-8300
▁Возьмём	-8301
▁глобали	-8302
▁карьеру	-8303
▁комнаты	-8304
▁опухоль	-8305
▁целиком	-8306
▁ближайшие	-8307
▁известных	-8308
▁остальное	-8309
▁продолжают	-8310
▁производят	-8311
▁глобального	-8312
▁цивилизации	-8313
▁определённые	-8314
▁преступления	-8315
лят	-8316
лёй	-8317
тном	-8318
очень	-8319
▁окра	-8320
▁охла	-8321
▁упор	-8322
ментом	-8323
торами	-8324
▁любая	-8325
▁бездом	-8326
▁маршру	-8327
▁разума	-8328
▁семьёй	-8329
▁снимки	-8330
▁активно	-8331
▁главных	-8332
▁держать	-8333
▁лучшему	-8334
▁наступи	-8335
▁попытки	-8336
▁ребенка	-8337
▁средней	-8338
▁удаётся	-8339
▁иммигран	-8340
▁некотором	-8341
▁подростков	-8342
▁политической	-8343
▁удивительное	-8344
▁эффективность	-8345
com	-8346
сет	-8347
стам	-8348
энер	-8349
▁шар	-8350
аньше	-8351
моему	-8352
▁моду	-8353
▁Босто	-8354
▁вышли	-8355
▁изоли	-8356
▁песни	-8357
▁сбере	-8358
▁учить	-8359
▁Чикаго	-8360
▁блестя	-8361
▁нейрон	-8362
▁пожалуй	-8363
▁регуляр	-8364
▁сопрово	-8365
▁жизненно	-8366
▁попадают	-8367
▁факторов	-8368
▁художник	-8369
▁алгоритмы	-8370
▁инноваций	-8371
▁небольшая	-8372
▁воображение	-8373
▁обеспечения	-8374
▁организацию	-8375
дво	-8376
зит	-8377
▁см	-8378
кола	-8379
▁Неу	-8380
▁баш	-8381
▁лин	-8382
плоть	-8383
▁набо	-8384
▁чтоб	-8385
▁агент	-8386
▁массы	-8387
▁учили	-8388
▁Другая	-8389
▁случаи	-8390
▁девушка	-8391
▁ежеднев	-8392
▁корабль	-8393
▁поднять	-8394
▁приятно	-8395
▁стимули	-8396
▁факторы	-8397
▁хороших	-8398
▁высокого	-8399
▁обрабаты	-8400
ствительно	-8401
▁пользуются	-8402
▁оборудование	-8403
▁удивительные	-8404
▁распространение	-8405
нор	-8406
hone	-8407
▁Фло	-8408
▁плюс	-8409
▁раси	-8410
▁забав	-8411
▁оскор	-8412
▁рожда	-8413
летнего	-8414
▁кратко	-8415
▁падает	-8416
▁старые	-8417
▁стресс	-8418
▁обычные	-8419
▁разницу	-8420
▁огромную	-8421
▁половину	-8422
▁созданию	-8423
▁способно	-8424
▁учитывая	-8425
▁Понимаете	-8426
▁интересный	-8427
▁показатель	-8428
▁управление	-8429
▁государство	-8430
▁потребуется	-8431
▁разработать	-8432
▁результатом	-8433
пка	-8434
кнов	-8435
льна	-8436
шены	-8437
▁App	-8438
▁фар	-8439
милли	-8440
ссажи	-8441
▁2009	-8442
▁арен	-8443
▁явно	-8444
рующие	-8445
▁Израи	-8446
▁корен	-8447
▁проче	-8448
▁своем	-8449
▁Раньше	-8450
▁выводу	-8451
▁игнори	-8452
▁мульти	-8453
▁опытом	-8454
▁устраи	-8455
▁контакт	-8456
▁отходов	-8457
▁работая	-8458
▁расходы	-8459
▁романти	-8460
▁созданы	-8461
▁делается	-8462
▁заменить	-8463
▁новостей	-8464
▁отказыва	-8465
▁говорится	-8466
▁объединить	-8467
▁приложение	-8468
▁определения	-8469
▁воспринимать	-8470
ur	-8471
еме	-8472
тол	-8473
тейн	-8474
▁60-	-8475
▁Еще	-8476
ницах	-8477
шками	-8478
▁Ближ	-8479
▁Цель	-8480
▁ждёт	-8481
▁ухуд	-8482
летней	-8483
▁Одним	-8484
▁круто	-8485
▁офисе	-8486
▁хрони	-8487
▁дерева	-8488
▁карика	-8489
▁найден	-8490
▁столом	-8491
▁субъек	-8492
▁анализа	-8493
▁красный	-8494
▁обычной	-8495
▁распоря	-8496
▁следить	-8497
▁участок	-8498
▁симптомы	-8499
▁философи	-8500
▁Технологи	-8501
▁известный	-8502
▁небольшое	-8503
▁прочитать	-8504
▁активности	-8505
▁Хе	-8506
вано	-8507
чках	-8508
▁лиц	-8509
ровка	-8510
ствию	-8511
▁учат	-8512
тивная	-8513
▁Какой	-8514
▁буквы	-8515
▁возбу	-8516
▁замуж	-8517
▁излуч	-8518
▁любые	-8519
▁рейти	-8520
▁целое	-8521
▁волосы	-8522
▁клетку	-8523
▁сестра	-8524
▁слышим	-8525
▁Мужчина	-8526
▁больных	-8527
▁высокий	-8528
▁мировых	-8529
▁обычный	-8530
▁проигра	-8531
▁связана	-8532
▁областях	-8533
▁придумал	-8534
▁пыталась	-8535
▁пытаться	-8536
▁запустить	-8537
▁смертности	-8538
Во	-8539
СА	-8540
пев	-8541
▁Ху	-8542
▁зон	-8543
▁таб	-8544
нутся	-8545
▁Наше	-8546
▁блок	-8547
▁моно	-8548
▁начн	-8549
▁силе	-8550
▁союз	-8551
Хорошо	-8552
▁глупо	-8553
▁ладно	-8554
▁вещами	-8555
▁границ	-8556
▁Человек	-8557
▁взгляды	-8558
▁изменил	-8559
▁многими	-8560
▁опухоли	-8561
▁помогло	-8562
▁проигры	-8563
▁законода	-8564
▁приведёт	-8565
▁самоубий	-8566
▁учеников	-8567
▁приспособ	-8568
▁развивать	-8569
▁следующим	-8570
▁хозяйства	-8571
▁рассмотрим	-8572
Мне	-8573
ейн	-8574
ква	-8575
чих	-8576
крас	-8577
▁чай	-8578
нился	-8579
▁выта	-8580
▁роде	-8581
▁цены	-8582
▁Далее	-8583
▁жертв	-8584
▁точек	-8585
▁защите	-8586
▁напеча	-8587
▁прикре	-8588
▁раство	-8589
▁смотря	-8590
▁улицах	-8591
▁уходит	-8592
▁учёный	-8593
▁крупных	-8594
▁любимый	-8595
▁снаружи	-8596
▁хорошей	-8597
▁обеспоко	-8598
▁проходят	-8599
▁вспомнить	-8600
▁программе	-8601
▁реального	-8602
▁отказаться	-8603
.,	-8604
of	-8605
рэн	-8606
вину	-8607
мали	-8608
маты	-8609
▁30-	-8610
▁Кен	-8611
дцать	-8612
▁Мэри	-8613
▁конц	-8614
▁цело	-8615
ляется	-8616
▁Дэвид	-8617
▁вдвое	-8618
▁лесов	-8619
▁шансы	-8620
▁зрение	-8621
▁контен	-8622
▁тёмной	-8623
▁художе	-8624
рованием	-8625
▁Причина	-8626
▁явления	-8627
▁вещество	-8628
▁отметить	-8629
▁развитии	-8630
▁реальной	-8631
▁компанией	-8632
▁связанных	-8633
▁чувствуем	-8634
▁медицинских	-8635
▁заканчивается	-8636
▁ответственности	-8637
дум	-8638
▁вед	-8639
▁Запа	-8640
▁зала	-8641
▁изви	-8642
▁иной	-8643
▁коне	-8644
▁лист	-8645
▁обши	-8646
▁симу	-8647
▁тиши	-8648
жество	-8649
тивным	-8650
ющаяся	-8651
▁вывод	-8652
▁заблу	-8653
▁снять	-8654
тельном	-8655
▁Будучи	-8656
▁данной	-8657
▁запись	-8658
▁режиме	-8659
ционного	-8660
▁Америка	-8661
▁деревни	-8662
▁карьеры	-8663
▁морских	-8664
▁умереть	-8665
▁философ	-8666
▁Результа	-8667
▁встретил	-8668
▁счастлив	-8669
▁отдельных	-8670
▁исследованиях	-8671
▁электричества	-8672
атр	-8673
бет	-8674
мато	-8675
щики	-8676
▁Фор	-8677
▁жар	-8678
▁ово	-8679
▁сми	-8680
▁отры	-8681
▁прет	-8682
органи	-8683
▁банки	-8684
▁ориен	-8685
▁прису	-8686
▁сайте	-8687
▁стену	-8688
▁услуг	-8689
▁Солнца	-8690
▁забыть	-8691
▁лидеры	-8692
▁парков	-8693
▁владель	-8694
▁впереди	-8695
▁выборов	-8696
▁наиболь	-8697
▁приорит	-8698
▁топливо	-8699
▁трёхмер	-8700
▁личность	-8701
▁проводят	-8702
тельностью	-8703
▁страдания	-8704
▁физически	-8705
▁математике	-8706
▁Действительно	-8707
ина	-8708
нёр	-8709
тес	-8710
▁CO	-8711
гром	-8712
джет	-8713
мора	-8714
▁Оли	-8715
▁Разу	-8716
▁двое	-8717
▁нере	-8718
пережи	-8719
▁взрыв	-8720
держать	-8721
ющимися	-8722
▁исходя	-8723
▁контак	-8724
▁просле	-8725
▁учился	-8726
▁законов	-8727
▁тратить	-8728
▁выбросов	-8729
▁задавать	-8730
▁способна	-8731
▁вернулась	-8732
▁гуманитар	-8733
▁относиться	-8734
▁производит	-8735
▁эволюциони	-8736
▁происходить	-8737
▁современного	-8738
▁сталкиваемся	-8739
бок	-8740
вига	-8741
дешь	-8742
пуга	-8743
стил	-8744
телю	-8745
цина	-8746
▁Пря	-8747
▁бел	-8748
▁гей	-8749
▁лов	-8750
▁мое	-8751
ваешь	-8752
▁НАСА	-8753
▁взор	-8754
▁дому	-8755
▁идеа	-8756
▁срок	-8757
вающее	-8758
ющееся	-8759
▁анато	-8760
▁безум	-8761
▁голод	-8762
рованию	-8763
▁iPhone	-8764
▁алкого	-8765
▁вашему	-8766
▁вплоть	-8767
▁личной	-8768
▁лёгких	-8769
▁тысяче	-8770
▁языком	-8771
▁условий	-8772
▁Необходи	-8773
▁называли	-8774
▁интересная	-8775
▁необходима	-8776
гро	-8777
зок	-8778
бели	-8779
▁блю	-8780
▁уга	-8781
▁куби	-8782
вывать	-8783
шаются	-8784
▁ветра	-8785
▁добры	-8786
▁конфи	-8787
▁кусок	-8788
▁науку	-8789
▁песню	-8790
▁резко	-8791
▁стихо	-8792
▁борьба	-8793
▁такова	-8794
▁визуали	-8795
▁начался	-8796
▁прибыли	-8797
▁промежу	-8798
▁фотогра	-8799
▁доверять	-8800
▁остались	-8801
▁отвечают	-8802
▁получали	-8803
▁точности	-8804
▁демонстра	-8805
▁объясняет	-8806
▁серьёзные	-8807
▁интересные	-8808
▁настоящего	-8809
▁лабораторию	-8810
▁остановиться	-8811
▁сталкиваются	-8812
▁приблизительно	-8813
куп	-8814
мол	-8815
нга	-8816
рём	-8817
▁20%	-8818
▁90-	-8819
енной	-8820
прови	-8821
ристо	-8822
стной	-8823
▁Суть	-8824
▁вете	-8825
▁кучу	-8826
▁раду	-8827
▁снаб	-8828
вающая	-8829
▁Позже	-8830
▁Такая	-8831
▁ветер	-8832
▁празд	-8833
▁влиять	-8834
▁дельфи	-8835
▁закона	-8836
▁зарази	-8837
▁инстин	-8838
▁манипу	-8839
▁печень	-8840
▁привет	-8841
▁фильме	-8842
▁деревне	-8843
▁затраги	-8844
▁лучшего	-8845
▁несчаст	-8846
▁просыпа	-8847
▁сильные	-8848
▁скажете	-8849
▁угрозой	-8850
▁Использу	-8851
▁воспроиз	-8852
▁защищать	-8853
▁конфликт	-8854
▁непросто	-8855
▁обстанов	-8856
▁предпочт	-8857
▁сомнения	-8858
▁маленьким	-8859
▁масштабах	-8860
▁попросить	-8861
▁стоимости	-8862
▁чувствует	-8863
li	-8864
гия	-8865
▁Фа	-8866
▁ян	-8867
▁Ама	-8868
▁Кра	-8869
▁Ника	-8870
▁мамы	-8871
▁пуга	-8872
▁шоки	-8873
нением	-8874
рактив	-8875
частли	-8876
▁Жизнь	-8877
▁живой	-8878
▁медсе	-8879
▁немец	-8880
▁отдел	-8881
▁тремя	-8882
▁улыба	-8883
▁клетка	-8884
▁лечить	-8885
▁учатся	-8886
▁военных	-8887
▁воодуше	-8888
▁ответов	-8889
▁пассажи	-8890
▁пациент	-8891
▁площадь	-8892
▁слышите	-8893
▁участия	-8894
▁включает	-8895
▁доступны	-8896
▁известны	-8897
▁основная	-8898
▁сантимет	-8899
▁выполнить	-8900
▁позволило	-8901
▁предостав	-8902
▁тщательно	-8903
▁интерактив	-8904
▁интересует	-8905
▁увеличение	-8906
▁чернокожих	-8907
▁заболевание	-8908
▁невероятное	-8909
▁осуществить	-8910
▁температура	-8911
пры	-8912
сво	-8913
▁36	-8914
▁In	-8915
▁Эн	-8916
дкой	-8917
ктом	-8918
стые	-8919
▁The	-8920
▁Гра	-8921
▁Гре	-8922
▁Кин	-8923
▁иро	-8924
▁кол	-8925
▁лен	-8926
▁2007	-8927
▁Поли	-8928
▁двум	-8929
▁дыры	-8930
▁жила	-8931
▁марк	-8932
▁нуля	-8933
▁репу	-8934
▁спер	-8935
▁цикл	-8936
▁откро	-8937
▁помог	-8938
▁разга	-8939
▁сетей	-8940
▁соблю	-8941
▁давали	-8942
▁догово	-8943
▁новыми	-8944
▁откров	-8945
▁астерои	-8946
▁главная	-8947
▁действует	-8948
▁начинаете	-8949
▁ситуациях	-8950
▁взаимосвяза	-8951
▁неопределён	-8952
▁потребности	-8953
▁чувствовали	-8954
▁соответствует	-8955
▁использованием	-8956
▁промышленности	-8957
ам	-8958
дры	-8959
йся	-8960
▁Фо	-8961
▁ев	-8962
кать	-8963
▁Том	-8964
▁дух	-8965
▁тур	-8966
▁Паки	-8967
▁пчёл	-8968
▁рент	-8969
▁рыбу	-8970
▁умно	-8971
пустим	-8972
требля	-8973
▁нужды	-8974
▁ощуща	-8975
▁район	-8976
▁целую	-8977
▁штука	-8978
▁юриди	-8979
▁воскре	-8980
▁диалог	-8981
▁лучшей	-8982
▁набира	-8983
▁натура	-8984
▁облака	-8985
▁ранних	-8986
▁словом	-8987
▁статьи	-8988
▁считал	-8989
▁бабушка	-8990
▁беспило	-8991
▁заранее	-8992
▁незакон	-8993
▁раздели	-8994
▁остаться	-8995
▁покупать	-8996
▁принципе	-8997
▁испытания	-8998
▁администра	-8999
PS	-9000
Ни	-9001
гл	-9002
▁m	-9003
вав	-9004
хой	-9005
▁Эд	-9006
зави	-9007
▁50%	-9008
▁70-	-9009
▁Син	-9010
бенок	-9011
▁Apple	-9012
▁Опять	-9013
▁желез	-9014
▁нехва	-9015
▁ткань	-9016
▁Ричард	-9017
▁забира	-9018
▁правде	-9019
▁солнца	-9020
▁тюрьмы	-9021
альности	-9022
▁паралле	-9023
▁варианты	-9024
▁понимали	-9025
▁основания	-9026
▁родителями	-9027
ent	-9028
эль	-9029
▁дя	-9030
жаем	-9031
кана	-9032
ланд	-9033
▁хак	-9034
▁лице	-9035
▁лока	-9036
▁мост	-9037
ванный	-9038
пустил	-9039
▁гидро	-9040
▁земля	-9041
▁внести	-9042
▁настав	-9043
▁очеред	-9044
▁солдат	-9045
▁доверия	-9046
▁обязаны	-9047
▁техники	-9048
▁важность	-9049
▁выяснили	-9050
▁концентри	-9051
▁проводили	-9052
▁разговора	-9053
▁ценностей	-9054
▁безусловно	-9055
▁приложения	-9056
▁предсказать	-9057
▁повседневной	-9058
▁необходимость	-9059
Дж	-9060
взя	-9061
диа	-9062
хро	-9063
кций	-9064
силь	-9065
слом	-9066
теры	-9067
▁зас	-9068
▁ссы	-9069
▁ход	-9070
вляют	-9071
орети	-9072
проду	-9073
рассу	-9074
стера	-9075
▁Речь	-9076
▁Этим	-9077
▁дала	-9078
▁импе	-9079
▁руке	-9080
летряс	-9081
▁возле	-9082
▁уроки	-9083
▁чётко	-9084
фикации	-9085
▁банков	-9086
▁месяцы	-9087
▁обосно	-9088
▁обязан	-9089
▁треуго	-9090
▁ассоции	-9091
▁извлечь	-9092
▁крупные	-9093
▁решением	-9094
▁пониманию	-9095
▁последней	-9096
▁счастливы	-9097
▁Существуют	-9098
ёс	-9099
ork	-9100
гну	-9101
ект	-9102
▁ищ	-9103
▁удо	-9104
▁эли	-9105
ation	-9106
етыре	-9107
кторы	-9108
рится	-9109
ённым	-9110
▁гена	-9111
▁съём	-9112
грации	-9113
начале	-9114
▁массу	-9115
▁палец	-9116
▁родом	-9117
▁совпа	-9118
▁тесно	-9119
ваетесь	-9120
▁беспре	-9121
▁запрет	-9122
▁меняют	-9123
▁связан	-9124
▁цветом	-9125
▁церков	-9126
▁Никогда	-9127
▁богатых	-9128
▁находят	-9129
▁потерял	-9130
▁привиле	-9131
▁галактик	-9132
▁означало	-9133
▁республи	-9134
▁сравнить	-9135
довательно	-9136
тироваться	-9137
▁выражение	-9138
▁животного	-9139
▁положении	-9140
▁математика	-9141
▁посмотрели	-9142
▁расстояние	-9143
▁содержание	-9144
▁потребление	-9145
▁принадлежит	-9146
▁общественного	-9147
вол	-9148
▁26	-9149
▁32	-9150
дика	-9151
шено	-9152
щено	-9153
▁бен	-9154
▁акту	-9155
▁знак	-9156
▁ключ	-9157
▁мель	-9158
▁ущер	-9159
ждению	-9160
лететь	-9161
нимите	-9162
▁гармо	-9163
▁нагля	-9164
▁прибо	-9165
▁попада	-9166
▁сахара	-9167
▁компози	-9168
▁методов	-9169
▁посреди	-9170
▁требуют	-9171
▁потенциа	-9172
▁рассчиты	-9173
▁свободно	-9174
▁некоторым	-9175
▁понимании	-9176
▁демократия	-9177
▁источником	-9178
▁количестве	-9179
▁специалистов	-9180
od	-9181
уди	-9182
▁2,	-9183
▁Ай	-9184
мену	-9185
ряду	-9186
▁10-	-9187
▁пче	-9188
▁фру	-9189
▁шли	-9190
генов	-9191
оцени	-9192
▁веру	-9193
▁замы	-9194
▁ищем	-9195
▁нала	-9196
▁осла	-9197
▁пило	-9198
лённых	-9199
▁вышло	-9200
▁гордо	-9201
▁играл	-9202
▁нагре	-9203
▁порой	-9204
▁пусто	-9205
▁сидел	-9206
▁супру	-9207
▁хорош	-9208
▁члена	-9209
▁прошёл	-9210
▁старая	-9211
▁тюрьму	-9212
тельстве	-9213
▁возьмём	-9214
▁дешевле	-9215
▁партнёр	-9216
▁участки	-9217
▁болезнью	-9218
▁впечатля	-9219
▁движении	-9220
▁меняются	-9221
▁показала	-9222
▁энергией	-9223
▁отдельные	-9224
▁принимаем	-9225
▁процессов	-9226
▁американцы	-9227
▁пригласили	-9228
▁Афганистане	-9229
▁существенно	-9230
ia	-9231
ve	-9232
лке	-9233
оми	-9234
сей	-9235
▁75	-9236
▁тё	-9237
...»	-9238
тило	-9239
цгей	-9240
▁сва	-9241
▁сму	-9242
тузиа	-9243
▁Боже	-9244
▁дает	-9245
▁льда	-9246
▁сово	-9247
▁твой	-9248
ванной	-9249
▁Марсе	-9250
▁столи	-9251
▁немало	-9252
▁одежды	-9253
▁полуша	-9254
▁службы	-9255
▁средне	-9256
▁чистой	-9257
▁Америку	-9258
▁высокие	-9259
▁нейроны	-9260
▁обсужда	-9261
▁перевод	-9262
▁изнасило	-9263
▁командой	-9264
▁поменять	-9265
▁рисовать	-9266
▁традиции	-9267
▁уверенно	-9268
▁улучшения	-9269
▁участники	-9270
▁обсуждения	-9271
▁технологиях	-9272
▁возвращается	-9273
▁экономической	-9274
СР	-9275
?»,	-9276
еру	-9277
зах	-9278
▁Эм	-9279
дете	-9280
кипе	-9281
рики	-9282
▁пей	-9283
▁пье	-9284
белев	-9285
ённый	-9286
▁боже	-9287
▁взры	-9288
▁миль	-9289
▁пуль	-9290
▁шриф	-9291
нилась	-9292
▁серви	-9293
▁целая	-9294
▁второе	-9295
▁летать	-9296
▁связей	-9297
▁фемини	-9298
▁главной	-9299
▁изнутри	-9300
▁незнако	-9301
▁перевер	-9302
▁решению	-9303
▁Американ	-9304
▁большими	-9305
▁картинки	-9306
▁землетряс	-9307
▁возобновля	-9308
▁благосостоя	-9309
2,	-9310
мей	-9311
ффи	-9312
вива	-9313
пать	-9314
плуа	-9315
▁50-	-9316
▁Най	-9317
▁зал	-9318
▁Особ	-9319
▁выпу	-9320
▁мега	-9321
▁пони	-9322
▁пояс	-9323
▁Часто	-9324
▁ислам	-9325
▁крове	-9326
▁отцом	-9327
▁скром	-9328
▁черты	-9329
▁голова	-9330
▁голода	-9331
▁отходы	-9332
▁разным	-9333
▁сенсор	-9334
▁симмет	-9335
▁товары	-9336
▁церкви	-9337
▁Альцгей	-9338
▁космосе	-9339
▁материи	-9340
▁придумы	-9341
▁микробов	-9342
▁сопережи	-9343
▁вопросами	-9344
▁компьютере	-9345
▁объяснение	-9346
▁экосистемы	-9347
▁десятилетий	-9348
▁сотрудничество	-9349
▁экономического	-9350
дое	-9351
мат	-9352
сен	-9353
▁28	-9354
виду	-9355
стья	-9356
▁Ваш	-9357
▁Ган	-9358
▁Нау	-9359
▁сфе	-9360
▁уха	-9361
▁авиа	-9362
▁амби	-9363
▁окна	-9364
культу	-9365
чивать	-9366
▁кибер	-9367
▁отчёт	-9368
▁подда	-9369
▁текст	-9370
▁умные	-9371
▁домини	-9372
▁прибор	-9373
▁собаки	-9374
▁Женщина	-9375
▁выбросы	-9376
▁делаешь	-9377
▁донести	-9378
▁исполни	-9379
▁моменту	-9380
▁привели	-9381
▁средний	-9382
▁энтузиа	-9383
▁больницу	-9384
▁вызывают	-9385
▁географи	-9386
▁некоммер	-9387
▁огромных	-9388
▁проанали	-9389
▁расследо	-9390
▁опасность	-9391
▁усовершен	-9392
▁Получается	-9393
▁английский	-9394
▁восстанови	-9395
▁изменилась	-9396
▁различными	-9397
▁учреждения	-9398
▁лаборатория	-9399
▁последствий	-9400
▁способствует	-9401
▁строительство	-9402
▁сотрудничества	-9403
зму	-9404
ням	-9405
ссы	-9406
ьет	-9407
▁[«	-9408
▁дю	-9409
▁ею	-9410
тоне	-9411
▁250	-9412
▁Ван	-9413
▁кап	-9414
▁оси	-9415
▁яро	-9416
▁арте	-9417
▁выле	-9418
▁изле	-9419
▁фана	-9420
▁фонд	-9421
▁этап	-9422
рующих	-9423
▁глядя	-9424
▁музей	-9425
▁откли	-9426
▁сцены	-9427
▁счёте	-9428
▁камера	-9429
▁колеба	-9430
▁пирами	-9431
▁прошла	-9432
▁реклам	-9433
ленность	-9434
▁академи	-9435
▁гаранти	-9436
▁друзьям	-9437
▁журнала	-9438
▁инвалид	-9439
▁образец	-9440
▁общение	-9441
▁помогла	-9442
▁правосу	-9443
▁ребёнку	-9444
▁многочис	-9445
▁преследо	-9446
▁спокойно	-9447
▁Насколько	-9448
▁предлагаю	-9449
▁принимает	-9450
▁разрешения	-9451
▁трансформа	-9452
▁предположить	-9453
ut	-9454
▁Гор	-9455
▁кош	-9456
надца	-9457
рении	-9458
ходил	-9459
ётесь	-9460
▁Будь	-9461
▁заре	-9462
▁обло	-9463
▁очки	-9464
▁папа	-9465
▁услы	-9466
челове	-9467
ченный	-9468
▁колон	-9469
▁напад	-9470
▁стоял	-9471
ведение	-9472
▁Похоже	-9473
▁вступа	-9474
▁мусора	-9475
▁носить	-9476
▁полное	-9477
▁черепа	-9478
▁Женщины	-9479
▁космоса	-9480
▁моделей	-9481
▁отчасти	-9482
▁эксплуа	-9483
▁бактерия	-9484
▁комплекс	-9485
▁потерять	-9486
▁приготов	-9487
▁животными	-9488
▁консульта	-9489
▁огромного	-9490
▁относятся	-9491
▁проблемах	-9492
▁случиться	-9493
▁компьютером	-9494
шко	-9495
стря	-9496
▁нат	-9497
▁ров	-9498
▁сон	-9499
▁ужи	-9500
▁уло	-9501
▁вряд	-9502
▁желу	-9503
▁каль	-9504
▁кожу	-9505
▁скан	-9506
▁собе	-9507
▁Чарль	-9508
▁врача	-9509
▁думая	-9510
▁купил	-9511
▁метра	-9512
▁попал	-9513
▁посту	-9514
▁прось	-9515
▁собак	-9516
▁стиле	-9517
▁телом	-9518
▁фикси	-9519
▁хромо	-9520
мыслить	-9521
▁бывают	-9522
▁выборы	-9523
▁высоте	-9524
▁генома	-9525
▁начнут	-9526
▁фермер	-9527
▁видение	-9528
▁второго	-9529
▁одинако	-9530
▁понимал	-9531
▁региона	-9532
▁сказано	-9533
▁слышала	-9534
▁Эйнштейн	-9535
▁давления	-9536
▁капитала	-9537
▁положить	-9538
▁размеров	-9539
▁обсуждать	-9540
▁превосход	-9541
▁последнего	-9542
▁президента	-9543
▁перспективе	-9544
▁превращается	-9545
▁предоставить	-9546
.]	-9547
Па	-9548
кса	-9549
рку	-9550
▁МР	-9551
тана	-9552
▁Слу	-9553
▁вле	-9554
▁дам	-9555
▁эры	-9556
ствуя	-9557
▁ищут	-9558
▁суда	-9559
▁хлеб	-9560
биться	-9561
емость	-9562
таркти	-9563
▁Прямо	-9564
▁газов	-9565
▁огонь	-9566
▁голово	-9567
▁федера	-9568
рованной	-9569
▁аспиран	-9570
▁навыков	-9571
▁приведу	-9572
▁приехал	-9573
▁радости	-9574
▁эффекты	-9575
▁кровенос	-9576
▁отличный	-9577
▁простого	-9578
▁возможное	-9579
▁инженеров	-9580
▁категории	-9581
▁разумеется	-9582
▁расстояния	-9583
▁изобретения	-9584
▁определённых	-9585
жке	-9586
теле	-9587
чени	-9588
шель	-9589
▁Объ	-9590
▁Эбо	-9591
▁дев	-9592
▁опа	-9593
емыми	-9594
ялись	-9595
▁креа	-9596
делать	-9597
▁Верно	-9598
▁берут	-9599
▁вечно	-9600
▁самоо	-9601
▁слайд	-9602
▁соору	-9603
▁стади	-9604
▁улицу	-9605
ждением	-9606
ющегося	-9607
▁Алекса	-9608
▁борьбу	-9609
▁готова	-9610
▁дистан	-9611
▁мыслей	-9612
▁неудоб	-9613
▁цветов	-9614
▁глубине	-9615
▁достато	-9616
▁незначи	-9617
▁изучение	-9618
▁названия	-9619
▁обсудить	-9620
▁нарушения	-9621
▁обработки	-9622
▁называемый	-9623
▁экологически	-9624
▁Шве	-9625
▁дне	-9626
ьмите	-9627
▁2011	-9628
▁Весь	-9629
▁боле	-9630
▁всле	-9631
▁вызо	-9632
▁духе	-9633
▁испа	-9634
▁насы	-9635
▁нену	-9636
▁проч	-9637
▁рада	-9638
▁рыно	-9639
▁скри	-9640
ватели	-9641
▁гипер	-9642
▁домом	-9643
▁живые	-9644
▁линию	-9645
▁пишет	-9646
▁ребят	-9647
▁читал	-9648
▁шагом	-9649
вающего	-9650
констру	-9651
ленными	-9652
▁Привет	-9653
▁аресто	-9654
▁верите	-9655
▁дважды	-9656
▁догада	-9657
▁мотиви	-9658
▁обмени	-9659
▁словам	-9660
тические	-9661
▁бросить	-9662
▁кусочек	-9663
▁образцы	-9664
▁отвлека	-9665
▁отклады	-9666
▁специфи	-9667
▁интересы	-9668
▁клиентов	-9669
▁выживания	-9670
▁заставило	-9671
▁пациентам	-9672
▁поставили	-9673
▁применение	-9674
▁разрешение	-9675
▁спрашивали	-9676
▁творчества	-9677
▁противоречи	-9678
▁представлять	-9679
▁представителей	-9680
2.	-9681
ag	-9682
Со	-9683
Зву	-9684
лай	-9685
рпи	-9686
▁Ша	-9687
кают	-9688
чник	-9689
▁10%	-9690
▁Фер	-9691
стный	-9692
стным	-9693
▁нрав	-9694
▁пеше	-9695
▁экзо	-9696
дителя	-9697
послед	-9698
▁Этого	-9699
▁дорог	-9700
▁мозго	-9701
▁нелег	-9702
▁нелов	-9703
▁ритуа	-9704
▁сопер	-9705
▁стене	-9706
▁убежи	-9707
▁члены	-9708
▁образы	-9709
▁построй	-9710
▁предубе	-9711
▁проходя	-9712
▁сфокуси	-9713
▁услышал	-9714
▁экспеди	-9715
▁заглянуть	-9716
▁расширить	-9717
▁заставляют	-9718
▁правильный	-9719
▁афроамерикан	-9720
▁исследователи	-9721
▁кло	-9722
нятно	-9723
отера	-9724
порта	-9725
стине	-9726
товой	-9727
▁едят	-9728
▁кало	-9729
▁парк	-9730
вшейся	-9731
довать	-9732
▁Гаити	-9733
▁боятся	-9734
▁версии	-9735
▁видеои	-9736
▁вперед	-9737
▁звёзды	-9738
▁имплан	-9739
▁плохой	-9740
▁фокуси	-9741
▁бизнесе	-9742
▁волнует	-9743
▁высказа	-9744
▁маркети	-9745
▁научили	-9746
▁неважно	-9747
▁полезно	-9748
▁сделана	-9749
▁сложное	-9750
▁терапии	-9751
▁изменило	-9752
▁картинку	-9753
▁напротив	-9754
▁открытом	-9755
▁природой	-9756
▁двигатель	-9757
▁источники	-9758
▁отправили	-9759
▁сельского	-9760
▁вычисления	-9761
▁прекрасная	-9762
▁несколькими	-9763
▁американской	-9764
▁продолжается	-9765
пь	-9766
▁Z	-9767
зин	-9768
жусь	-9769
пети	-9770
▁800	-9771
▁гли	-9772
▁чис	-9773
брали	-9774
менти	-9775
▁Руан	-9776
▁Стэн	-9777
▁прив	-9778
▁рако	-9779
▁суме	-9780
▁удво	-9781
▁хран	-9782
▁экза	-9783
вающей	-9784
▁Огром	-9785
▁белый	-9786
▁притя	-9787
▁раско	-9788
▁сколь	-9789
▁Звучит	-9790
▁атомов	-9791
▁неодно	-9792
▁остров	-9793
▁пойдёт	-9794
▁ускоря	-9795
▁импрови	-9796
▁находим	-9797
▁кампании	-9798
▁пределах	-9799
▁Интернете	-9800
▁механизмы	-9801
▁нуждается	-9802
▁положения	-9803
▁испытывают	-9804
▁множеством	-9805
▁прекрасные	-9806
▁Альцгеймера	-9807
▁рассказываю	-9808
▁сострадание	-9809
▁столкнулись	-9810
▁соответствии	-9811
▁автоматически	-9812
▁млекопитающих	-9813
AR	-9814
лд	-9815
бки	-9816
дон	-9817
гере	-9818
зона	-9819
▁Рай	-9820
▁мра	-9821
▁рот	-9822
гарет	-9823
енная	-9824
ссией	-9825
▁2005	-9826
▁Сист	-9827
▁Теха	-9828
▁забу	-9829
▁зоне	-9830
▁кури	-9831
▁нево	-9832
▁ногу	-9833
▁пору	-9834
▁появ	-9835
ченной	-9836
▁Можем	-9837
▁видом	-9838
▁возмо	-9839
▁лампо	-9840
▁песня	-9841
▁подра	-9842
▁растя	-9843
▁расчё	-9844
благода	-9845
▁всевоз	-9846
▁выбрал	-9847
▁кредит	-9848
▁писали	-9849
▁стоило	-9850
▁третья	-9851
▁восхити	-9852
▁высказы	-9853
▁доходов	-9854
▁задания	-9855
▁колосса	-9856
▁коралло	-9857
▁объекта	-9858
▁подхода	-9859
▁регионе	-9860
▁символи	-9861
▁человеке	-9862
▁атмосферы	-9863
▁настоящим	-9864
▁продавать	-9865
▁сложность	-9866
▁Необходимо	-9867
▁организмов	-9868
▁отправился	-9869
▁тысячелети	-9870
▁уничтожить	-9871
▁химические	-9872
▁художников	-9873
▁встречаются	-9874
▁технологией	-9875
▁предположения	-9876
рёл	-9877
▁кг	-9878
лиза	-9879
рена	-9880
чала	-9881
▁Кем	-9882
▁мяч	-9883
вейца	-9884
ждены	-9885
стных	-9886
▁грам	-9887
▁напа	-9888
▁смеш	-9889
▁стою	-9890
▁ушёл	-9891
дились	-9892
зывает	-9893
рились	-9894
▁волно	-9895
▁враща	-9896
▁любил	-9897
▁монет	-9898
▁общий	-9899
▁фокус	-9900
▁Нельзя	-9901
▁гриппа	-9902
▁учёным	-9903
▁Колумби	-9904
▁девушек	-9905
▁найдёте	-9906
▁плохого	-9907
▁закончил	-9908
▁написали	-9909
▁отражает	-9910
▁перемена	-9911
▁победить	-9912
▁торговли	-9913
▁нуждаются	-9914
▁переключа	-9915
▁позволили	-9916
▁Пожалуйста	-9917
▁работающих	-9918
▁встретиться	-9919
▁организовать	-9920
▁представители	-9921
op	-9922
▁t	-9923
кол	-9924
▁4-	-9925
▁мэ	-9926
бани	-9927
вите	-9928
защи	-9929
леты	-9930
стал	-9931
стёр	-9932
▁гос	-9933
▁оше	-9934
▁шла	-9935
время	-9936
дного	-9937
▁Вспо	-9938
▁Крас	-9939
▁Саха	-9940
▁басс	-9941
▁долю	-9942
▁окно	-9943
▁рыбо	-9944
женные	-9945
▁заслу	-9946
▁общие	-9947
▁радиа	-9948
▁стира	-9949
▁точке	-9950
▁Джордж	-9951
▁бюджет	-9952
▁мозгом	-9953
▁непред	-9954
▁одежду	-9955
▁предки	-9956
▁тысячу	-9957
▁убрать	-9958
▁угрозу	-9959
▁центов	-9960
▁частях	-9961
▁выходят	-9962
▁красоты	-9963
▁парамет	-9964
▁портрет	-9965
▁ребенок	-9966
▁студент	-9967
▁умирает	-9968
▁Антаркти	-9969
▁Смотрите	-9970
▁движений	-9971
▁доказыва	-9972
▁научился	-9973
▁эволюция	-9974
▁запустили	-9975
▁мальчиков	-9976
▁нравилось	-9977
▁предметов	-9978
▁приходили	-9979
▁совершить	-9980
▁автомобиля	-9981
▁заключение	-9982
▁противостоять	-9983
▁присутствующих	-9984
▁здравоохранение	-9985
.)	-9986
ig	-9987
ъя	-9988
гон	-9989
лье	-9990
мощ	-9991
хло	-9992
чах	-9993
дело	-9994
▁Пло	-9995
▁Сам	-9996
▁Тур	-9997
▁опе	-9998
Когда	-9999
треть	-10000
▁День	-10001
▁оран	-10002
тились	-10003
▁берём	-10004
▁взяла	-10005
▁некий	-10006
▁нераз	-10007
▁терми	-10008
▁версию	-10009
▁доллар	-10010
▁сидели	-10011
▁тратим	-10012
▁заголов	-10013
▁извлека	-10014
▁красиво	-10015
▁пальцев	-10016
▁первыми	-10017
▁беспровод	-10018
▁депрессия	-10019
▁последняя	-10020
▁произошла	-10021
▁разделить	-10022
▁стратегия	-10023
▁функциона	-10024
▁автомобили	-10025
▁находились	-10026
▁эффективности	-10027
Эй	-10028
▁$	-10029
бла	-10030
вец	-10031
▁ур	-10032
веси	-10033
дови	-10034
йдут	-10035
лили	-10036
орга	-10037
рово	-10038
▁700	-10039
▁Тер	-10040
▁жда	-10041
▁жид	-10042
доров	-10043
обеща	-10044
▁взво	-10045
▁прод	-10046
▁герой	-10047
▁опыте	-10048
▁пости	-10049
▁целые	-10050
▁включи	-10051
▁знание	-10052
▁научно	-10053
▁принял	-10054
▁языках	-10055
▁языков	-10056
скохозяй	-10057
▁Институ	-10058
▁магазине	-10059
▁эпидемии	-10060
▁направить	-10061
▁первонача	-10062
▁спрашивать	-10063
глу	-10064
нив	-10065
▁0,	-10066
ражи	-10067
роли	-10068
веден	-10069
проми	-10070
тники	-10071
▁пени	-10072
▁тихо	-10073
▁ярко	-10074
▁дворе	-10075
▁опрос	-10076
▁планы	-10077
▁слепо	-10078
▁тюрем	-10079
▁умнее	-10080
▁целях	-10081
▁Штатов	-10082
▁версия	-10083
▁встать	-10084
▁наукой	-10085
▁общины	-10086
▁отдать	-10087
▁причём	-10088
▁угрозы	-10089
▁упаков	-10090
▁господа	-10091
▁острова	-10092
▁похожие	-10093
▁сложным	-10094
▁станции	-10095
▁бесполез	-10096
▁колледже	-10097
▁сообщить	-10098
▁профессор	-10099
▁точностью	-10100
▁воспроизво	-10101
▁выяснилось	-10102
▁окружающих	-10103
▁невероятные	-10104
▁происхождения	-10105
▁строительства	-10106
▁восстановления	-10107
чив	-10108
▁Уи	-10109
▁зв	-10110
нена	-10111
стых	-10112
шали	-10113
▁зуб	-10114
награ	-10115
▁1000	-10116
▁волн	-10117
▁гомо	-10118
▁заве	-10119
▁избы	-10120
▁лову	-10121
▁преж	-10122
▁сопо	-10123
▁янва	-10124
вилось	-10125
▁Пусть	-10126
▁пейза	-10127
▁рефор	-10128
▁траек	-10129
▁целых	-10130
▁выйдет	-10131
▁дефици	-10132
▁разрыв	-10133
нировать	-10134
▁женщине	-10135
▁комаров	-10136
▁сильное	-10137
▁состоят	-10138
▁взрослые	-10139
▁считаете	-10140
▁некоторыми	-10141
▁соединения	-10142
▁триллионов	-10143
▁встретились	-10144
▁представляю	-10145
▁рассказывает	-10146
▁замечательный	-10147
▁экономический	-10148
Так	-10149
▁Tw	-10150
▁ля	-10151
▁щи	-10152
мино	-10153
▁вно	-10154
▁уво	-10155
подоб	-10156
▁Манх	-10157
▁гнев	-10158
▁кафе	-10159
▁кода	-10160
▁кожа	-10161
▁коме	-10162
▁ледя	-10163
▁наце	-10164
▁цену	-10165
▁Генри	-10166
▁вещам	-10167
▁выпла	-10168
▁умеют	-10169
ствуйте	-10170
▁дышать	-10171
▁могуще	-10172
▁нейтра	-10173
▁переса	-10174
▁полную	-10175
▁вдохнов	-10176
▁неблаго	-10177
▁нелегко	-10178
▁инженеры	-10179
▁отвечать	-10180
▁предмета	-10181
▁намерения	-10182
▁сработало	-10183
▁предлагает	-10184
▁транспорта	-10185
▁неравенство	-10186
▁собственное	-10187
▁разговаривать	-10188
вив	-10189
рки	-10190
фом	-10191
вере	-10192
дено	-10193
рное	-10194
стен	-10195
тино	-10196
енным	-10197
ерьёз	-10198
стети	-10199
▁Билл	-10200
▁Джен	-10201
▁лесу	-10202
▁моди	-10203
▁обед	-10204
▁орке	-10205
▁усер	-10206
ваемых	-10207
▁белки	-10208
▁каран	-10209
▁корне	-10210
▁курсе	-10211
▁любых	-10212
▁плана	-10213
▁покон	-10214
▁пребы	-10215
▁прибе	-10216
▁соста	-10217
▁татуи	-10218
▁траги	-10219
▁фарма	-10220
▁цифра	-10221
вшегося	-10222
тельнее	-10223
▁Работа	-10224
▁дорога	-10225
▁полном	-10226
▁прошед	-10227
▁театра	-10228
▁чёрной	-10229
рованная	-10230
▁любовью	-10231
▁молодым	-10232
▁сыграть	-10233
▁хирурги	-10234
▁агрессив	-10235
▁возникла	-10236
▁начинать	-10237
▁писатель	-10238
▁пострада	-10239
▁реальные	-10240
▁стараюсь	-10241
▁всевозмож	-10242
▁подняться	-10243
▁показывать	-10244
▁посередине	-10245
▁физические	-10246
▁воздействия	-10247
▁поддерживают	-10248
▁расстройства	-10249
▁возможностями	-10250
▁замечательные	-10251
▁инфраструктуры	-10252
Ми	-10253
зли	-10254
гиба	-10255
▁70%	-10256
▁Две	-10257
▁Кам	-10258
▁Кей	-10259
лятор	-10260
▁дало	-10261
▁Ираке	-10262
▁диапа	-10263
▁обмен	-10264
▁взрыва	-10265
▁выхода	-10266
▁замени	-10267
▁играли	-10268
▁климат	-10269
▁неправ	-10270
▁подчер	-10271
▁сделан	-10272
▁северо	-10273
▁спусти	-10274
▁страхо	-10275
▁тканей	-10276
▁кусочки	-10277
▁нейроби	-10278
▁посчита	-10279
▁расстро	-10280
▁решении	-10281
▁синтети	-10282
▁смертей	-10283
▁совокуп	-10284
думайтесь	-10285
▁Наверное	-10286
▁Особенно	-10287
▁включить	-10288
▁добились	-10289
▁начинали	-10290
▁поверхно	-10291
▁Интернета	-10292
▁вселенная	-10293
▁заплатить	-10294
▁определять	-10295
▁продолжить	-10296
▁сфотографи	-10297
▁установили	-10298
▁потребность	-10299
▁единственной	-10300
▁общественные	-10301
▁сельскохозяй	-10302
!"	-10303
if	-10304
ik	-10305
дям	-10306
ено	-10307
ппи	-10308
рене	-10309
ыска	-10310
▁Спо	-10311
▁Хар	-10312
▁мем	-10313
▁уси	-10314
тивля	-10315
▁Трам	-10316
▁бана	-10317
▁трущ	-10318
▁яйца	-10319
летних	-10320
▁Основ	-10321
▁ввиду	-10322
▁дикта	-10323
▁зайти	-10324
▁железы	-10325
▁изучаю	-10326
▁началь	-10327
▁списка	-10328
▁статус	-10329
▁хороши	-10330
▁чёрных	-10331
▁великих	-10332
▁капитал	-10333
▁отврати	-10334
▁привела	-10335
▁произне	-10336
▁свобода	-10337
▁страной	-10338
▁идеально	-10339
▁иллюстра	-10340
▁короткий	-10341
▁операций	-10342
▁операцию	-10343
▁пластика	-10344
▁странным	-10345
▁фермеров	-10346
▁являемся	-10347
▁действуют	-10348
▁мгновенно	-10349
▁надеяться	-10350
▁повторить	-10351
▁просматри	-10352
▁сообщений	-10353
▁социально	-10354
▁стратегию	-10355
▁телефонов	-10356
▁экспертов	-10357
▁выращивать	-10358
▁заработать	-10359
▁статистику	-10360
▁изобретение	-10361
▁справляться	-10362
▁определённой	-10363
▁искусственного	-10364
То	-10365
and	-10366
ard	-10367
бан	-10368
зив	-10369
ктя	-10370
▁Кэ	-10371
▁Эк	-10372
емом	-10373
рная	-10374
форд	-10375
чкам	-10376
▁GPS	-10377
ципли	-10378
▁2012	-10379
▁акул	-10380
▁блог	-10381
▁гене	-10382
▁дете	-10383
▁мерт	-10384
▁пало	-10385
▁рады	-10386
▁сочи	-10387
▁хруп	-10388
▁Конго	-10389
▁Марса	-10390
▁Помню	-10391
▁опере	-10392
▁порно	-10393
▁преде	-10394
▁разде	-10395
▁риски	-10396
▁слома	-10397
▁снизу	-10398
▁танцу	-10399
▁выстре	-10400
▁землёй	-10401
▁ошибка	-10402
▁расшиф	-10403
творение	-10404
▁анализи	-10405
▁вершине	-10406
▁волонтё	-10407
▁диагноз	-10408
▁дыхание	-10409
▁изготов	-10410
▁коллега	-10411
▁красоту	-10412
▁малярии	-10413
▁накапли	-10414
▁предвзя	-10415
▁провали	-10416
▁вознагра	-10417
▁выглядел	-10418
▁известен	-10419
▁меняться	-10420
▁отверсти	-10421
▁встретила	-10422
▁выступать	-10423
▁мужчинами	-10424
последствии	-10425
▁глобальной	-10426
▁определяют	-10427
▁архитектура	-10428
▁максимально	-10429
▁рассказывал	-10430
▁определённый	-10431
nd	-10432
гг	-10433
RIS	-10434
где	-10435
зме	-10436
тал	-10437
▁вен	-10438
тными	-10439
тости	-10440
▁York	-10441
▁Мини	-10442
▁Моло	-10443
▁Пять	-10444
▁наме	-10445
▁раку	-10446
тников	-10447
ченным	-10448
▁Вспом	-10449
▁антро	-10450
▁извле	-10451
▁испан	-10452
▁подво	-10453
▁слепы	-10454
третьих	-10455
▁городу	-10456
▁какова	-10457
▁пригод	-10458
▁решает	-10459
▁целого	-10460
▁экстра	-10461
▁полтора	-10462
▁сложную	-10463
▁страниц	-10464
▁индустри	-10465
▁непрерыв	-10466
▁позвонил	-10467
▁ресторан	-10468
▁страницы	-10469
▁Международ	-10470
▁наркотиков	-10471
▁прекратить	-10472
▁сопротивля	-10473
▁понравилось	-10474
гим	-10475
▁лы	-10476
вени	-10477
джер	-10478
исти	-10479
▁Фон	-10480
▁2014	-10481
▁дека	-10482
▁ждут	-10483
▁куль	-10484
▁наве	-10485
▁обли	-10486
▁ритм	-10487
▁розо	-10488
▁стой	-10489
▁цепи	-10490
дилась	-10491
тивную	-10492
▁Время	-10493
▁Флори	-10494
▁армии	-10495
▁веков	-10496
▁домах	-10497
▁месту	-10498
▁обман	-10499
▁одних	-10500
▁преда	-10501
▁призы	-10502
вивален	-10503
▁Откуда	-10504
▁аспект	-10505
▁баланс	-10506
▁нагруз	-10507
▁ошибку	-10508
▁партии	-10509
▁полная	-10510
▁прикос	-10511
▁рассла	-10512
▁старых	-10513
▁такому	-10514
▁тратят	-10515
▁фактов	-10516
▁История	-10517
▁вечерин	-10518
▁прошлой	-10519
▁сделают	-10520
▁сильный	-10521
▁изобрели	-10522
▁одиночку	-10523
▁осознала	-10524
▁услышали	-10525
▁Вашингтон	-10526
▁Взгляните	-10527
▁изменится	-10528
▁перестать	-10529
▁справедли	-10530
▁эквивален	-10531
▁Разумеется	-10532
▁измениться	-10533
▁признаться	-10534
▁разработке	-10535
▁химических	-10536
▁воображения	-10537
▁представили	-10538
▁электроэнер	-10539
▁человеческое	-10540
PR	-10541
st	-10542
Ла	-10543
дри	-10544
нина	-10545
▁Рей	-10546
▁Тру	-10547
▁мам	-10548
▁мат	-10549
▁озе	-10550
ствую	-10551
▁банк	-10552
▁валю	-10553
▁дале	-10554
▁заку	-10555
▁телу	-10556
женных	-10557
костью	-10558
пьютер	-10559
▁креди	-10560
▁леген	-10561
▁прили	-10562
▁услож	-10563
▁чисел	-10564
▁аноним	-10565
▁берегу	-10566
▁весело	-10567
▁заднем	-10568
▁наилуч	-10569
▁наслед	-10570
▁обмена	-10571
▁опуска	-10572
▁собака	-10573
▁фактор	-10574
▁химика	-10575
статочно	-10576
▁вопросе	-10577
▁запечат	-10578
▁началом	-10579
▁произно	-10580
▁странам	-10581
▁ужасные	-10582
▁клетками	-10583
▁обществу	-10584
▁открытий	-10585
▁подобным	-10586
▁чувством	-10587
▁Посмотрим	-10588
▁произошед	-10589
▁работники	-10590
▁собрались	-10591
▁соединить	-10592
▁созданием	-10593
▁солнечный	-10594
▁элементар	-10595
▁физической	-10596
▁отправиться	-10597
▁поразительно	-10598
вь	-10599
ори	-10600
▁65	-10601
▁Фу	-10602
▁сё	-10603
диоз	-10604
мили	-10605
▁191	-10606
▁Tim	-10607
▁Доб	-10608
▁Кла	-10609
▁Сти	-10610
▁ору	-10611
▁хит	-10612
рению	-10613
ённой	-10614
▁арти	-10615
▁обоб	-10616
▁осво	-10617
▁пиро	-10618
▁схва	-10619
новому	-10620
▁Госпо	-10621
▁Точно	-10622
▁выдви	-10623
▁клето	-10624
▁немед	-10625
▁нефтя	-10626
▁посте	-10627
▁прого	-10628
▁старо	-10629
▁столе	-10630
▁чемпи	-10631
▁Скорее	-10632
▁девяти	-10633
▁звезда	-10634
▁пингви	-10635
▁принес	-10636
▁ростом	-10637
тивность	-10638
▁бабушки	-10639
▁кажутся	-10640
▁меньшей	-10641
▁направи	-10642
▁продать	-10643
▁кампанию	-10644
▁пережить	-10645
▁показано	-10646
▁приближа	-10647
▁растение	-10648
▁реальный	-10649
▁страдает	-10650
▁остальным	-10651
▁поступать	-10652
▁управляет	-10653
▁несомненно	-10654
▁загрязнения	-10655
▁используете	-10656
▁многообрази	-10657
▁электростан	-10658
▁присоединиться	-10659
▁d	-10660
зил	-10661
мец	-10662
рея	-10663
упо	-10664
▁2-	-10665
вшую	-10666
кали	-10667
куру	-10668
ленд	-10669
няла	-10670
роны	-10671
шена	-10672
▁193	-10673
▁нос	-10674
▁цар	-10675
бирая	-10676
стное	-10677
▁Уган	-10678
▁отзы	-10679
▁рези	-10680
▁усво	-10681
▁хозя	-10682
▁акцен	-10683
▁безна	-10684
▁брата	-10685
▁едино	-10686
▁затро	-10687
▁матри	-10688
▁молча	-10689
▁орган	-10690
▁силах	-10691
ционную	-10692
▁жертвы	-10693
▁лагерь	-10694
▁ногами	-10695
▁отдыха	-10696
▁охваты	-10697
▁полёта	-10698
▁служит	-10699
▁создан	-10700
▁холоди	-10701
▁ассоциа	-10702
▁выступи	-10703
▁подойти	-10704
▁попытка	-10705
▁взглянем	-10706
▁выходить	-10707
▁полноцен	-10708
▁сущность	-10709
▁достигает	-10710
▁заявление	-10711
▁перестали	-10712
▁потратить	-10713
▁хозяйство	-10714
▁глобальное	-10715
▁называются	-10716
▁находитесь	-10717
▁произвести	-10718
▁зависимость	-10719
▁произведение	-10720
og	-10721
ец	-10722
бия	-10723
меча	-10724
щить	-10725
▁Пан	-10726
▁лёд	-10727
▁пах	-10728
▁рос	-10729
▁сел	-10730
летов	-10731
цеден	-10732
▁2006	-10733
▁Маль	-10734
▁Меди	-10735
▁бейс	-10736
▁вино	-10737
▁даём	-10738
▁мони	-10739
▁мото	-10740
▁нови	-10741
▁шаги	-10742
шенных	-10743
▁верху	-10744
▁женой	-10745
▁нетер	-10746
▁прину	-10747
▁эпохи	-10748
▁адапти	-10749
▁диамет	-10750
▁обойти	-10751
▁парней	-10752
▁подряд	-10753
▁прочим	-10754
▁района	-10755
▁скучно	-10756
▁списке	-10757
▁узнаем	-10758
▁чёрные	-10759
▁бояться	-10760
▁детской	-10761
▁занятий	-10762
▁незамет	-10763
▁очереди	-10764
▁полиоми	-10765
▁служить	-10766
▁Западной	-10767
▁рассказы	-10768
▁христиан	-10769
▁Следующий	-10770
▁богатства	-10771
▁регулярно	-10772
▁государств	-10773
▁социальный	-10774
▁стремление	-10775
аплодисменты	-10776
▁оказываются	-10777
▁определённо	-10778
▁потенциально	-10779
▁сосредоточиться	-10780
аги	-10781
ваи	-10782
▁оз	-10783
дишь	-10784
дным	-10785
каса	-10786
ссий	-10787
стка	-10788
▁Дэн	-10789
▁соу	-10790
вшими	-10791
ровку	-10792
▁Twit	-10793
▁Прин	-10794
▁займ	-10795
▁исце	-10796
бовали	-10797
ваемые	-10798
вающим	-10799
матери	-10800
рождён	-10801
торией	-10802
▁Майкл	-10803
▁белка	-10804
▁берёт	-10805
▁взвол	-10806
▁видны	-10807
▁оболо	-10808
▁парла	-10809
▁Западе	-10810
▁входит	-10811
▁героев	-10812
▁кнопку	-10813
▁криста	-10814
▁лучшая	-10815
▁случая	-10816
▁вакцины	-10817
▁должное	-10818
▁журнале	-10819
▁изучали	-10820
▁красота	-10821
▁страсть	-10822
▁метаболи	-10823
▁горизонта	-10824
▁историями	-10825
▁мгновение	-10826
▁настоящем	-10827
▁оптимисти	-10828
▁поблагода	-10829
▁препараты	-10830
▁инвестиции	-10831
▁отправились	-10832
▁руководство	-10833
▁беспокоиться	-10834
▁общественной	-10835
▁поддерживает	-10836
IT	-10837
ob	-10838
um	-10839
жало	-10840
▁сей	-10841
▁фай	-10842
несте	-10843
▁возь	-10844
▁днев	-10845
▁мною	-10846
▁соли	-10847
▁ходу	-10848
▁цене	-10849
▁этни	-10850
▁детях	-10851
▁забро	-10852
▁закре	-10853
▁звуко	-10854
▁крите	-10855
▁левой	-10856
▁линей	-10857
▁назов	-10858
▁загово	-10859
▁отделя	-10860
▁вручную	-10861
▁кровати	-10862
▁научный	-10863
▁новатор	-10864
▁подверг	-10865
▁убивают	-10866
▁Александ	-10867
▁практику	-10868
▁находился	-10869
▁политиков	-10870
▁поступить	-10871
▁спрашиваю	-10872
▁употребля	-10873
▁испытывать	-10874
▁маленького	-10875
▁объединяет	-10876
▁поработать	-10877
▁предложили	-10878
▁наблюдается	-10879
▁соответству	-10880
▁потребителей	-10881
▁происходящее	-10882
▁разнообразия	-10883
▁способностью	-10884
ep	-10885
нёс	-10886
берг	-10887
ришь	-10888
сень	-10889
▁нев	-10890
восто	-10891
телен	-10892
товый	-10893
▁букв	-10894
▁выпи	-10895
▁иску	-10896
▁края	-10897
зацией	-10898
рители	-10899
▁Видео	-10900
▁вреда	-10901
▁годам	-10902
▁крыль	-10903
▁лазер	-10904
▁общая	-10905
▁проби	-10906
▁роско	-10907
▁сесть	-10908
▁схема	-10909
глядеть	-10910
ционное	-10911
▁России	-10912
▁газеты	-10913
▁лагере	-10914
▁пожела	-10915
▁сектор	-10916
▁выросли	-10917
▁доллара	-10918
▁мыслить	-10919
▁подошёл	-10920
▁Предполо	-10921
▁жидкость	-10922
▁исчезает	-10923
▁координа	-10924
▁молодёжи	-10925
▁открытым	-10926
▁показало	-10927
▁правилам	-10928
▁приехали	-10929
▁признаки	-10930
▁принятие	-10931
▁супермар	-10932
▁документы	-10933
▁настоящей	-10934
▁родителям	-10935
▁динозавров	-10936
пплодисменты	-10937
▁препятствия	-10938
▁сотрудничать	-10939
▁искусственный	-10940
Бу	-10941
zon	-10942
ами	-10943
без	-10944
зки	-10945
лец	-10946
пам	-10947
цет	-10948
зили	-10949
риев	-10950
секу	-10951
▁Эту	-10952
▁сно	-10953
греди	-10954
дился	-10955
колад	-10956
талии	-10957
▁2016	-10958
▁Холо	-10959
▁неба	-10960
▁разъ	-10961
▁своя	-10962
▁теме	-10963
вились	-10964
лённые	-10965
полага	-10966
сматри	-10967
▁волос	-10968
▁заказ	-10969
▁пишут	-10970
▁смеши	-10971
▁сферы	-10972
▁схожи	-10973
▁таков	-10974
▁тесто	-10975
▁убира	-10976
смотрим	-10977
▁Начнём	-10978
▁важней	-10979
▁высоты	-10980
▁коридо	-10981
▁музыке	-10982
▁поиски	-10983
▁собран	-10984
▁ходили	-10985
удитория	-10986
▁вирусов	-10987
▁публику	-10988
▁испытать	-10989
▁красивые	-10990
▁моментов	-10991
▁обычного	-10992
▁пропуска	-10993
▁сэкономи	-10994
▁экстреми	-10995
▁Последние	-10996
▁воплотить	-10997
▁известные	-10998
▁инопланет	-10999
▁обсуждали	-11000
▁приобрета	-11001
▁работаете	-11002
▁взаимосвяз	-11003
▁продолжаем	-11004
▁компьютерной	-11005
▁доказательств	-11006
▁исследователей	-11007
la	-11008
бры	-11009
мам	-11010
сай	-11011
даль	-11012
драв	-11013
пати	-11014
чины	-11015
щика	-11016
▁10,	-11017
ждена	-11018
стная	-11019
▁Поло	-11020
▁краю	-11021
▁лени	-11022
▁мыше	-11023
▁цере	-11024
гистри	-11025
▁Каким	-11026
▁возьм	-11027
▁годом	-11028
▁начну	-11029
▁разло	-11030
▁спрос	-11031
▁стиль	-11032
▁ходят	-11033
▁позабо	-11034
▁пришел	-11035
▁распла	-11036
▁Нобелев	-11037
▁близких	-11038
▁высвобо	-11039
▁делятся	-11040
▁отвечаю	-11041
▁принято	-11042
▁разнови	-11043
▁теорети	-11044
▁хорошую	-11045
▁центром	-11046
▁возгласы	-11047
▁грандиоз	-11048
▁директор	-11049
▁идеологи	-11050
▁изменять	-11051
▁лестнице	-11052
▁атмосфере	-11053
▁возможные	-11054
▁попросила	-11055
▁телевизор	-11056
▁интересным	-11057
▁результата	-11058
▁образовании	-11059
▁расположены	-11060
▁собственном	-11061
▁существующих	-11062
▁удовольствия	-11063
▁инвестировать	-11064
▁экономические	-11065
▁взаимодействуют	-11066
душ	-11067
зам	-11068
лко	-11069
лёк	-11070
хам	-11071
опар	-11072
сные	-11073
▁бок	-11074
▁жут	-11075
▁пчё	-11076
▁усы	-11077
▁эфи	-11078
нятся	-11079
тания	-11080
▁2013	-11081
▁Луну	-11082
▁актё	-11083
▁веса	-11084
▁изго	-11085
▁мышь	-11086
▁сход	-11087
▁дикой	-11088
▁досту	-11089
▁колла	-11090
▁несча	-11091
▁низко	-11092
▁остры	-11093
▁побли	-11094
▁термо	-11095
ствуете	-11096
▁изучал	-11097
▁искали	-11098
▁удосто	-11099
▁упуска	-11100
▁вакцина	-11101
▁высоких	-11102
▁коробку	-11103
▁поведен	-11104
▁подарок	-11105
▁попытке	-11106
▁страхов	-11107
▁темноте	-11108
▁ученики	-11109
▁вопросам	-11110
▁заметила	-11111
▁искренне	-11112
▁поворачи	-11113
▁приводят	-11114
▁небольших	-11115
▁небольшую	-11116
▁неизбежно	-11117
▁открывает	-11118
▁характера	-11119
▁осознавать	-11120
▁психологии	-11121
▁распознать	-11122
фицированных	-11123
▁беременности	-11124
▁доказательство	-11125
▁взаимоотношения	-11126
»:	-11127
ом	-11128
▁0	-11129
ros	-11130
бар	-11131
жив	-11132
нта	-11133
нета	-11134
сных	-11135
цвет	-11136
шаем	-11137
▁Вне	-11138
▁рус	-11139
новых	-11140
▁Были	-11141
▁Неве	-11142
▁делу	-11143
▁коры	-11144
▁штра	-11145
тацией	-11146
ченное	-11147
▁возму	-11148
▁вслед	-11149
▁кирпи	-11150
▁магни	-11151
▁твоей	-11152
организ	-11153
произво	-11154
ровался	-11155
▁бедные	-11156
▁длиной	-11157
▁личные	-11158
▁настаи	-11159
▁низким	-11160
▁плохое	-11161
▁совета	-11162
▁старый	-11163
▁строим	-11164
ленности	-11165
ничество	-11166
▁большом	-11167
▁братьев	-11168
▁выборах	-11169
▁вывести	-11170
▁достига	-11171
▁изучаем	-11172
▁ингреди	-11173
▁корабля	-11174
▁постави	-11175
▁соседей	-11176
▁состави	-11177
рованного	-11178
▁Довольно	-11179
▁деньгами	-11180
▁компроми	-11181
▁находясь	-11182
▁осознали	-11183
▁содержат	-11184
▁потратили	-11185
▁внутренний	-11186
▁говорилось	-11187
▁социальную	-11188
▁запрограмми	-11189
▁собственным	-11190
йду	-11191
мея	-11192
▁Ир	-11193
люми	-11194
▁Сте	-11195
берку	-11196
ехали	-11197
менте	-11198
товые	-11199
шенно	-11200
▁Эфио	-11201
▁доно	-11202
▁несо	-11203
▁скор	-11204
▁член	-11205
ерархи	-11206
женный	-11207
ровало	-11208
ствиях	-11209
ходила	-11210
ёнными	-11211
▁Голос	-11212
▁блага	-11213
▁боюсь	-11214
▁взаим	-11215
▁друже	-11216
▁камен	-11217
▁почву	-11218
▁росла	-11219
▁цикла	-11220
тивными	-11221
▁Говоря	-11222
▁грамот	-11223
▁заняты	-11224
▁колони	-11225
▁нанима	-11226
▁шансов	-11227
▁батарей	-11228
▁девушки	-11229
▁деталей	-11230
▁поездки	-11231
▁полиция	-11232
▁создана	-11233
▁убеждён	-11234
▁уменьши	-11235
рительные	-11236
тизирован	-11237
▁Вероятно	-11238
▁десятков	-11239
▁знаниями	-11240
▁необычай	-11241
▁основана	-11242
▁оставили	-11243
▁подходят	-11244
▁беспокоит	-11245
▁выступить	-11246
▁доставить	-11247
▁источника	-11248
▁профессии	-11249
▁конфликтов	-11250
▁прекрасное	-11251
▁произойдет	-11252
▁заключалась	-11253
▁необходимое	-11254
▁необходимых	-11255
▁собираетесь	-11256
▁коммуникации	-11257
▁присутствует	-11258
▁заинтересован	-11259
Са	-11260
бот	-11261
ппо	-11262
▁No	-11263
▁Аб	-11264
▁БД	-11265
▁ке	-11266
мому	-11267
нило	-11268
рота	-11269
▁Хан	-11270
▁бол	-11271
▁куп	-11272
лавли	-11273
тость	-11274
▁Дере	-11275
▁Исла	-11276
▁Марк	-11277
▁тени	-11278
▁убор	-11279
графия	-11280
▁Амазо	-11281
▁Трети	-11282
▁живем	-11283
▁изуми	-11284
▁мошен	-11285
▁секто	-11286
▁сидят	-11287
▁типов	-11288
▁товар	-11289
▁Доктор	-11290
▁Прошло	-11291
▁вступи	-11292
▁высоту	-11293
▁камень	-11294
▁обманы	-11295
▁одержи	-11296
▁сидела	-11297
▁умерла	-11298
▁учётом	-11299
▁военные	-11300
▁воспиты	-11301
▁длинные	-11302
▁матерей	-11303
▁наличии	-11304
▁основой	-11305
▁перепол	-11306
▁причину	-11307
тельством	-11308
▁областей	-11309
▁поистине	-11310
▁проводил	-11311
▁изменении	-11312
▁конфликта	-11313
▁окончания	-11314
▁окружении	-11315
▁повышение	-11316
▁попытался	-11317
▁признание	-11318
▁способные	-11319
▁сработает	-11320
▁библиотеки	-11321
▁выполнения	-11322
▁интересных	-11323
▁недостаток	-11324
▁представим	-11325
▁основываясь	-11326
▁рассказывают	-11327
▁столкновения	-11328
▁экономических	-11329
др	-11330
▁%	-11331
жах	-11332
льё	-11333
лёз	-11334
этт	-11335
виру	-11336
дило	-11337
мпий	-11338
пели	-11339
пель	-11340
хими	-11341
▁выу	-11342
▁гам	-11343
▁каз	-11344
▁пещ	-11345
ндеми	-11346
неров	-11347
пания	-11348
стрем	-11349
▁Ваша	-11350
▁Ваши	-11351
▁Фили	-11352
▁горе	-11353
▁отло	-11354
▁расы	-11355
летняя	-11356
▁Самый	-11357
▁волна	-11358
▁дождь	-11359
▁кухне	-11360
▁общую	-11361
▁путем	-11362
лизован	-11363
▁Третий	-11364
▁видами	-11365
▁загадо	-11366
▁задают	-11367
▁погиба	-11368
▁прямой	-11369
▁решают	-11370
▁стремя	-11371
▁читали	-11372
▁автоном	-11373
▁богатые	-11374
▁зеркало	-11375
▁мечтать	-11376
▁неэффек	-11377
▁острове	-11378
▁полного	-11379
▁получит	-11380
▁развить	-11381
▁спектра	-11382
▁инфекции	-11383
▁моментом	-11384
▁отличная	-11385
▁понимала	-11386
▁странные	-11387
▁Используя	-11388
▁наркотики	-11389
▁зарегистри	-11390
▁парниковых	-11391
▁сохранения	-11392
▁благополучи	-11393
▁встречается	-11394
▁ограничений	-11395
▁предприятия	-11396
▁электронной	-11397
▁инструментом	-11398
▁микроорганиз	-11399
▁стремительно	-11400
бах	-11401
льф	-11402
рка	-11403
чне	-11404
ьем	-11405
▁XI	-11406
▁Ок	-11407
▁ПО	-11408
▁СО	-11409
дное	-11410
жнее	-11411
лико	-11412
мьер	-11413
сный	-11414
стон	-11415
стый	-11416
▁1,5	-11417
▁15-	-11418
▁2,5	-11419
▁Сек	-11420
RISPR	-11421
дному	-11422
ейсбу	-11423
▁Уров	-11424
▁Фрэн	-11425
▁вина	-11426
▁октя	-11427
▁твои	-11428
▁твоя	-11429
▁ушли	-11430
▁фаль	-11431
▁целе	-11432
англий	-11433
жённых	-11434
▁Совет	-11435
▁Таймс	-11436
▁обеих	-11437
▁памят	-11438
▁писем	-11439
▁сбора	-11440
▁CRISPR	-11441
▁Помимо	-11442
▁будешь	-11443
▁истины	-11444
▁средой	-11445
▁урожай	-11446
рованным	-11447
▁допуска	-11448
▁игроков	-11449
▁королев	-11450
▁микробы	-11451
▁надежде	-11452
▁большому	-11453
▁группами	-11454
▁невозмож	-11455
▁принести	-11456
▁пропаган	-11457
▁протести	-11458
▁Солнечной	-11459
▁выглядела	-11460
▁побережья	-11461
▁попробуем	-11462
▁развитием	-11463
▁солнечных	-11464
▁буквальном	-11465
▁профилакти	-11466
▁собирались	-11467
▁поддержания	-11468
▁потрясающие	-11469
фт	-11470
ind	-11471
ver	-11472
чаем	-11473
▁Был	-11474
▁Вен	-11475
▁Гон	-11476
▁Тан	-11477
▁сжа	-11478
▁умо	-11479
добие	-11480
едино	-11481
несли	-11482
чиком	-11483
щийся	-11484
▁Коли	-11485
▁Обще	-11486
▁влюб	-11487
▁зубы	-11488
▁клад	-11489
▁коже	-11490
▁корм	-11491
▁ложь	-11492
▁обре	-11493
мерика	-11494
▁второ	-11495
▁выгод	-11496
▁глава	-11497
▁матер	-11498
▁смесь	-11499
▁Органи	-11500
▁верили	-11501
▁выводы	-11502
▁выреза	-11503
▁журнал	-11504
▁начнёт	-11505
▁поиске	-11506
▁привёл	-11507
▁сдержи	-11508
▁успоко	-11509
▁чудови	-11510
▁великие	-11511
▁вовремя	-11512
▁госпита	-11513
▁коробки	-11514
▁находит	-11515
▁пожилых	-11516
▁предков	-11517
▁фермеры	-11518
▁чрезмер	-11519
▁бедность	-11520
▁колледжа	-11521
▁мальчика	-11522
▁реальных	-11523
▁снижение	-11524
▁столетия	-11525
▁телескоп	-11526
▁фармацев	-11527
▁поддержка	-11528
▁показываю	-11529
▁реагируют	-11530
▁реконстру	-11531
▁серьёзная	-11532
▁называемой	-11533
▁сообществе	-11534
▁медицинские	-11535
▁неравенства	-11536
▁предпринять	-11537
▁Исследования	-11538
▁удивительных	-11539
▁финансирование	-11540
кте	-11541
лём	-11542
▁Bl	-11543
веро	-11544
вязи	-11545
киды	-11546
моро	-11547
ряет	-11548
енько	-11549
▁Архи	-11550
▁Джим	-11551
▁веры	-11552
▁карт	-11553
▁нали	-11554
▁несу	-11555
▁типы	-11556
вающую	-11557
▁Давай	-11558
▁близо	-11559
▁волок	-11560
▁нормы	-11561
▁парке	-11562
▁почвы	-11563
▁путей	-11564
▁разор	-11565
▁режим	-11566
▁такти	-11567
▁ущерб	-11568
▁школь	-11569
▁штуки	-11570
▁эпизо	-11571
строить	-11572
▁каковы	-11573
▁нервни	-11574
▁ошелом	-11575
▁попали	-11576
▁приста	-11577
▁рейтин	-11578
▁ставит	-11579
▁трудом	-11580
▁уголов	-11581
▁затраты	-11582
▁колонии	-11583
▁начинаю	-11584
▁называет	-11585
▁образуют	-11586
▁потребля	-11587
▁практики	-11588
▁проститу	-11589
▁уважение	-11590
▁астрономи	-11591
▁выражения	-11592
▁дизайнеры	-11593
▁ненависти	-11594
▁основании	-11595
▁перевести	-11596
▁демократию	-11597
▁компаниями	-11598
▁немедленно	-11599
▁потепление	-11600
▁сотрудники	-11601
▁Задумайтесь	-11602
▁повреждения	-11603
▁развиваются	-11604
▁современном	-11605
▁естественным	-11606
▁пересмотреть	-11607
▁производстве	-11608
▁существовало	-11609
▁предположение	-11610
▁инфраструктуру	-11611
бин	-11612
вор	-11613
теи	-11614
▁Йо	-11615
дная	-11616
етах	-11617
етра	-11618
ехал	-11619
крат	-11620
мога	-11621
хора	-11622
чиво	-11623
чёта	-11624
штаб	-11625
▁192	-11626
▁60%	-11627
▁Мор	-11628
▁бой	-11629
▁пли	-11630
▁сби	-11631
жемся	-11632
стина	-11633
▁100%	-11634
▁брак	-11635
▁бюдж	-11636
▁едой	-11637
▁лягу	-11638
▁моги	-11639
▁муже	-11640
▁наук	-11641
▁сина	-11642
▁фоне	-11643
▁Сдела	-11644
▁Томас	-11645
▁верил	-11646
▁влюби	-11647
▁вулка	-11648
▁глупы	-11649
▁живет	-11650
▁пункт	-11651
▁сенсо	-11652
▁ходил	-11653
▁языки	-11654
▁братья	-11655
▁переез	-11656
▁рекорд	-11657
▁синхро	-11658
▁эстети	-11659
возможно	-11660
▁Twitter	-11661
▁вернусь	-11662
▁деревню	-11663
▁каранда	-11664
▁лучшими	-11665
▁наверху	-11666
▁письмен	-11667
▁племени	-11668
▁позицию	-11669
▁поймёте	-11670
▁рисунок	-11671
▁сделало	-11672
▁термина	-11673
▁убивает	-11674
▁ужасное	-11675
▁Вернёмся	-11676
▁казаться	-11677
▁наследие	-11678
▁осталась	-11679
▁повысить	-11680
▁страницу	-11681
▁движением	-11682
▁институты	-11683
▁коррупции	-11684
▁напомнить	-11685
▁необходим	-11686
▁обществом	-11687
▁побережье	-11688
▁продолжал	-11689
▁произошли	-11690
▁сравнении	-11691
▁интерпрета	-11692
▁посмотрела	-11693
▁сконцентри	-11694
▁социальная	-11695
▁становимся	-11696
▁статистика	-11697
▁поднимается	-11698
▁проявляется	-11699
▁реагировать	-11700
▁впоследствии	-11701
▁определяется	-11702
▁передвигаться	-11703
▁.	-11704
тья	-11705
берт	-11706
сная	-11707
тров	-11708
циоз	-11709
▁Поя	-11710
▁азо	-11711
▁дар	-11712
▁джу	-11713
▁жел	-11714
▁сад	-11715
▁свы	-11716
▁сюр	-11717
балан	-11718
клето	-11719
крати	-11720
▁2004	-11721
▁Брай	-11722
▁Увер	-11723
▁взло	-11724
▁зона	-11725
▁зону	-11726
▁обру	-11727
▁тупи	-11728
таться	-11729
шаться	-11730
▁грома	-11731
▁звали	-11732
▁кругу	-11733
▁лицен	-11734
▁нации	-11735
▁разры	-11736
▁сопри	-11737
▁сюжет	-11738
▁бежать	-11739
▁гласит	-11740
▁жертву	-11741
▁мощный	-11742
▁наблюд	-11743
▁налого	-11744
▁пальцы	-11745
▁парази	-11746
▁плохая	-11747
▁работо	-11748
▁развер	-11749
▁светом	-11750
▁спектр	-11751
▁удивля	-11752
▁умение	-11753
▁будущих	-11754
▁воедино	-11755
▁отрасли	-11756
▁пандеми	-11757
▁снимать	-11758
▁туберку	-11759
▁приобрет	-11760
▁развитых	-11761
▁раскрыть	-11762
▁родитель	-11763
▁странное	-11764
▁квантовой	-11765
▁показывал	-11766
▁структуре	-11767
▁подвержены	-11768
▁подготовки	-11769
▁территория	-11770
▁английского	-11771
▁заключённых	-11772
▁зарабатывать	-11773
▁удивительный	-11774
▁замечательная	-11775
кал	-11776
пил	-11777
чше	-11778
чёр	-11779
▁МТ	-11780
▁ОК	-11781
▁бь	-11782
день	-11783
дино	-11784
здно	-11785
пали	-11786
рную	-11787
чила	-11788
▁40%	-11789
▁XXI	-11790
▁вон	-11791
▁сор	-11792
пытно	-11793
стика	-11794
стром	-11795
ённое	-11796
▁Пару	-11797
▁Тома	-11798
▁архе	-11799
▁войн	-11800
▁груд	-11801
▁жени	-11802
▁идём	-11803
▁мужа	-11804
▁мяса	-11805
▁твер	-11806
▁шума	-11807
дитесь	-11808
жённые	-11809
тальян	-11810
ющуюся	-11811
▁Какая	-11812
▁Милли	-11813
▁атомы	-11814
▁включ	-11815
▁галлю	-11816
▁добав	-11817
▁имело	-11818
▁опира	-11819
▁печат	-11820
▁смеша	-11821
▁сынов	-11822
▁толщи	-11823
▁ухажи	-11824
▁Честно	-11825
▁Четыре	-11826
▁больно	-11827
▁лучшую	-11828
▁наружу	-11829
▁низкой	-11830
▁новому	-11831
▁обходи	-11832
▁описал	-11833
▁оранже	-11834
▁потряс	-11835
▁синдро	-11836
▁слайде	-11837
▁травмы	-11838
зываться	-11839
▁Гарвард	-11840
▁выявить	-11841
▁глубины	-11842
▁кардина	-11843
▁красным	-11844
▁лечении	-11845
▁неизмен	-11846
▁обследо	-11847
▁обычным	-11848
▁поехать	-11849
▁покупки	-11850
▁получаю	-11851
▁свободе	-11852
▁творить	-11853
▁течении	-11854
▁хромосо	-11855
▁вопросах	-11856
▁помогали	-11857
▁поступил	-11858
▁придется	-11859
▁регионах	-11860
▁талантли	-11861
▁искусстве	-11862
▁мобильных	-11863
▁наступает	-11864
▁научилась	-11865
▁разрешить	-11866
▁солнечные	-11867
▁спутников	-11868
▁достижение	-11869
▁рассказали	-11870
▁счастливее	-11871
▁находящихся	-11872
▁программное	-11873
▁становились	-11874
▁возвращаются	-11875
▁компьютерные	-11876
▁справедливость	-11877
oft	-11878
вия	-11879
жок	-11880
▁2.	-11881
▁3-	-11882
▁Фе	-11883
дков	-11884
рака	-11885
▁Нем	-11886
▁нов	-11887
стива	-11888
▁долг	-11889
▁излу	-11890
▁лого	-11891
▁нало	-11892
▁ряда	-11893
▁томо	-11894
▁черт	-11895
▁шизо	-11896
ённого	-11897
▁Будет	-11898
▁квали	-11899
▁несёт	-11900
ционным	-11901
▁всякий	-11902
▁втором	-11903
▁живёте	-11904
▁замкну	-11905
▁массив	-11906
▁обожаю	-11907
▁прегра	-11908
▁сексом	-11909
▁семена	-11910
▁символ	-11911
▁спортс	-11912
▁формой	-11913
▁властью	-11914
▁голосов	-11915
▁занятие	-11916
▁изучили	-11917
▁калорий	-11918
▁матерью	-11919
▁ожидали	-11920
▁питание	-11921
▁ставить	-11922
▁углекис	-11923
▁церковь	-11924
▁Обратите	-11925
▁жидкости	-11926
▁замечать	-11927
▁записать	-11928
▁картинка	-11929
▁постанов	-11930
▁продвига	-11931
▁странами	-11932
▁телефону	-11933
▁третьего	-11934
▁журналист	-11935
▁заполнить	-11936
▁маленьком	-11937
▁оказывает	-11938
▁популяции	-11939
▁приходить	-11940
▁физиологи	-11941
▁дизайнеров	-11942
▁ограничены	-11943
▁проведения	-11944
▁проявления	-11945
▁гражданской	-11946
▁сострадания	-11947
▁температуру	-11948
▁утверждение	-11949
▁оборудования	-11950
▁составляющие	-11951
▁распределение	-11952
▁правительством	-11953
Те	-11954
зг	-11955
▁s	-11956
▁29	-11957
▁3,	-11958
▁37	-11959
▁Ch	-11960
▁ТВ	-11961
ждой	-11962
▁Фри	-11963
▁Шан	-11964
▁иди	-11965
▁миф	-11966
▁сго	-11967
icros	-11968
вится	-11969
тками	-11970
▁иное	-11971
▁лицу	-11972
▁моро	-11973
▁скре	-11974
▁флаг	-11975
зрение	-11976
▁банка	-11977
▁еврей	-11978
▁молит	-11979
▁росту	-11980
▁рынки	-11981
ственны	-11982
▁затрат	-11983
▁злоупо	-11984
▁молоко	-11985
▁правом	-11986
▁районы	-11987
▁Приведу	-11988
▁иерархи	-11989
▁местной	-11990
▁оставил	-11991
▁помести	-11992
▁создает	-11993
▁учёными	-11994
▁шоколад	-11995
▁граждане	-11996
▁захотите	-11997
▁наблюдал	-11998
▁построил	-11999
▁разногла	-12000
▁сознании	-12001
▁выглядело	-12002
▁городской	-12003
▁появление	-12004
▁объяснения	-12005
▁президентом	-12006
▁опубликовали	-12007
вии	-12008
ите	-12009
шоу	-12010
▁Ах	-12011
знен	-12012
пози	-12013
ссан	-12014
ссом	-12015
тала	-12016
▁Бал	-12017
▁Мил	-12018
▁неи	-12019
▁нож	-12020
кручи	-12021
немся	-12022
фикси	-12023
▁2003	-12024
▁боло	-12025
▁душа	-12026
▁егип	-12027
▁млрд	-12028
▁тури	-12029
лливуд	-12030
ляться	-12031
толкну	-12032
▁верто	-12033
▁вторы	-12034
▁выдер	-12035
▁китов	-12036
▁плодо	-12037
▁сахар	-12038
▁урага	-12039
▁Джеймс	-12040
▁Совсем	-12041
▁Стивен	-12042
▁безраз	-12043
▁доклад	-12044
▁костюм	-12045
▁нажима	-12046
▁океаны	-12047
▁отража	-12048
▁премии	-12049
▁притво	-12050
▁равных	-12051
▁ранние	-12052
▁статья	-12053
▁твёрдо	-12054
▁урбани	-12055
▁хватит	-12056
▁чёрный	-12057
▁Пакиста	-12058
▁выстраи	-12059
▁достать	-12060
▁объясню	-12061
▁парадок	-12062
▁пластик	-12063
▁похожее	-12064
▁старших	-12065
▁четырех	-12066
▁восторге	-12067
▁зрителей	-12068
▁обратной	-12069
▁появятся	-12070
▁преследу	-12071
▁проводит	-12072
▁услышите	-12073
▁экстрема	-12074
▁изменился	-12075
▁компаниям	-12076
▁конкретно	-12077
▁неврологи	-12078
▁преподава	-12079
▁реагирует	-12080
▁сообществ	-12081
▁сохранять	-12082
▁управляют	-12083
▁количеству	-12084
▁обратились	-12085
▁продолжали	-12086
▁студентами	-12087
▁десятилетие	-12088
▁долгосрочной	-12089
▁передвижения	-12090
▁почувствовал	-12091
▁представляем	-12092
▁международных	-12093
▁заинтересованы	-12094
AS	-12095
бл	-12096
вне	-12097
вот	-12098
дож	-12099
ису	-12100
фак	-12101
▁ДБ	-12102
▁ДХ	-12103
▁Це	-12104
брал	-12105
доне	-12106
ктах	-12107
▁Смо	-12108
▁Тор	-12109
▁джи	-12110
▁сбе	-12111
жание	-12112
много	-12113
ронта	-12114
▁2001	-12115
▁Быть	-12116
▁запя	-12117
▁миры	-12118
▁сдел	-12119
▁ужин	-12120
▁Масса	-12121
▁задер	-12122
▁запас	-12123
▁искал	-12124
▁коров	-12125
▁мамой	-12126
▁неотъ	-12127
▁проли	-12128
▁пропо	-12129
▁решёт	-12130
▁февра	-12131
▁Википе	-12132
▁Европу	-12133
▁винова	-12134
▁застря	-12135
▁издели	-12136
▁контей	-12137
▁оптима	-12138
▁платят	-12139
▁посеща	-12140
▁силами	-12141
▁собрал	-12142
▁судьбы	-12143
▁физике	-12144
▁центры	-12145
▁встречу	-12146
▁думаешь	-12147
▁зависят	-12148
▁заповед	-12149
▁полезны	-12150
▁продажи	-12151
▁рыболов	-12152
▁готовить	-12153
▁изменила	-12154
▁интерфей	-12155
▁местного	-12156
▁недоступ	-12157
▁новостях	-12158
▁отдельно	-12159
▁позволят	-12160
▁приспосо	-12161
▁задейство	-12162
▁краткосро	-12163
▁механизма	-12164
▁описывает	-12165
▁произошёл	-12166
▁создаётся	-12167
▁указывает	-12168
▁Вашингтоне	-12169
▁крупнейших	-12170
▁наблюдение	-12171
▁разговоров	-12172
▁увеличения	-12173
▁финансовой	-12174
▁презентации	-12175
▁предполагает	-12176
▁дискриминации	-12177
▁замечательное	-12178
▁стихотворение	-12179
▁дополнительные	-12180
▁характеристики	-12181
Ве	-12182
ай	-12183
пя	-12184
юр	-12185
▁зи	-12186
Боже	-12187
днев	-12188
льям	-12189
ткой	-12190
чнее	-12191
▁рын	-12192
▁чья	-12193
стаби	-12194
телях	-12195
торий	-12196
▁Даль	-12197
▁Само	-12198
▁авгу	-12199
▁друж	-12200
▁клей	-12201
▁маме	-12202
▁огра	-12203
▁цифр	-12204
▁Рожде	-12205
▁Счита	-12206
▁верит	-12207
▁камни	-12208
▁любым	-12209
▁раска	-12210
▁бассей	-12211
▁бейсбо	-12212
▁выходя	-12213
▁здании	-12214
▁лекции	-12215
▁любому	-12216
▁найдём	-12217
▁никуда	-12218
▁присла	-12219
▁пузырь	-12220
▁теряем	-12221
▁церемо	-12222
icrosoft	-12223
▁бессмыс	-12224
▁интегри	-12225
▁муравьи	-12226
▁выделить	-12227
▁неспособ	-12228
▁прогнози	-12229
▁самолёта	-12230
▁жизненный	-12231
▁концепции	-12232
▁предрассу	-12233
▁следовало	-12234
▁сравнения	-12235
▁химиотера	-12236
▁обращаться	-12237
▁показалось	-12238
▁полученные	-12239
▁содержится	-12240
▁вдохновляет	-12241
▁образованию	-12242
▁эффективнее	-12243
▁национальной	-12244
▁потребовалось	-12245
▁путешествовать	-12246
лэ	-12247
amp	-12248
рат	-12249
юза	-12250
▁XV	-12251
зади	-12252
стах	-12253
▁120	-12254
▁Учи	-12255
▁Хай	-12256
▁выр	-12257
крови	-12258
чника	-12259
щемся	-12260
▁Хигг	-12261
▁инде	-12262
▁куча	-12263
▁мари	-12264
▁похи	-12265
▁руба	-12266
▁счет	-12267
женной	-12268
лились	-12269
▁Штаты	-12270
▁жилья	-12271
▁корни	-12272
▁отрас	-12273
▁сжима	-12274
▁синий	-12275
▁суста	-12276
▁театр	-12277
▁тормо	-12278
▁химии	-12279
▁Британ	-12280
▁геноци	-12281
▁голубы	-12282
▁затруд	-12283
▁защища	-12284
▁звуков	-12285
▁провин	-12286
▁скепти	-12287
▁экрана	-12288
▁гравита	-12289
▁графике	-12290
▁просили	-12291
▁черноко	-12292
▁муравьёв	-12293
▁основным	-12294
▁открытый	-12295
▁потеряла	-12296
▁призываю	-12297
▁продвину	-12298
▁сценарий	-12299
▁индустрия	-12300
▁интересах	-12301
▁недооцени	-12302
▁окружение	-12303
▁осознание	-12304
▁перенести	-12305
▁художника	-12306
▁Рассмотрим	-12307
▁маленькими	-12308
▁называемые	-12309
▁начинаются	-12310
▁переговоры	-12311
▁передавать	-12312
▁потепления	-12313
▁правильные	-12314
▁сочувствие	-12315
▁физических	-12316
▁финансовые	-12317
▁соотношение	-12318
Апплодисменты	-12319
▁использовала	-12320
▁космического	-12321
▁существующие	-12322
ур	-12323
Все	-12324
вцы	-12325
вёт	-12326
жек	-12327
кза	-12328
чеб	-12329
▁Ши	-12330
▁йо	-12331
види	-12332
рали	-12333
фейс	-12334
▁ели	-12335
зобра	-12336
таций	-12337
тился	-12338
тотех	-12339
▁Вене	-12340
▁Вьет	-12341
▁Гейт	-12342
▁Зада	-12343
▁Могу	-12344
▁выло	-12345
доступ	-12346
▁Times	-12347
▁винов	-12348
▁выбер	-12349
▁ехать	-12350
▁музее	-12351
▁наход	-12352
▁серии	-12353
▁умеет	-12354
▁шизоф	-12355
▁белого	-12356
▁беседы	-12357
▁ввести	-12358
▁деревя	-12359
▁кукуру	-12360
▁лучшем	-12361
▁мелкие	-12362
▁правды	-12363
▁смешно	-12364
▁стекло	-12365
▁строят	-12366
▁часами	-12367
▁Большой	-12368
▁дыхания	-12369
▁зафикси	-12370
▁имеются	-12371
▁информи	-12372
▁обучать	-12373
▁отреаги	-12374
▁погрузи	-12375
▁подавля	-12376
▁притяги	-12377
▁прочего	-12378
▁Большого	-12379
▁дисципли	-12380
▁зарплаты	-12381
▁поступки	-12382
▁продукта	-12383
▁прощения	-12384
▁рабочего	-12385
▁сделаете	-12386
▁задумался	-12387
▁здоровьем	-12388
▁мобильные	-12389
▁необыкнов	-12390
▁плотность	-12391
▁поведении	-12392
▁позволила	-12393
▁поместили	-12394
▁революцию	-12395
▁составить	-12396
▁задумались	-12397
▁изменениям	-12398
▁компоненты	-12399
▁корпорации	-12400
▁пользуемся	-12401
▁социальное	-12402
▁финансовых	-12403
▁архитектуры	-12404
▁генетически	-12405
▁конструкции	-12406
▁повсеместно	-12407
▁потрясающий	-12408
▁республикан	-12409
▁способностей	-12410
▁традиционных	-12411
▁международной	-12412
▁следовательно	-12413
em	-12414
omo	-12415
вел	-12416
гое	-12417
пию	-12418
тью	-12419
ёны	-12420
▁1.	-12421
▁щё	-12422
линд	-12423
нены	-12424
рным	-12425
сном	-12426
тник	-12427
толи	-12428
тран	-12429
▁MIT	-12430
▁впа	-12431
▁уши	-12432
▁юге	-12433
ниями	-12434
чатки	-12435
▁Куда	-12436
▁бегу	-12437
▁гале	-12438
▁лежа	-12439
▁мясо	-12440
▁попо	-12441
▁ушло	-12442
▁фона	-12443
▁Аркти	-12444
▁Джейн	-12445
▁Попро	-12446
▁испор	-12447
▁мечту	-12448
▁нашел	-12449
▁писто	-12450
▁секса	-12451
▁сериа	-12452
▁сумма	-12453
ждённых	-12454
ренебре	-12455
▁Всегда	-12456
▁Египте	-12457
▁Лондон	-12458
▁будьте	-12459
▁видишь	-12460
▁деталь	-12461
▁заменя	-12462
▁правой	-12463
▁пугает	-12464
▁создаю	-12465
▁старой	-12466
▁сферах	-12467
▁чтения	-12468
▁Система	-12469
▁благода	-12470
▁голосом	-12471
▁дедушка	-12472
▁дорогой	-12473
▁кроется	-12474
▁материн	-12475
▁остался	-12476
▁прогноз	-12477
▁районов	-12478
▁религия	-12479
▁успехом	-12480
▁движутся	-12481
▁доступно	-12482
▁захотели	-12483
▁иммунной	-12484
▁операция	-12485
▁принципу	-12486
▁приступа	-12487
▁прототип	-12488
▁сигналов	-12489
▁системах	-12490
▁Microsoft	-12491
▁богатство	-12492
▁выполняют	-12493
▁маленькое	-12494
▁массового	-12495
▁партнёров	-12496
▁платформу	-12497
▁поступает	-12498
▁принимали	-12499
▁следствие	-12500
▁выступлений	-12501
▁загрязнение	-12502
▁потребитель	-12503
▁представлял	-12504
▁современный	-12505
▁игнорировать	-12506
▁сегодняшнего	-12507
▁демонстрирует	-12508
40	-12509
</	-12510
ak	-12511
шал	-12512
ване	-12513
вард	-12514
слой	-12515
ссор	-12516
▁Вой	-12517
▁Джи	-12518
▁Шек	-12519
▁гек	-12520
▁ков	-12521
▁соц	-12522
▁уко	-12523
▁фло	-12524
mazon	-12525
гладе	-12526
льшую	-12527
менее	-12528
нному	-12529
товых	-12530
▁Авто	-12531
▁лома	-12532
▁мучи	-12533
▁нера	-12534
▁номе	-12535
▁рыча	-12536
▁ряду	-12537
▁трое	-12538
▁шара	-12539
кратно	-12540
рующей	-12541
▁Новой	-12542
▁Обама	-12543
▁Треть	-12544
▁абсур	-12545
▁акулы	-12546
▁анима	-12547
▁замер	-12548
▁общин	-12549
▁общих	-12550
▁осмот	-12551
▁подпи	-12552
▁прока	-12553
▁прост	-12554
▁серию	-12555
▁склад	-12556
▁спине	-12557
▁Первые	-12558
▁Хиггса	-12559
▁верблю	-12560
▁вторую	-12561
▁изучая	-12562
▁лихора	-12563
▁медика	-12564
▁методи	-12565
▁миссии	-12566
▁пешком	-12567
▁поиско	-12568
▁соседи	-12569
▁спутни	-12570
▁теряют	-12571
▁изучают	-12572
▁импульс	-12573
▁комната	-12574
▁красные	-12575
▁материя	-12576
▁меньшин	-12577
▁перепро	-12578
▁погибли	-12579
▁получат	-12580
▁пустыне	-12581
▁размеры	-12582
▁беспомощ	-12583
▁предстоя	-12584
▁сводится	-12585
▁согласен	-12586
▁эксперты	-12587
▁Правильно	-12588
▁головолом	-12589
▁последнюю	-12590
▁принципов	-12591
▁создавали	-12592
▁студентам	-12593
▁интереснее	-12594
▁предлагают	-12595
▁социальным	-12596
▁счастливым	-12597
▁территорию	-12598
▁гражданских	-12599
▁невероятной	-12600
▁особенность	-12601
▁реализовать	-12602
▁согласились	-12603
▁уверенности	-12604
▁возможностью	-12605
▁устойчивость	-12606
▁американского	-12607
эл	-12608
ack	-12609
жом	-12610
лаз	-12611
меи	-12612
алов	-12613
риал	-12614
теть	-12615
▁МРТ	-12616
▁Окс	-12617
▁Эли	-12618
▁бух	-12619
▁ман	-12620
▁ука	-12621
▁эле	-12622
чному	-12623
▁Деся	-12624
▁бюро	-12625
▁лету	-12626
▁сете	-12627
▁умру	-12628
▁штор	-12629
Знаете	-12630
ванная	-12631
генера	-12632
рующий	-12633
▁газет	-12634
▁завод	-12635
▁курса	-12636
▁навод	-12637
▁поспо	-12638
▁ровно	-12639
▁Париже	-12640
▁долгий	-12641
▁звонок	-12642
▁испыту	-12643
▁лёгкие	-12644
▁морали	-12645
▁придёт	-12646
▁пропор	-12647
▁родной	-12648
▁словах	-12649
образить	-12650
рованное	-12651
▁Экономи	-12652
▁аэропор	-12653
▁великий	-12654
▁жертвой	-12655
▁захочет	-12656
▁итальян	-12657
▁нестаби	-12658
▁попыток	-12659
▁разреза	-12660
▁смартфо	-12661
▁эффекта	-12662
▁быстрого	-12663
▁подобной	-12664
▁покинуть	-12665
▁предвари	-12666
▁сомнений	-12667
▁цифровые	-12668
▁экспонен	-12669
▁выглядели	-12670
▁галлюцина	-12671
▁давлением	-12672
▁испытаний	-12673
▁концепция	-12674
▁мобильный	-12675
▁наподобие	-12676
▁преобразу	-12677
▁проблемам	-12678
▁собирался	-12679
▁изменением	-12680
▁творческий	-12681
▁Удивительно	-12682
▁вероятности	-12683
▁любопытство	-12684
▁становиться	-12685
▁технологиям	-12686
▁обеспечивает	-12687
▁рассказывали	-12688
▁определённого	-12689
▁обстоятельствах	-12690
тс	-12691
Где	-12692
ане	-12693
ано	-12694
рес	-12695
тип	-12696
фин	-12697
чин	-12698
▁33	-12699
▁ЮН	-12700
ждеб	-12701
жене	-12702
физи	-12703
▁XIX	-12704
блоки	-12705
вился	-12706
форде	-12707
форму	-12708
чусет	-12709
▁Безу	-12710
▁Иису	-12711
▁Тыся	-12712
▁Чего	-12713
▁опер	-12714
▁плав	-12715
▁река	-12716
вшаяся	-12717
▁вибра	-12718
▁драго	-12719
▁завое	-12720
▁индей	-12721
▁охран	-12722
▁схемы	-12723
масштаб	-12724
▁Внутри	-12725
▁Запада	-12726
▁Италии	-12727
▁Канаде	-12728
▁Роберт	-12729
▁бумаге	-12730
▁избран	-12731
▁картин	-12732
▁лидера	-12733
▁мотоци	-12734
▁оттого	-12735
▁оценку	-12736
▁предше	-12737
▁стекля	-12738
▁улучши	-12739
▁фунтов	-12740
жительно	-12741
▁главные	-12742
▁графика	-12743
▁древние	-12744
▁древних	-12745
▁лидером	-12746
▁машиной	-12747
▁открыла	-12748
▁отталки	-12749
▁перелом	-12750
▁повышен	-12751
▁подруга	-12752
▁премьер	-12753
▁считала	-12754
▁училась	-12755
▁функцию	-12756
▁Британии	-12757
▁институт	-12758
▁подключа	-12759
▁трансген	-12760
▁встретить	-12761
▁закончили	-12762
▁поступают	-12763
▁проходить	-12764
▁радикально	-12765
▁углекислый	-12766
▁почувствовала	-12767
▁финансирования	-12768
ул	-12769
▁Ци	-12770
года	-12771
дона	-12772
енью	-12773
ффер	-12774
шной	-12775
ьера	-12776
▁Ана	-12777
▁Бет	-12778
▁Наи	-12779
▁Рио	-12780
прово	-12781
ровок	-12782
стики	-12783
▁выно	-12784
▁жены	-12785
▁мара	-12786
▁окси	-12787
▁очер	-12788
▁шире	-12789
вестно	-12790
▁Какое	-12791
▁войти	-12792
▁врачу	-12793
▁вымер	-12794
▁ждали	-12795
▁живое	-12796
▁мышей	-12797
▁набро	-12798
▁нести	-12799
▁подав	-12800
▁терпи	-12801
▁фонда	-12802
▁цветы	-12803
▁вирусы	-12804
▁ездить	-12805
▁занять	-12806
▁купили	-12807
▁моделя	-12808
▁третье	-12809
▁числом	-12810
▁чёрная	-12811
зависимо	-12812
▁астроно	-12813
▁быстрый	-12814
▁нервной	-12815
▁опасных	-12816
▁подошла	-12817
▁поймать	-12818
▁секвени	-12819
▁сильных	-12820
▁скажите	-12821
▁снимков	-12822
▁частной	-12823
Анджелесе	-12824
язательно	-12825
▁Президен	-12826
▁вынужден	-12827
▁животным	-12828
▁избегать	-12829
▁остается	-12830
▁подключи	-12831
▁поиграть	-12832
▁поражает	-12833
▁построен	-12834
▁пренебре	-12835
▁родились	-12836
▁смотрела	-12837
▁собирают	-12838
▁взгляните	-12839
▁вспоминаю	-12840
▁выбраться	-12841
▁выживание	-12842
▁стволовые	-12843
▁учитывать	-12844
▁разрушения	-12845
▁требования	-12846
▁утверждать	-12847
▁африканских	-12848
▁направлениях	-12849
▁преступление	-12850
▁собственности	-12851
1.	-12852
8%	-12853
▁n	-12854
вам	-12855
зве	-12856
▁Ад	-12857
▁ир	-12858
нусь	-12859
▁Тра	-12860
▁Чёр	-12861
дцати	-12862
ровке	-12863
▁Адам	-12864
▁газо	-12865
▁ищет	-12866
▁поде	-12867
▁пыли	-12868
▁сбро	-12869
Привет	-12870
больше	-12871
началу	-12872
нялись	-12873
следок	-12874
▁Искус	-12875
▁Самые	-12876
▁героя	-12877
▁углом	-12878
▁уметь	-12879
дителем	-12880
национа	-12881
ченными	-12882
▁Данные	-12883
▁Хотите	-12884
▁врачом	-12885
▁голосу	-12886
▁заявил	-12887
▁любила	-12888
▁нелега	-12889
▁панели	-12890
▁режисс	-12891
▁сидите	-12892
▁устран	-12893
▁Большая	-12894
▁Европей	-12895
▁Неужели	-12896
▁враждеб	-12897
▁мировоз	-12898
▁похожих	-12899
▁прожить	-12900
▁рабочий	-12901
▁Огромное	-12902
▁беспоряд	-12903
▁болезнен	-12904
▁конструи	-12905
▁мудрость	-12906
▁послание	-12907
▁убийства	-12908
▁ядерного	-12909
▁Последний	-12910
▁вырастить	-12911
▁изменению	-12912
▁снижается	-12913
▁участвуют	-12914
▁Массачусет	-12915
▁называемых	-12916
▁работающие	-12917
▁стремиться	-12918
▁творческие	-12919
▁беспрецеден	-12920
▁закончилось	-12921
▁заслуживают	-12922
▁последующие	-12923
▁Университета	-12924
▁вероятностью	-12925
▁производству	-12926
▁биологические	-12927
Бе	-12928
▁,	-12929
?».	-12930
диг	-12931
рец	-12932
▁55	-12933
▁Шо	-12934
▁ай	-12935
вето	-12936
гена	-12937
гера	-12938
дена	-12939
▁30%	-12940
▁Боб	-12941
▁Кли	-12942
▁Лор	-12943
▁Пот	-12944
▁глю	-12945
▁пан	-12946
▁яко	-12947
бовал	-12948
говой	-12949
льшая	-12950
менов	-12951
рений	-12952
▁2050	-12953
▁боги	-12954
▁жира	-12955
▁ладо	-12956
▁саму	-12957
▁Норве	-12958
▁Сирии	-12959
▁забыл	-12960
▁малыш	-12961
▁песен	-12962
▁споры	-12963
▁фирмы	-12964
▁шагов	-12965
▁Европа	-12966
▁альтру	-12967
▁велика	-12968
▁выдели	-12969
▁застре	-12970
▁костей	-12971
▁латино	-12972
▁метода	-12973
▁ожидал	-12974
▁олицет	-12975
▁печени	-12976
▁помеша	-12977
▁прямом	-12978
▁великой	-12979
▁встрече	-12980
▁глубину	-12981
▁музыкой	-12982
▁мыслями	-12983
▁отпуска	-12984
▁отрывок	-12985
▁секторе	-12986
▁функция	-12987
▁ядерной	-12988
рованными	-12989
▁Бангладе	-12990
▁взглядов	-12991
▁выбираем	-12992
▁известна	-12993
▁контекст	-12994
▁местными	-12995
▁напряжён	-12996
▁объяснил	-12997
▁описания	-12998
▁пересека	-12999
▁проверки	-13000
▁создадим	-13001
▁старения	-13002
▁учителем	-13003
▁Вспомните	-13004
▁гомосексу	-13005
▁интересов	-13006
▁случаются	-13007
▁глобальных	-13008
▁изменились	-13009
▁математику	-13010
▁правильном	-13011
▁привлекает	-13012
▁Соединенных	-13013
▁отслеживать	-13014
▁Университете	-13015
▁американские	-13016
▁вмешательства	-13017
▁почувствовали	-13018
▁представляете	-13019
▁существовании	-13020
▁инфраструктура	-13021
▁использоваться	-13022
Ин	-13023
▁<	-13024
art	-13025
лью	-13026
мед	-13027
мик	-13028
▁ЛГ	-13029
▁ПТ	-13030
бовь	-13031
ится	-13032
сяза	-13033
тяну	-13034
▁190	-13035
▁Рим	-13036
▁аро	-13037
▁мин	-13038
▁чей	-13039
дерни	-13040
плика	-13041
ппара	-13042
унами	-13043
▁беру	-13044
▁гара	-13045
▁лучи	-13046
▁мышц	-13047
▁реку	-13048
▁рубе	-13049
▁свал	-13050
▁твоё	-13051
▁угля	-13052
контро	-13053
нитесь	-13054
ряется	-13055
шенные	-13056
▁Закон	-13057
▁СПИДа	-13058
▁Слева	-13059
▁накор	-13060
▁ничем	-13061
▁питье	-13062
▁погре	-13063
▁поезд	-13064
▁полов	-13065
▁спари	-13066
▁Amazon	-13067
▁Малень	-13068
▁беседу	-13069
▁вечера	-13070
▁детёны	-13071
▁заняло	-13072
▁незаме	-13073
▁объёма	-13074
▁опусто	-13075
▁парнем	-13076
▁подзем	-13077
▁попала	-13078
▁популя	-13079
▁удалён	-13080
ствовало	-13081
тический	-13082
▁Эйнштей	-13083
▁доходит	-13084
▁любимая	-13085
▁парадиг	-13086
▁хранить	-13087
▁Министер	-13088
▁вызывать	-13089
▁выиграть	-13090
▁действию	-13091
▁ключевой	-13092
▁мужчинам	-13093
▁олицетво	-13094
▁отличные	-13095
▁приехала	-13096
▁странице	-13097
▁течением	-13098
▁услышала	-13099
▁доступной	-13100
▁местополо	-13101
▁настоящую	-13102
▁отражение	-13103
▁гравитации	-13104
▁значимость	-13105
▁исключения	-13106
▁небольшого	-13107
▁попытались	-13108
▁правильное	-13109
▁проследить	-13110
▁взаимосвязи	-13111
▁достоинства	-13112
▁изображении	-13113
▁религиозных	-13114
▁справляются	-13115
▁возвращаться	-13116
▁глобализации	-13117
▁собственными	-13118
▁поблагодарить	-13119
ra	-13120
ul	-13121
НБ	-13122
мм	-13123
Кто	-13124
изм	-13125
каи	-13126
нья	-13127
▁42	-13128
▁Эл	-13129
дьбы	-13130
ился	-13131
рону	-13132
чуть	-13133
▁21-	-13134
▁Pro	-13135
▁еде	-13136
▁тел	-13137
▁чип	-13138
руйте	-13139
сабли	-13140
▁Дэви	-13141
▁вслу	-13142
▁коля	-13143
▁наво	-13144
▁огля	-13145
▁пери	-13146
▁пить	-13147
▁прим	-13148
▁рома	-13149
▁саду	-13150
▁серы	-13151
рующая	-13152
стного	-13153
тилась	-13154
▁Любой	-13155
▁адрес	-13156
▁ветря	-13157
▁круга	-13158
▁некое	-13159
▁пещер	-13160
▁покоя	-13161
▁пошло	-13162
▁промы	-13163
▁слоёв	-13164
▁трещи	-13165
▁чинов	-13166
пустила	-13167
ходятся	-13168
▁Аристо	-13169
▁Каждое	-13170
▁выборе	-13171
▁нечего	-13172
▁образа	-13173
▁поехал	-13174
▁стояла	-13175
дителями	-13176
▁аспекты	-13177
▁данного	-13178
▁захотел	-13179
▁зелёный	-13180
▁исчезли	-13181
▁моделью	-13182
▁неверно	-13183
▁обезьян	-13184
▁образов	-13185
▁перешли	-13186
▁срабаты	-13187
▁аппарата	-13188
▁массовой	-13189
▁недалеко	-13190
▁половине	-13191
▁прослуши	-13192
▁различий	-13193
▁свойство	-13194
▁сельское	-13195
▁экологии	-13196
▁Аудитория	-13197
▁возрастом	-13198
▁доступным	-13199
▁ингредиен	-13200
▁понимаешь	-13201
▁пытаетесь	-13202
▁сочетание	-13203
▁формируют	-13204
▁доступными	-13205
▁инвестиций	-13206
▁населением	-13207
▁невообрази	-13208
▁правосудия	-13209
▁статистике	-13210
▁упражнения	-13211
▁утверждают	-13212
▁внутреннего	-13213
▁переговоров	-13214
▁воспоминаний	-13215
▁человеческую	-13216
▁биологических	-13217
▁переосмыслить	-13218
Де	-13219
бил	-13220
гле	-13221
зий	-13222
шах	-13223
гура	-13224
дией	-13225
кона	-13226
лизм	-13227
нено	-13228
рона	-13229
суди	-13230
таны	-13231
▁Дви	-13232
▁Сью	-13233
▁Чет	-13234
▁рок	-13235
гнали	-13236
гнать	-13237
лился	-13238
логом	-13239
нетом	-13240
преки	-13241
▁Помо	-13242
▁изли	-13243
▁стул	-13244
▁угла	-13245
ванную	-13246
вязыва	-13247
чиками	-13248
щенные	-13249
▁1970-	-13250
▁Индию	-13251
▁Одной	-13252
▁Откры	-13253
▁Проце	-13254
▁Элект	-13255
▁крыше	-13256
▁персо	-13257
▁подар	-13258
▁прима	-13259
▁сумму	-13260
▁схему	-13261
▁тарел	-13262
▁Мартин	-13263
▁бедным	-13264
▁забыли	-13265
▁личное	-13266
▁севере	-13267
▁совпад	-13268
▁уходят	-13269
▁Испании	-13270
▁Лондона	-13271
▁выключа	-13272
▁выполня	-13273
▁закрыть	-13274
▁мельчай	-13275
▁неудачи	-13276
▁согласо	-13277
английски	-13278
ствование	-13279
▁важности	-13280
▁варианта	-13281
▁жертвами	-13282
▁партнёра	-13283
▁подсозна	-13284
▁столкнов	-13285
▁успешной	-13286
▁водоросли	-13287
▁вспомните	-13288
▁доброволь	-13289
▁интерфейс	-13290
▁освещения	-13291
▁своеобраз	-13292
▁улучшение	-13293
▁уравнения	-13294
▁воссоздать	-13295
▁глобальном	-13296
▁миллионами	-13297
▁понравится	-13298
▁профессора	-13299
▁разработку	-13300
▁следующему	-13301
▁мероприятия	-13302
▁перспективы	-13303
▁показателей	-13304
▁приспосабли	-13305
▁сантиметров	-13306
▁счастливыми	-13307
▁эффективным	-13308
▁Единственное	-13309
▁поверхностью	-13310
▁восстановление	-13311
БР	-13312
–1	-13313
вес	-13314
дор	-13315
чую	-13316
▁пь	-13317
чком	-13318
▁Сли	-13319
▁бун	-13320
▁зла	-13321
▁мон	-13322
довал	-13323
етьте	-13324
кисло	-13325
ленда	-13326
логия	-13327
совой	-13328
▁Груп	-13329
▁Смит	-13330
▁джин	-13331
▁духа	-13332
▁обер	-13333
▁отво	-13334
▁отпу	-13335
▁отчё	-13336
▁поце	-13337
▁сбли	-13338
ванное	-13339
ляются	-13340
▁Библи	-13341
▁длину	-13342
▁докто	-13343
▁задал	-13344
▁колен	-13345
▁ногах	-13346
▁отмет	-13347
▁полон	-13348
▁прова	-13349
▁самки	-13350
▁следы	-13351
▁стану	-13352
▁счета	-13353
▁тонне	-13354
▁фразу	-13355
▁фразы	-13356
▁выбран	-13357
▁месяце	-13358
▁огляды	-13359
▁особое	-13360
▁перена	-13361
▁пользы	-13362
▁развед	-13363
▁станем	-13364
▁старта	-13365
▁стояли	-13366
▁страхи	-13367
▁тестов	-13368
▁фальши	-13369
простран	-13370
▁Востоке	-13371
▁автобус	-13372
▁всерьёз	-13373
▁единого	-13374
▁имеющих	-13375
▁клетках	-13376
▁металли	-13377
▁неподви	-13378
▁осведом	-13379
▁подбира	-13380
▁поехали	-13381
▁позднее	-13382
▁посвящё	-13383
▁рисунки	-13384
▁следуют	-13385
▁являюсь	-13386
стический	-13387
▁амбициоз	-13388
▁исчезают	-13389
▁медицина	-13390
▁отчаянно	-13391
▁повлияло	-13392
▁приносят	-13393
▁сельской	-13394
▁городских	-13395
▁известная	-13396
▁предсказу	-13397
▁рекоменда	-13398
▁робототех	-13399
▁стандарты	-13400
▁величайших	-13401
▁внутренней	-13402
▁внутренние	-13403
▁записывать	-13404
▁продолжала	-13405
▁разместить	-13406
▁распределя	-13407
▁американский	-13408
▁медицинского	-13409
▁образованием	-13410
▁общественное	-13411
▁существовали	-13412
▁уверенностью	-13413
▁общественности	-13414
ica	-13415
дые	-13416
шай	-13417
▁Же	-13418
бота	-13419
граф	-13420
дала	-13421
зиат	-13422
лежа	-13423
ряют	-13424
филь	-13425
▁АНБ	-13426
▁ФБР	-13427
▁лей	-13428
▁ноя	-13429
▁рим	-13430
▁чьё	-13431
метро	-13432
▁вход	-13433
▁дыра	-13434
▁моды	-13435
▁назо	-13436
▁окре	-13437
▁петь	-13438
зирует	-13439
ковали	-13440
летним	-13441
▁1950-	-13442
▁Сатур	-13443
▁белок	-13444
▁дожде	-13445
▁кадры	-13446
▁опыту	-13447
▁перви	-13448
▁полёт	-13449
▁ремон	-13450
▁свыше	-13451
▁серти	-13452
▁сжига	-13453
▁сража	-13454
▁строй	-13455
▁умных	-13456
▁фраза	-13457
Давайте	-13458
▁Музыка	-13459
▁Швеции	-13460
▁аккуму	-13461
▁бараба	-13462
▁защита	-13463
▁золото	-13464
▁миссия	-13465
▁облако	-13466
▁отрази	-13467
▁прибре	-13468
▁ранней	-13469
▁слонов	-13470
▁товари	-13471
▁высокую	-13472
▁голубой	-13473
▁границу	-13474
▁детских	-13475
▁детство	-13476
▁единицы	-13477
▁заключи	-13478
▁исходит	-13479
▁комплек	-13480
▁коричне	-13481
▁океанов	-13482
▁периоди	-13483
▁позвоно	-13484
▁попрошу	-13485
▁рабочей	-13486
▁рекламы	-13487
▁связать	-13488
▁учились	-13489
▁геометри	-13490
▁глубокое	-13491
▁здоровых	-13492
▁мудрости	-13493
▁наблюдая	-13494
▁наполнен	-13495
▁описание	-13496
▁превраща	-13497
▁снижения	-13498
▁уважения	-13499
▁узнавать	-13500
▁хранения	-13501
▁эпидемия	-13502
▁закономер	-13503
▁известной	-13504
▁крошечные	-13505
▁ненависть	-13506
▁неустойчи	-13507
▁оставляет	-13508
▁проходили	-13509
▁разворачи	-13510
▁художники	-13511
▁достижений	-13512
▁заканчивая	-13513
▁опубликова	-13514
▁перерабаты	-13515
▁свидетелем	-13516
▁смертность	-13517
▁обнаружения	-13518
▁подчеркнуть	-13519
▁концентрации	-13520
▁предпочтения	-13521
▁политического	-13522
▁государственных	-13523
ce	-13524
Лю	-13525
бии	-13526
жий	-13527
фан	-13528
хие	-13529
▁Ры	-13530
вило	-13531
докс	-13532
имчи	-13533
ляли	-13534
пили	-13535
стье	-13536
тори	-13537
▁Дон	-13538
▁Спе	-13539
▁кот	-13540
▁хао	-13541
денци	-13542
сками	-13543
▁Знаю	-13544
▁Мама	-13545
▁Фила	-13546
▁визи	-13547
▁воли	-13548
▁выса	-13549
▁едим	-13550
▁жест	-13551
▁коди	-13552
▁лето	-13553
▁маму	-13554
▁меду	-13555
▁реже	-13556
▁хаос	-13557
▁хлоп	-13558
▁ядра	-13559
грамма	-13560
женное	-13561
летние	-13562
родете	-13563
▁Питер	-13564
▁бомбы	-13565
▁нанес	-13566
▁несут	-13567
▁проры	-13568
▁сексе	-13569
▁стола	-13570
▁субси	-13571
▁ухода	-13572
▁шабло	-13573
▁ядови	-13574
▁аварии	-13575
▁ветера	-13576
▁забуду	-13577
▁личных	-13578
▁мешает	-13579
▁наткну	-13580
▁округе	-13581
▁прости	-13582
▁сказав	-13583
▁студии	-13584
▁умерли	-13585
▁цунами	-13586
половину	-13587
▁Хорошая	-13588
▁вначале	-13589
▁заходит	-13590
▁классах	-13591
▁менедже	-13592
▁методом	-13593
▁молодая	-13594
▁мужчину	-13595
▁основал	-13596
▁получал	-13597
▁редакти	-13598
▁сильным	-13599
▁стрессо	-13600
▁третьем	-13601
▁труднее	-13602
▁условии	-13603
▁влиянием	-13604
▁добавили	-13605
▁занимают	-13606
▁ключевых	-13607
▁молодёжь	-13608
▁основаны	-13609
▁побольше	-13610
▁поверьте	-13611
▁полагают	-13612
▁попросту	-13613
▁поразило	-13614
▁выполняет	-13615
▁должность	-13616
▁известным	-13617
▁контролем	-13618
▁небольшим	-13619
▁приоритет	-13620
▁рисковать	-13621
▁страданий	-13622
▁тенденция	-13623
▁благоприят	-13624
▁достигнуть	-13625
▁отклонения	-13626
▁появляться	-13627
▁расширение	-13628
▁свободного	-13629
▁спрашивает	-13630
▁экспоненци	-13631
▁великолепно	-13632
▁иммигрантов	-13633
▁исполнилось	-13634
▁исследовали	-13635
▁невероятный	-13636
▁определению	-13637
▁компьютерных	-13638
▁понадобилось	-13639
▁расстройство	-13640
▁международные	-13641
▁необязательно	-13642
all	-13643
ure	-13644
алы	-13645
нау	-13646
чаю	-13647
авто	-13648
вные	-13649
гель	-13650
гите	-13651
емен	-13652
зора	-13653
шина	-13654
▁Кни	-13655
▁Уол	-13656
▁веж	-13657
▁миг	-13658
▁нез	-13659
▁цик	-13660
▁шля	-13661
▁яиц	-13662
альны	-13663
зерва	-13664
ковым	-13665
сказу	-13666
струи	-13667
тавли	-13668
ённая	-13669
▁Джек	-13670
▁Мозг	-13671
▁базу	-13672
▁вины	-13673
▁пища	-13674
▁резю	-13675
▁сена	-13676
графию	-13677
дилось	-13678
недель	-13679
▁Самая	-13680
▁акции	-13681
▁вариа	-13682
▁весом	-13683
▁главе	-13684
▁идёте	-13685
▁отбро	-13686
▁пиксе	-13687
▁птица	-13688
▁танец	-13689
▁цензу	-13690
▁Настоя	-13691
▁долине	-13692
▁мигран	-13693
▁неудач	-13694
▁нищеты	-13695
▁одежда	-13696
▁особый	-13697
▁подлин	-13698
▁полным	-13699
▁правах	-13700
▁привер	-13701
▁придут	-13702
▁спиной	-13703
▁ставят	-13704
▁сюрпри	-13705
▁угроза	-13706
▁чистая	-13707
ровалась	-13708
слушайте	-13709
▁взгляда	-13710
▁выраста	-13711
▁городом	-13712
▁границе	-13713
▁добавил	-13714
▁забрать	-13715
▁кораллы	-13716
▁насчиты	-13717
▁оказать	-13718
▁просить	-13719
▁репроду	-13720
▁удалить	-13721
▁хватало	-13722
▁хранили	-13723
▁водитель	-13724
▁говоришь	-13725
▁действии	-13726
▁дизайном	-13727
▁достовер	-13728
▁здоровью	-13729
▁обезьяны	-13730
▁образцов	-13731
▁повлияет	-13732
▁презерва	-13733
▁принесла	-13734
▁прямоуго	-13735
▁расходов	-13736
▁цифровых	-13737
▁компонент	-13738
▁конфликты	-13739
▁поддержке	-13740
▁последним	-13741
▁послушать	-13742
▁темнокожи	-13743
▁философии	-13744
▁Калифорния	-13745
▁катастрофы	-13746
▁микроскопи	-13747
▁назначения	-13748
▁сокращения	-13749
▁медицинскую	-13750
▁сосредоточи	-13751
▁воспринимаем	-13752
▁наслаждаться	-13753
▁эксперименте	-13754
▁родственников	-13755
▁электрические	-13756
▁электрический	-13757
▁здравоохранении	-13758
»]	-13759
Ме	-13760
уд	-13761
▁e	-13762
ber	-13763
Воз	-13764
вка	-13765
▁Sp	-13766
спон	-13767
тору	-13768
▁Иде	-13769
димся	-13770
парта	-13771
рывно	-13772
теров	-13773
▁Луны	-13774
▁Чили	-13775
▁вера	-13776
▁гнез	-13777
▁коде	-13778
▁ноты	-13779
▁прев	-13780
▁терп	-13781
▁учит	-13782
ваемый	-13783
вшееся	-13784
динами	-13785
▁амино	-13786
▁аудио	-13787
▁кошки	-13788
▁некая	-13789
▁пошел	-13790
▁свету	-13791
▁спаль	-13792
▁сутки	-13793
▁такси	-13794
▁тепла	-13795
▁фермы	-13796
▁шутка	-13797
▁Сахары	-13798
▁автома	-13799
▁близки	-13800
▁единиц	-13801
▁запасы	-13802
▁клавиа	-13803
▁личный	-13804
▁любите	-13805
▁набора	-13806
▁нажать	-13807
▁наряду	-13808
▁прорыв	-13809
▁рецепт	-13810
▁середи	-13811
▁тексту	-13812
▁футбол	-13813
▁авторит	-13814
▁антропо	-13815
▁геологи	-13816
▁датчики	-13817
▁задержи	-13818
▁заметно	-13819
▁открыты	-13820
▁получше	-13821
▁проводя	-13822
▁пройдёт	-13823
▁солдаты	-13824
▁фестива	-13825
▁Современ	-13826
▁забывать	-13827
▁заставил	-13828
▁обучении	-13829
▁островов	-13830
▁открытой	-13831
▁северной	-13832
▁спасения	-13833
фицировать	-13834
▁вращается	-13835
▁очевидным	-13836
▁платформы	-13837
▁правления	-13838
▁рентгенов	-13839
▁симптомов	-13840
▁уравнение	-13841
▁полиомиели	-13842
▁специализи	-13843
▁утверждает	-13844
▁вдохновение	-13845
▁взаимосвязь	-13846
▁социальными	-13847
▁Аплодисменты	-13848
▁воспринимают	-13849
▁организацией	-13850
▁организовали	-13851
▁удивительным	-13852
▁человеческим	-13853
▁преобразовать	-13854
▁происходящего	-13855
ha	-13856
жко	-13857
тик	-13858
тос	-13859
гнул	-13860
гули	-13861
зией	-13862
имой	-13863
скет	-13864
тони	-13865
▁Вин	-13866
▁вод	-13867
▁гря	-13868
▁иму	-13869
▁нав	-13870
▁реф	-13871
▁юно	-13872
вации	-13873
зонан	-13874
патии	-13875
храни	-13876
▁Дево	-13877
▁Демо	-13878
▁Золо	-13879
▁ПТСР	-13880
▁ваку	-13881
▁зажи	-13882
▁иным	-13883
▁исте	-13884
▁нуле	-13885
▁посу	-13886
▁скла	-13887
льника	-13888
ченная	-13889
▁Гарри	-13890
▁Иначе	-13891
▁Иными	-13892
▁Номер	-13893
▁брали	-13894
▁входя	-13895
▁зрели	-13896
▁играх	-13897
▁изоби	-13898
▁накло	-13899
▁непол	-13900
▁новей	-13901
▁подоз	-13902
▁полна	-13903
▁поход	-13904
▁сзади	-13905
▁скопи	-13906
▁темой	-13907
▁умный	-13908
▁факта	-13909
▁черта	-13910
вляется	-13911
▁Фейсбу	-13912
▁Чарльз	-13913
▁Швейца	-13914
▁бесчис	-13915
▁доходы	-13916
▁займёт	-13917
▁конвер	-13918
▁мелких	-13919
▁оценка	-13920
▁писала	-13921
▁прочих	-13922
▁ресурс	-13923
▁сестры	-13924
▁службу	-13925
▁стоить	-13926
▁углево	-13927
▁удобно	-13928
▁узнают	-13929
женность	-13930
▁Эфиопии	-13931
▁внешний	-13932
▁выбором	-13933
▁долгого	-13934
▁дорогие	-13935
▁контент	-13936
▁надпись	-13937
▁перечис	-13938
▁прилага	-13939
▁сильной	-13940
▁среднее	-13941
▁третьей	-13942
▁узнаете	-13943
стической	-13944
▁бизнесом	-13945
▁глубокие	-13946
▁измерять	-13947
▁искусств	-13948
▁магистра	-13949
▁научного	-13950
▁обращать	-13951
▁работало	-13952
▁структур	-13953
▁упомянул	-13954
▁хорошими	-13955
▁четверть	-13956
▁двигаются	-13957
▁континент	-13958
▁насекомые	-13959
▁открывать	-13960
▁перестала	-13961
▁помещения	-13962
▁посчастли	-13963
▁следующая	-13964
▁тенденции	-13965
дравствуйте	-13966
▁аминокисло	-13967
▁голосовать	-13968
▁закончится	-13969
▁квадратных	-13970
▁наполовину	-13971
▁отсутствия	-13972
▁поведением	-13973
▁показывали	-13974
▁препаратов	-13975
▁согласился	-13976
▁стоимостью	-13977
▁университе	-13978
▁невероятным	-13979
▁непредсказу	-13980
▁переживания	-13981
▁полицейских	-13982
▁присутствие	-13983
▁цивилизация	-13984
▁естественной	-13985
▁предпочитают	-13986
▁представлены	-13987
▁распоряжении	-13988
▁заболеваниями	-13989
▁национального	-13990
▁разрабатывать	-13991
25	-13992
ip	-13993
кен	-13994
пел	-13995
шаю	-13996
вляю	-13997
груп	-13998
тком	-13999
▁Чер	-14000
▁гло	-14001
▁отс	-14002
▁шер	-14003
ласти	-14004
спорт	-14005
▁Свет	-14006
▁Эрик	-14007
▁апре	-14008
▁база	-14009
▁выде	-14010
▁жаль	-14011
▁клуб	-14012
▁лиши	-14013
▁ноль	-14014
▁огня	-14015
▁озву	-14016
▁поду	-14017
▁прию	-14018
▁слад	-14019
▁слои	-14020
▁солн	-14021
▁спла	-14022
работи	-14023
ставим	-14024
тивном	-14025
чивает	-14026
▁1980-	-14027
▁вытес	-14028
▁дочер	-14029
▁мотор	-14030
▁парка	-14031
▁песок	-14032
▁пиани	-14033
▁расще	-14034
▁родов	-14035
▁штуку	-14036
▁Проект	-14037
▁Силико	-14038
▁Шекспи	-14039
▁батаре	-14040
▁белков	-14041
▁индика	-14042
▁концер	-14043
▁медлен	-14044
▁мембра	-14045
▁неувер	-14046
▁плохих	-14047
▁предви	-14048
▁страхе	-14049
▁строго	-14050
▁учится	-14051
тировали	-14052
▁важными	-14053
▁высокое	-14054
▁девочку	-14055
▁игрушки	-14056
▁изобрёл	-14057
▁исключа	-14058
▁налогов	-14059
▁народов	-14060
▁помогая	-14061
▁придать	-14062
▁проделы	-14063
▁пустыни	-14064
▁рабочем	-14065
▁рабство	-14066
▁реабили	-14067
▁тяжёлые	-14068
▁усердно	-14069
▁Твиттере	-14070
▁выступал	-14071
▁защищает	-14072
▁красного	-14073
▁микрофон	-14074
▁отправил	-14075
▁поставил	-14076
▁принципи	-14077
▁прогнозы	-14078
▁собираем	-14079
▁интересны	-14080
▁оказывать	-14081
▁открытого	-14082
▁повторять	-14083
▁получение	-14084
▁процессом	-14085
▁удивлению	-14086
▁Результаты	-14087
▁континента	-14088
▁настроение	-14089
▁солнечного	-14090
▁изменениями	-14091
▁открывается	-14092
▁совместного	-14093
▁устойчивого	-14094
▁участвовали	-14095
▁обеспечивают	-14096
▁традиционные	-14097
реа	-14098
тны	-14099
▁4,	-14100
▁De	-14101
▁БФ	-14102
▁ТК	-14103
▁ню	-14104
вела	-14105
шами	-14106
▁19-	-14107
▁For	-14108
▁Диа	-14109
▁Клю	-14110
▁Ник	-14111
▁Пит	-14112
▁Хью	-14113
▁дно	-14114
движи	-14115
новые	-14116
тером	-14117
шайте	-14118
▁Арту	-14119
▁Брон	-14120
▁Теле	-14121
▁зате	-14122
▁инсу	-14123
▁отва	-14124
▁ушла	-14125
кратце	-14126
▁Дизай	-14127
▁возвы	-14128
▁гламу	-14129
▁горах	-14130
▁дождя	-14131
▁жильё	-14132
▁кровя	-14133
▁озабо	-14134
▁осмыс	-14135
▁сезон	-14136
Спасибо	-14137
▁вырази	-14138
▁ежегод	-14139
▁клетке	-14140
▁минера	-14141
▁мистер	-14142
▁отпуск	-14143
▁охраны	-14144
▁площад	-14145
▁победы	-14146
▁правди	-14147
▁статей	-14148
▁ученых	-14149
▁физика	-14150
▁штатов	-14151
▁Немного	-14152
▁вершины	-14153
▁высокая	-14154
▁запутан	-14155
▁застрой	-14156
▁знакомо	-14157
▁морские	-14158
▁преобла	-14159
▁разницы	-14160
▁спутник	-14161
▁уровнях	-14162
▁функций	-14163
▁заметите	-14164
▁замечаем	-14165
▁картинке	-14166
▁метафора	-14167
▁миллимет	-14168
▁мужчиной	-14169
▁общаются	-14170
▁означать	-14171
▁открытые	-14172
▁приемлем	-14173
▁работода	-14174
▁разновид	-14175
▁реальным	-14176
▁трагедии	-14177
▁эффектов	-14178
▁Восточной	-14179
▁аудитория	-14180
▁заражения	-14181
▁намеренно	-14182
▁переработ	-14183
▁подростки	-14184
▁разрушить	-14185
▁сконструи	-14186
▁созданный	-14187
▁ультрафио	-14188
▁утверждаю	-14189
▁электрома	-14190
▁Количество	-14191
▁искусством	-14192
▁оставалось	-14193
▁отправлять	-14194
▁проанализи	-14195
▁разглядеть	-14196
▁расширения	-14197
▁трансформи	-14198
▁физическое	-14199
▁гражданские	-14200
▁космический	-14201
▁размышления	-14202
▁столкнуться	-14203
▁Исследование	-14204
▁беспокойство	-14205
▁планирования	-14206
▁человечеству	-14207
▁предотвращения	-14208
se	-14209
Ле	-14210
Ха	-14211
нт	-14212
бей	-14213
зап	-14214
пал	-14215
пут	-14216
уме	-14217
фии	-14218
шой	-14219
▁ть	-14220
вной	-14221
ллин	-14222
нана	-14223
нуло	-14224
шины	-14225
▁12-	-14226
▁20,	-14227
▁Уил	-14228
▁Юпи	-14229
▁оре	-14230
▁сия	-14231
▁умы	-14232
плоди	-14233
приня	-14234
▁Древ	-14235
▁жену	-14236
▁крах	-14237
▁реке	-14238
▁таин	-14239
аппара	-14240
грация	-14241
довали	-14242
енному	-14243
ционно	-14244
щегося	-14245
▁Джейм	-14246
▁Управ	-14247
▁вмеши	-14248
▁вписы	-14249
▁вслух	-14250
▁давай	-14251
▁кроли	-14252
▁лежат	-14253
▁непод	-14254
▁строя	-14255
вайтесь	-14256
спонден	-14257
экономи	-14258
▁Дальше	-14259
▁Канады	-14260
▁аккура	-14261
▁баскет	-14262
▁биораз	-14263
▁заказа	-14264
▁литров	-14265
▁пассив	-14266
▁печати	-14267
▁поезда	-14268
▁пороге	-14269
▁спорта	-14270
▁стыдно	-14271
▁точкой	-14272
▁Понятно	-14273
▁Попробу	-14274
▁живущие	-14275
▁изучала	-14276
▁кармане	-14277
▁личного	-14278
▁племена	-14279
▁пролета	-14280
▁размере	-14281
▁рекламу	-14282
▁слушали	-14283
▁страхом	-14284
▁суперге	-14285
▁желанием	-14286
▁красивый	-14287
▁основано	-14288
▁подробно	-14289
▁позволяя	-14290
▁простыми	-14291
▁прочесть	-14292
▁реалисти	-14293
▁Поднимите	-14294
▁аудиторию	-14295
▁двигается	-14296
▁добродете	-14297
▁идеальный	-14298
▁оказывают	-14299
▁оставляют	-14300
▁платформа	-14301
▁повышения	-14302
▁рождаются	-14303
▁стараемся	-14304
▁стараются	-14305
▁стволовых	-14306
▁считалось	-14307
▁Афганистан	-14308
▁велосипеде	-14309
▁водорослей	-14310
▁вследствие	-14311
▁конфиденци	-14312
▁столкнулся	-14313
▁впечатления	-14314
▁специалисты	-14315
▁исследованию	-14316
▁превратились	-14317
▁сопротивление	-14318
▁удовольствием	-14319
▁предприниматель	-14320
▁w	-14321
бай	-14322
еро	-14323
нус	-14324
тна	-14325
▁31	-14326
▁5-	-14327
ерси	-14328
меди	-14329
ньте	-14330
сали	-14331
слож	-14332
▁25%	-14333
▁Буд	-14334
▁бир	-14335
▁вжи	-14336
▁дья	-14337
▁пет	-14338
▁сыр	-14339
ились	-14340
плодо	-14341
щейся	-14342
▁Была	-14343
▁Клин	-14344
▁Лишь	-14345
▁Спра	-14346
▁Тони	-14347
▁алфа	-14348
▁вере	-14349
▁забе	-14350
▁колё	-14351
▁стес	-14352
вавших	-14353
нейший	-14354
▁Танза	-14355
▁атаки	-14356
▁башни	-14357
▁докла	-14358
▁долей	-14359
▁интро	-14360
▁крыши	-14361
▁листь	-14362
▁обнов	-14363
исследо	-14364
▁Дарвин	-14365
▁Кристо	-14366
▁автори	-14367
▁богаче	-14368
▁боимся	-14369
▁выгоду	-14370
▁геомет	-14371
▁живого	-14372
▁пожало	-14373
▁потока	-14374
▁премию	-14375
▁продаж	-14376
▁цитата	-14377
▁яблоко	-14378
нообрази	-14379
▁Уровень	-14380
▁детские	-14381
▁законам	-14382
▁мировом	-14383
▁начинал	-14384
▁пригото	-14385
▁разумно	-14386
▁собесед	-14387
▁техника	-14388
▁убивать	-14389
▁взглядом	-14390
▁глубокий	-14391
▁изучению	-14392
▁лидерами	-14393
▁малярией	-14394
▁мощности	-14395
▁обучению	-14396
▁подальше	-14397
▁подсчита	-14398
▁покупают	-14399
▁прочитал	-14400
▁совершил	-14401
▁согласия	-14402
▁Вселенную	-14403
▁велосипед	-14404
▁достигают	-14405
▁лаборатор	-14406
▁наблюдала	-14407
▁нуждаемся	-14408
▁обществах	-14409
▁повернуть	-14410
▁документов	-14411
▁неизвестно	-14412
▁нормальной	-14413
▁прекрасным	-14414
▁приложений	-14415
▁экономикой	-14416
▁Предположим	-14417
▁естественный	-14418
▁исчезновения	-14419
▁экономическую	-14420
▁промышленность	-14421
▁яд	-14422
веда	-14423
мала	-14424
сеть	-14425
скри	-14426
сугу	-14427
тури	-14428
▁Med	-14429
▁Мин	-14430
▁Эль	-14431
▁гер	-14432
▁зов	-14433
▁лжи	-14434
▁поу	-14435
новая	-14436
стере	-14437
▁Есте	-14438
▁бабо	-14439
▁весё	-14440
▁деба	-14441
▁осна	-14442
▁отор	-14443
▁плен	-14444
▁поми	-14445
▁посы	-14446
▁седь	-14447
▁укры	-14448
▁упал	-14449
▁фина	-14450
будьте	-14451
кологи	-14452
нности	-14453
писать	-14454
чаться	-14455
▁Латин	-14456
▁всплы	-14457
▁казни	-14458
▁нигде	-14459
▁обоня	-14460
▁пожар	-14461
▁усугу	-14462
ченного	-14463
▁вашими	-14464
▁долгов	-14465
▁книгах	-14466
▁кошмар	-14467
▁начнем	-14468
▁непода	-14469
▁пенсию	-14470
▁племян	-14471
▁помнит	-14472
▁принёс	-14473
▁совеща	-14474
▁стекла	-14475
▁судить	-14476
▁увидев	-14477
▁хороша	-14478
▁чистый	-14479
ваемости	-14480
▁безумно	-14481
▁бюджета	-14482
▁вызвало	-14483
▁камерой	-14484
▁карьере	-14485
▁коммуни	-14486
▁красной	-14487
▁местным	-14488
▁мутации	-14489
▁неудачу	-14490
▁обычная	-14491
▁оружием	-14492
▁отвечал	-14493
▁оценкам	-14494
▁примеча	-14495
▁сигарет	-14496
▁смертью	-14497
▁стабили	-14498
▁центров	-14499
▁читаете	-14500
мериканец	-14501
▁Внезапно	-14502
▁Напротив	-14503
▁Филадель	-14504
▁включают	-14505
▁водорода	-14506
▁молекула	-14507
▁начались	-14508
▁открытых	-14509
▁перестал	-14510
▁потратил	-14511
▁проявить	-14512
▁самолёте	-14513
▁светодио	-14514
▁сложными	-14515
▁убийство	-14516
▁ускорить	-14517
▁бездомных	-14518
▁безработи	-14519
▁дискуссии	-14520
▁заставили	-14521
▁нарушение	-14522
▁останутся	-14523
▁персонажа	-14524
▁проверять	-14525
▁равновеси	-14526
▁серьёзных	-14527
▁созданные	-14528
▁создаются	-14529
▁супермарк	-14530
▁удивление	-14531
▁библиотека	-14532
▁нарисовать	-14533
▁несовершен	-14534
▁образуется	-14535
▁окружающим	-14536
▁публикации	-14537
▁разделение	-14538
▁содержания	-14539
▁творческих	-14540
▁заслуживает	-14541
▁невозможным	-14542
▁продвижения	-14543
▁увеличивает	-14544
▁уменьшается	-14545
▁физического	-14546
▁политическая	-14547
▁инструментами	-14548
▁дополнительных	-14549
Ре	-14550
аа	-14551
пп	-14552
Нью	-14553
жие	-14554
хуа	-14555
шат	-14556
ватт	-14557
гала	-14558
етри	-14559
льфа	-14560
мани	-14561
неди	-14562
риях	-14563
сках	-14564
ссов	-14565
▁Мле	-14566
▁изя	-14567
▁шиф	-14568
альна	-14569
илась	-14570
лизма	-14571
раиль	-14572
синте	-14573
ьтесь	-14574
▁2030	-14575
▁Игра	-14576
▁Каза	-14577
▁Любо	-14578
▁Сара	-14579
▁диаб	-14580
▁изби	-14581
▁нажа	-14582
▁разы	-14583
▁1990-	-14584
▁Пенси	-14585
▁верёв	-14586
▁каков	-14587
▁крохо	-14588
▁масло	-14589
▁новше	-14590
▁опаса	-14591
▁особи	-14592
▁осьми	-14593
▁плаву	-14594
▁проез	-14595
▁проку	-14596
▁ракет	-14597
▁решит	-14598
▁струн	-14599
▁теста	-14600
▁толку	-14601
▁Кембри	-14602
▁анесте	-14603
▁близне	-14604
▁бумагу	-14605
▁внезап	-14606
▁зелены	-14607
▁инстал	-14608
▁кольцо	-14609
▁короле	-14610
▁лагеря	-14611
▁нежела	-14612
▁нижней	-14613
▁общине	-14614
▁оскорб	-14615
▁осново	-14616
▁поймём	-14617
▁потерь	-14618
▁ракеты	-14619
▁раннем	-14620
▁сестёр	-14621
▁слышат	-14622
▁стихий	-14623
▁судьба	-14624
▁съесть	-14625
▁улавли	-14626
▁членом	-14627
▁Манхэтт	-14628
▁бессмер	-14629
▁захотят	-14630
▁зелёные	-14631
▁мировые	-14632
▁недвижи	-14633
▁нетрону	-14634
▁опровер	-14635
▁приборы	-14636
▁пригово	-14637
▁признак	-14638
▁продают	-14639
▁разного	-14640
▁сердцем	-14641
▁сильная	-14642
▁сосудов	-14643
▁устарев	-14644
▁Возьмите	-14645
▁Казалось	-14646
▁безграни	-14647
▁возникли	-14648
▁выбирают	-14649
▁домашних	-14650
▁женщинах	-14651
▁задавали	-14652
▁короткие	-14653
▁ландшафт	-14654
▁максимум	-14655
▁молодого	-14656
▁объединя	-14657
▁окружает	-14658
▁полезным	-14659
▁хищников	-14660
▁депрессию	-14661
▁должности	-14662
▁излучение	-14663
▁компаниях	-14664
▁любопытно	-14665
▁привилеги	-14666
▁природные	-14667
▁проголосо	-14668
▁равенства	-14669
▁ресурсами	-14670
▁способных	-14671
▁Невозможно	-14672
▁окружающие	-14673
▁относились	-14674
▁пользуется	-14675
▁размышлять	-14676
[...]
